{
  "version": "1.0",
  "truncation": null,
  "padding": null,
  "added_tokens": [
    {
      "id": 0,
      "content": "[UNK]",
      "single_word": false,
      "lstrip": false,
      "rstrip": false,
      "normalized": false,
      "special": true
    }
  ],
  "normalizer": {
    "type": "NFKC"
  },
  "pre_tokenizer": {
    "type": "Metaspace",
    "replacement": "▁",
    "prepend_scheme": "always",
    "split": true
  },
  "post_processor": null,
  "decoder": {
    "type": "Metaspace",
    "replacement": "▁",
    "prepend_scheme": "always",
    "split": true
  },
  "model": {
    "type": "BPE",
    "dropout": null,
    "unk_token": "[UNK]",
    "continuing_subword_prefix": null,
    "end_of_word_suffix": null,
    "fuse_unk": false,
    "byte_fallback": false,
    "ignore_merges": false,
    "vocab": {
      "[UNK]": 0,
      "\n": 1,
      "!": 2,
      "\"": 3,
      "#": 4,
      "$": 5,
      "%": 6,
      "&": 7,
      "'": 8,
      "(": 9,
      ")": 10,
      "*": 11,
      "+": 12,
      ",": 13,
      "-": 14,
      ".": 15,
      "/": 16,
      "0": 17,
      "1": 18,
      "2": 19,
      "3": 20,
      "4": 21,
      "5": 22,
      "6": 23,
      "7": 24,
      "8": 25,
      "9": 26,
      ":": 27,
      ";": 28,
      "=": 29,
      "?": 30,
      "A": 31,
      "B": 32,
      "C": 33,
      "D": 34,
      "E": 35,
      "F": 36,
      "G": 37,
      "H": 38,
      "I": 39,
      "J": 40,
      "K": 41,
      "L": 42,
      "M": 43,
      "N": 44,
      "O": 45,
      "P": 46,
      "Q": 47,
      "R": 48,
      "S": 49,
      "T": 50,
      "U": 51,
      "V": 52,
      "W": 53,
      "X": 54,
      "Y": 55,
      "Z": 56,
      "[": 57,
      "]": 58,
      "^": 59,
      "_": 60,
      "a": 61,
      "b": 62,
      "c": 63,
      "d": 64,
      "e": 65,
      "f": 66,
      "g": 67,
      "h": 68,
      "i": 69,
      "j": 70,
      "k": 71,
      "l": 72,
      "m": 73,
      "n": 74,
      "o": 75,
      "p": 76,
      "q": 77,
      "r": 78,
      "s": 79,
      "t": 80,
      "u": 81,
      "v": 82,
      "w": 83,
      "x": 84,
      "y": 85,
      "z": 86,
      "{": 87,
      "|": 88,
      "}": 89,
      "~": 90,
      "°": 91,
      "·": 92,
      "Ö": 93,
      "á": 94,
      "â": 95,
      "æ": 96,
      "ç": 97,
      "è": 98,
      "é": 99,
      "í": 100,
      "ö": 101,
      "ü": 102,
      "ā": 103,
      "ī": 104,
      "Ś": 105,
      "ś": 106,
      "ū": 107,
      "ș": 108,
      "ə": 109,
      "ɦ": 110,
      "ɪ": 111,
      "ɾ": 112,
      "ʊ": 113,
      "ˈ": 114,
      "ː": 115,
      "ί": 116,
      "α": 117,
      "δ": 118,
      "ν": 119,
      "ς": 120,
      "ό": 121,
      "ا": 122,
      "ب": 123,
      "ت": 124,
      "ر": 125,
      "ھ": 126,
      "ँ": 127,
      "ं": 128,
      "ः": 129,
      "अ": 130,
      "आ": 131,
      "इ": 132,
      "ई": 133,
      "उ": 134,
      "ऊ": 135,
      "ऋ": 136,
      "ऍ": 137,
      "ए": 138,
      "ऐ": 139,
      "ऑ": 140,
      "ओ": 141,
      "औ": 142,
      "क": 143,
      "ख": 144,
      "ग": 145,
      "घ": 146,
      "ङ": 147,
      "च": 148,
      "छ": 149,
      "ज": 150,
      "झ": 151,
      "ञ": 152,
      "ट": 153,
      "ठ": 154,
      "ड": 155,
      "ढ": 156,
      "ण": 157,
      "त": 158,
      "थ": 159,
      "द": 160,
      "ध": 161,
      "न": 162,
      "प": 163,
      "फ": 164,
      "ब": 165,
      "भ": 166,
      "म": 167,
      "य": 168,
      "र": 169,
      "ल": 170,
      "ळ": 171,
      "व": 172,
      "श": 173,
      "ष": 174,
      "स": 175,
      "ह": 176,
      "़": 177,
      "ऽ": 178,
      "ा": 179,
      "ि": 180,
      "ी": 181,
      "ु": 182,
      "ू": 183,
      "ृ": 184,
      "े": 185,
      "ै": 186,
      "ॉ": 187,
      "ो": 188,
      "ौ": 189,
      "्": 190,
      "।": 191,
      "॥": 192,
      "०": 193,
      "१": 194,
      "२": 195,
      "३": 196,
      "४": 197,
      "५": 198,
      "६": 199,
      "७": 200,
      "८": 201,
      "९": 202,
      "॰": 203,
      "ত": 204,
      "ভ": 205,
      "র": 206,
      "া": 207,
      "ਤ": 208,
      "ਭ": 209,
      "ਰ": 210,
      "ਾ": 211,
      "ત": 212,
      "ભ": 213,
      "ર": 214,
      "ા": 215,
      "ତ": 216,
      "ଭ": 217,
      "ର": 218,
      "ା": 219,
      "இ": 220,
      "த": 221,
      "ந": 222,
      "ய": 223,
      "ா": 224,
      "ி": 225,
      "்": 226,
      "ం": 227,
      "ః": 228,
      "అ": 229,
      "ఆ": 230,
      "ఇ": 231,
      "ఈ": 232,
      "ఉ": 233,
      "ఋ": 234,
      "ఎ": 235,
      "ఏ": 236,
      "ఐ": 237,
      "ఒ": 238,
      "ఓ": 239,
      "ఔ": 240,
      "క": 241,
      "ఖ": 242,
      "గ": 243,
      "ఘ": 244,
      "చ": 245,
      "ఛ": 246,
      "జ": 247,
      "ఞ": 248,
      "ట": 249,
      "ఠ": 250,
      "డ": 251,
      "ఢ": 252,
      "ణ": 253,
      "త": 254,
      "థ": 255,
      "ద": 256,
      "ధ": 257,
      "న": 258,
      "ప": 259,
      "ఫ": 260,
      "బ": 261,
      "భ": 262,
      "మ": 263,
      "య": 264,
      "ర": 265,
      "ల": 266,
      "ళ": 267,
      "వ": 268,
      "శ": 269,
      "ష": 270,
      "స": 271,
      "హ": 272,
      "ా": 273,
      "ి": 274,
      "ీ": 275,
      "ు": 276,
      "ూ": 277,
      "ృ": 278,
      "ె": 279,
      "ే": 280,
      "ై": 281,
      "ొ": 282,
      "ో": 283,
      "ౌ": 284,
      "్": 285,
      "ṅ": 286,
      "ṇ": 287,
      "Ṛ": 288,
      "ṣ": 289,
      "ṭ": 290,
      "Ἰ": 291,
      "–": 292,
      "—": 293,
      "‘": 294,
      "’": 295,
      "“": 296,
      "”": 297,
      "†": 298,
      "•": 299,
      "′": 300,
      "‹": 301,
      "›": 302,
      "₹": 303,
      "−": 304,
      "▁": 305,
      "in": 306,
      "an": 307,
      "्र": 308,
      "▁क": 309,
      "्य": 310,
      "th": 311,
      "20": 312,
      "on": 313,
      "▁स": 314,
      "ार": 315,
      "er": 316,
      "or": 317,
      "▁(": 318,
      "ar": 319,
      "di": 320,
      "ti": 321,
      "es": 322,
      "al": 323,
      "en": 324,
      "▁th": 325,
      "▁प": 326,
      "▁म": 327,
      "्त": 328,
      "ht": 329,
      "ान": 330,
      "▁the": 331,
      "रा": 332,
      "▁अ": 333,
      "ed": 334,
      "म्": 335,
      ".\n": 336,
      "//": 337,
      "://": 338,
      "tp": 339,
      "http": 340,
      "్ర": 341,
      "of": 342,
      "र्": 343,
      "▁20": 344,
      "dia": 345,
      "om": 346,
      "▁I": 347,
      "▁भ": 348,
      "▁ह": 349,
      "ारत": 350,
      "is": 351,
      "ార": 352,
      "▁of": 353,
      "▁ప": 354,
      "as": 355,
      "at": 356,
      "ch": 357,
      "▁1": 358,
      "s://": 359,
      "and": 360,
      "▁(http": 361,
      "▁In": 362,
      "▁p": 363,
      "tion": 364,
      "లు": 365,
      "▁व": 366,
      "▁।": 367,
      "न्": 368,
      "ें": 369,
      "िक": 370,
      "ri": 371,
      "▁ज": 372,
      "▁द": 373,
      "oo": 374,
      "▁त": 375,
      "या": 376,
      "▁A": 377,
      "▁के": 378,
      "re": 379,
      "le": 380,
      "▁भारत": 381,
      ").": 382,
      "ेश": 383,
      "▁न": 384,
      "▁(https://": 385,
      "ww": 386,
      "▁s": 387,
      "we": 388,
      "▁in": 389,
      "iv": 390,
      "్య": 391,
      "▁and": 392,
      "ic": 393,
      "स्य": 394,
      "ent": 395,
      "्व": 396,
      "▁ब": 397,
      "లో": 398,
      "▁प्र": 399,
      "us": 400,
      "▁t": 401,
      "▁में": 402,
      "▁201": 403,
      "స్": 404,
      "▁f": 405,
      "ित": 406,
      "▁C": 407,
      "ing": 408,
      ".c": 409,
      "it": 410,
      "web": 411,
      "▁है": 412,
      "▁S": 413,
      "▁c": 414,
      "▁క": 415,
      "ation": 416,
      "▁India": 417,
      "▁b": 418,
      "राज": 419,
      "स्": 420,
      "ది": 421,
      "▁P": 422,
      "ाल": 423,
      "▁w": 424,
      "▁M": 425,
      "దే": 426,
      "ర్": 427,
      "ou": 428,
      "న్": 429,
      "ిం": 430,
      "ीय": 431,
      "▁T": 432,
      "▁आ": 433,
      "et": 434,
      "ास": 435,
      "org": 436,
      "ని": 437,
      "దేశ": 438,
      "201": 439,
      "ना": 440,
      "▁a": 441,
      "▁\"": 442,
      "न्त": 443,
      "ook": 444,
      "ति": 445,
      "▁ग": 446,
      ".org": 447,
      "ष्": 448,
      ")\n": 449,
      "▁మ": 450,
      "▁च": 451,
      "▁వ": 452,
      "ాల": 453,
      "s.": 454,
      "భార": 455,
      ".org/": 456,
      "10": 457,
      "భారత": 458,
      "am": 459,
      "▁స": 460,
      "▁से": 461,
      "chiv": 462,
      "▁m": 463,
      ".com": 464,
      "ों": 465,
      "book": 466,
      "ः\n": 467,
      "▁2": 468,
      "id": 469,
      "▁•": 470,
      ".com/": 471,
      "ov": 472,
      "ec": 473,
      "0%": 474,
      "ी\n": 475,
      "▁R": 476,
      "▁\n": 477,
      "न्द": 478,
      "ul": 479,
      "देश": 480,
      "ता": 481,
      "li": 482,
      "ag": 483,
      "em": 484,
      "्ष": 485,
      "india": 486,
      "▁वि": 487,
      "he": 488,
      "▁ర": 489,
      "ur": 490,
      "ङ्": 491,
      "▁इ": 492,
      "राज्य": 493,
      "00": 494,
      "और": 495,
      "▁to": 496,
      "था": 497,
      "म्\n": 498,
      "ిక": 499,
      "ol": 500,
      "स्त": 501,
      "्च": 502,
      "ాలు": 503,
      "▁और": 504,
      "त्र": 505,
      "▁D": 506,
      "ष्ट": 507,
      "▁ए": 508,
      "▁B": 509,
      "भारत": 510,
      "वि": 511,
      "▁उ": 512,
      "▁ప్ర": 513,
      "▁श": 514,
      "www": 515,
      "्या": 516,
      "▁19": 517,
      "గా": 518,
      "▁सं": 519,
      "ra": 520,
      "प्र": 521,
      "मा": 522,
      "op": 523,
      "▁అ": 524,
      "ang": 525,
      "il": 526,
      "ాత": 527,
      "िया": 528,
      "ంం": 529,
      "ిన": 530,
      "st": 531,
      "क्ष": 532,
      "న్న": 533,
      "]\n": 534,
      "19": 535,
      "▁200": 536,
      "▁l": 537,
      "tic": 538,
      "ist": 539,
      "ig": 540,
      "▁का": 541,
      "र्व": 542,
      "▁की": 543,
      "chive": 544,
      "▁h": 545,
      "▁చ": 546,
      "▁ल": 547,
      "ce": 548,
      "క్": 549,
      "त्": 550,
      "ि\n": 551,
      "archive": 552,
      "▁H": 553,
      "ष्ट्र": 554,
      "ly": 555,
      "ion": 556,
      "ers": 557,
      "▁को": 558,
      "21": 559,
      "भा": 560,
      "ev": 561,
      "78": 562,
      "web.": 563,
      "ను": 564,
      ",\n": 565,
      "▁d": 566,
      ".in": 567,
      "un": 568,
      "ला": 569,
      "▁E": 570,
      "/http": 571,
      "ల్": 572,
      "web/": 573,
      "4%": 574,
      "ండ": 575,
      "ాయ": 576,
      "www.": 577,
      "ाद": 578,
      "ृत": 579,
      "ir": 580,
      "archive.org/": 581,
      "षा": 582,
      "▁ఉ": 583,
      "res": 584,
      ".[": 585,
      "राष्ट्र": 586,
      "ow": 587,
      "▁J": 588,
      "▁N": 589,
      "▁र": 590,
      "▁(https://web.": 591,
      "ern": 592,
      "▁है।": 593,
      "దేశం": 594,
      "▁n": 595,
      "50": 596,
      "ది.": 597,
      "▁9": 598,
      "rom": 599,
      "కు": 600,
      "రి": 601,
      "23": 602,
      "ీయ": 603,
      "▁य": 604,
      "ad": 605,
      "पु": 606,
      "▁on": 607,
      "త్": 608,
      "్ట": 609,
      "-0": 610,
      "▁G": 611,
      "In": 612,
      "री": 613,
      "धान": 614,
      "ने": 615,
      "archive.org/web/": 616,
      "सं": 617,
      "▁The": 618,
      "▁or": 619,
      "▁భారత": 620,
      "id=": 621,
      "um": 622,
      "िन्द": 623,
      "ld": 624,
      "▁జ": 625,
      "gov": 626,
      "मे": 627,
      "ां": 628,
      "▁देश": 629,
      "ద్": 630,
      "im": 631,
      "SB": 632,
      "का": 633,
      "▁p.": 634,
      ".in/": 635,
      "goo": 636,
      "▁e": 637,
      "s/": 638,
      "ते": 639,
      "ङ्ग": 640,
      "ct": 641,
      "SBN": 642,
      "11": 643,
      "26": 644,
      "gle": 645,
      "▁త": 646,
      "s?": 647,
      "▁ఆ": 648,
      "ew": 649,
      "uag": 650,
      "▁re": 651,
      "ity": 652,
      "त्त": 653,
      "▁पर": 654,
      "anguag": 655,
      "ind": 656,
      "e0%": 657,
      "▁978": 658,
      "e0%a": 659,
      "ले": 660,
      "ण्": 661,
      "▁।\n": 662,
      "▁(https://web.archive.org/web/": 663,
      "gle.com/": 664,
      "s?id=": 665,
      "द्": 666,
      "s.goo": 667,
      "40": 668,
      "ay": 669,
      "el": 670,
      "▁O": 671,
      "త్ర": 672,
      "▁F": 673,
      "200": 674,
      "dian": 675,
      "ment": 676,
      "▁న": 677,
      "के": 678,
      "▁for": 679,
      "धिक": 680,
      "▁भा": 681,
      "ort": 682,
      "books.goo": 683,
      "ber": 684,
      "▁L": 685,
      "श्च": 686,
      "▁-": 687,
      "ary": 688,
      "),": 689,
      "▁ఇ": 690,
      "र्म": 691,
      "books?id=": 692,
      "ः,": 693,
      "ाम": 694,
      "▁U": 695,
      "est": 696,
      "▁(http://": 697,
      "स्क": 698,
      "30": 699,
      "िम": 700,
      "తి": 701,
      "ాన": 702,
      "ीत": 703,
      "▁ISBN": 704,
      "p.": 705,
      "ःः": 706,
      "orld": 707,
      "hi": 708,
      "▁पु": 709,
      "▁from": 710,
      "ational": 711,
      "books.google.com/": 712,
      "tu": 713,
      "inal": 714,
      "ल्": 715,
      "ens": 716,
      "ate": 717,
      "స్థ": 718,
      "ep": 719,
      "ंग": 720,
      "कार": 721,
      "వి": 722,
      "oc": 723,
      "मु": 724,
      "ast": 725,
      "ot": 726,
      "ीी": 727,
      "▁is": 728,
      "ము": 729,
      "ाः": 730,
      "22": 731,
      "][": 732,
      "తం": 733,
      "▁राष्ट्र": 734,
      "ించ": 735,
      "ab": 736,
      "गर": 737,
      "ial": 738,
      "▁हैं": 739,
      "▁भारतीय": 740,
      "िय": 741,
      "▁W": 742,
      "▁pp.": 743,
      "▁ने": 744,
      "ण्ड": 745,
      "ड़": 746,
      "iginal": 747,
      "4.": 748,
      "od": 749,
      "ప్ర": 750,
      "రు": 751,
      "13": 752,
      "os": 753,
      "&p": 754,
      "18": 755,
      "ge": 756,
      "28": 757,
      "र्ष": 758,
      "▁हिन्द": 759,
      "▁by": 760,
      "%e0%a": 761,
      "ub": 762,
      "ी,": 763,
      "ంగ": 764,
      "▁अभ": 765,
      "స్త": 766,
      "ith": 767,
      "▁कर": 768,
      "▁१": 769,
      "'s": 770,
      "for": 771,
      "tim": 772,
      ".gov": 773,
      "मि": 774,
      "=P": 775,
      "ia": 776,
      "og": 777,
      "वा": 778,
      "books.google.com/books?id=": 779,
      ".p": 780,
      "ాజ": 781,
      "ons": 782,
      "&pg": 783,
      "▁ar": 784,
      "es/": 785,
      "▁Ar": 786,
      "से": 787,
      "▁original": 788,
      "1-": 789,
      "▁బ": 790,
      "ानि": 791,
      "िका": 792,
      "हा": 793,
      "्ये": 794,
      "the": 795,
      "ensus": 796,
      "AA": 797,
      "▁Indian": 798,
      "\nभारत": 799,
      "15": 800,
      ".n": 801,
      "ff": 802,
      "భా": 803,
      "ులు": 804,
      "▁g": 805,
      "/http://": 806,
      "ాయి": 807,
      "&pg=P": 808,
      "ak": 809,
      "्थ": 810,
      "मन": 811,
      "िन्": 812,
      "1.": 813,
      "s,": 814,
      "धर्म": 815,
      "etri": 816,
      "India": 817,
      "7.": 818,
      "ारा": 819,
      "eved": 820,
      "मान": 821,
      "ली": 822,
      "न्ति": 823,
      "ut": 824,
      "▁अन": 825,
      "▁जन": 826,
      "etrieved": 827,
      "25": 828,
      "ap": 829,
      "av": 830,
      "िण": 831,
      "oun": 832,
      "sh": 833,
      "थि": 834,
      "టి": 835,
      "▁గ": 836,
      "▁ति": 837,
      "anguage": 838,
      "ूल": 839,
      "▁as": 840,
      "ory": 841,
      "tr": 842,
      "&pg=PA": 843,
      "प्रदेश": 844,
      "▁भाषा": 845,
      "दि": 846,
      "▁Un": 847,
      "कि": 848,
      "सी": 849,
      "द्ध": 850,
      "▁K": 851,
      "htm": 852,
      "\nభారత": 853,
      "2.": 854,
      "▁दि": 855,
      "ान्": 856,
      "chived": 857,
      "▁the\n": 858,
      "क्त": 859,
      "न्द्र": 860,
      "राज्यम्": 861,
      "%e0%a4%": 862,
      "द्र": 863,
      "ధిక": 864,
      "పు": 865,
      "▁2011": 866,
      "16": 867,
      "खित": 868,
      "ाा": 869,
      "िग": 870,
      "स्कृत": 871,
      "▁विश": 872,
      "14": 873,
      "ere": 874,
      "▁मूल": 875,
      "ex": 876,
      "ంలో": 877,
      "▁3": 878,
      "▁ఒ": 879,
      "▁Retrieved": 880,
      "24": 881,
      "ीन": 882,
      "ेे": 883,
      "9.": 884,
      "स्ति": 885,
      "17": 886,
      "ac": 887,
      "▁सा": 888,
      "our": 889,
      "▁(https://web.archive.org/web/201": 890,
      "df": 891,
      "ीप": 892,
      "ైన": 893,
      "▁राज्य": 894,
      "ండి": 895,
      "opul": 896,
      "▁Archived": 897,
      "▁&": 898,
      "70": 899,
      "▁जा": 900,
      "ेन": 901,
      "ూడ": 902,
      "ార్": 903,
      "▁(https://books.google.com/books?id=": 904,
      "स्था": 905,
      "थि:": 906,
      "90": 907,
      "पि": 908,
      "न्त्र": 909,
      "/https://": 910,
      "रु": 911,
      "▁(201": 912,
      "ాతీయ": 913,
      "క్ష": 914,
      "िगमन": 915,
      "PD": 916,
      "र्ण": 917,
      "▁प्रा": 918,
      "indi": 919,
      "▁be": 920,
      "\nम": 921,
      "\nस": 922,
      "▁4": 923,
      "ोक": 924,
      "२०": 925,
      "▁पुरा": 926,
      ").\n": 927,
      "..": 928,
      "द्व": 929,
      "ong": 930,
      "▁एक": 931,
      "▁शास": 932,
      "क्षिण": 933,
      "▁तथा": 934,
      "6.": 935,
      "ूर्व": 936,
      "▁·": 937,
      "जन": 938,
      "ంట": 939,
      "ష్ట": 940,
      "్చ": 941,
      "artic": 942,
      "ారు": 943,
      "60": 944,
      "ear": 945,
      "पाल": 946,
      "ूप": 947,
      "ersity": 948,
      "opulation": 949,
      "\nअ": 950,
      "E0%": 951,
      "▁अभिगमन": 952,
      "▁तिथि:": 953,
      "दा": 954,
      "▁सन्ति": 955,
      "rit": 956,
      "▁Ch": 957,
      "▁Pres": 958,
      "▁వి": 959,
      "तः": 960,
      "▁978-0": 961,
      "gion": 962,
      "▁r": 963,
      "▁with": 964,
      "▁978-0-": 965,
      "1,": 966,
      "द्य": 967,
      "ish": 968,
      "PDF": 969,
      "\"\n": 970,
      "%E0%": 971,
      "5.": 972,
      "The": 973,
      "ంచ": 974,
      "ంది.": 975,
      "కి": 976,
      "దీ": 977,
      "▁ఎ": 978,
      "▁di": 979,
      "▁పే": 980,
      "ింది.": 981,
      "▁సం": 982,
      "o-": 983,
      "र्त": 984,
      "ana": 985,
      "onom": 986,
      "विधान": 987,
      "यः": 988,
      "सम": 989,
      "▁राज": 990,
      "▁स्थ": 991,
      "AJ": 992,
      "\nస": 993,
      "3.": 994,
      "BAJ": 995,
      "QBAJ": 996,
      "uc": 997,
      "ud": 998,
      "बर": 999,
      "ంది": 1000,
      "బడ": 1001,
      "వా": 1002,
      "ont": 1003,
      "ust": 1004,
      "▁ఉన్న": 1005,
      ".pdf": 1006,
      "8.": 1007,
      "cl": 1008,
      "e\n": 1009,
      "port": 1010,
      "ध्य": 1011,
      "ोल": 1012,
      "▁As": 1013,
      "▁नि": 1014,
      ".nic": 1015,
      "▁विश्व": 1016,
      "ter": 1017,
      "▁दक्षिण": 1018,
      "▁was": 1019,
      "istory": 1020,
      "लेखित": 1021,
      "▁हैं।": 1022,
      "\nह": 1023,
      "▁it": 1024,
      "▁2014": 1025,
      "ember": 1026,
      "new": 1027,
      "शास": 1028,
      "ంగా": 1029,
      "ద్ర": 1030,
      "ాంం": 1031,
      "times": 1032,
      "\nक": 1033,
      "ain": 1034,
      "नी": 1035,
      "षु": 1036,
      "▁'": 1037,
      "titu": 1038,
      "▁978-": 1039,
      ".gov.in/": 1040,
      "▁an": 1041,
      "27": 1042,
      "AAQBAJ": 1043,
      "\nप": 1044,
      "e,": 1045,
      "त्य": 1046,
      "प्त": 1047,
      "्म": 1048,
      "ం\n": 1049,
      "తర": 1050,
      "తో": 1051,
      "్ల": 1052,
      "▁स्व": 1053,
      "all": 1054,
      "▁हो": 1055,
      "iversity": 1056,
      "్యంం": 1057,
      "▁गीत": 1058,
      "దేశంలో": 1059,
      "\nग": 1060,
      "गे": 1061,
      "पुर": 1062,
      "▁V": 1063,
      "end": 1064,
      "▁are": 1065,
      "చ్చ": 1066,
      "దు": 1067,
      "వు": 1068,
      "▁(PDF": 1069,
      "▁अस्ति": 1070,
      "omm": 1071,
      "▁भारतस्य": 1072,
      "▁(https://www.": 1073,
      "▁पुरालेखित": 1074,
      "ef": 1075,
      "▁7": 1076,
      "▁–": 1077,
      "icial": 1078,
      "html": 1079,
      "47": 1080,
      "har": 1081,
      "oth": 1082,
      "ence": 1083,
      "स्थ": 1084,
      "भाषा": 1085,
      "त्तर": 1086,
      "-s": 1087,
      "up": 1088,
      "ब्": 1089,
      "रव": 1090,
      "▁सम": 1091,
      "▁वर्ष": 1092,
      "मुख": 1093,
      "सा": 1094,
      "ेत्र": 1095,
      "జాతీయ": 1096,
      "రా": 1097,
      "▁శ": 1098,
      "▁హ": 1099,
      "▁రాజ": 1100,
      "▁చె": 1101,
      "ज्य": 1102,
      "art": 1103,
      "▁st": 1104,
      "▁इति": 1105,
      ".pdf)": 1106,
      "es,": 1107,
      "▁मह": 1108,
      "▁हु": 1109,
      "%20": 1110,
      "54": 1111,
      "ance": 1112,
      "▁University": 1113,
      "\nక": 1114,
      "ug": 1115,
      "ట్ట": 1116,
      "లి": 1117,
      "▁ఈ": 1118,
      "ans": 1119,
      "्रे": 1120,
      "ద్ధ": 1121,
      "ష్ట్ర": 1122,
      "%E0%A": 1123,
      "80": 1124,
      "ata": 1125,
      "10.": 1126,
      "29": 1127,
      "ती": 1128,
      "तन्त्र": 1129,
      "यो": 1130,
      "er,": 1131,
      "▁भी": 1132,
      "olog": 1133,
      ".nic.in/": 1134,
      "-\n": 1135,
      "gl": 1136,
      "णि": 1137,
      "भू": 1138,
      "▁पूर्व": 1139,
      "▁इस": 1140,
      "▁एव": 1141,
      "▁ex": 1142,
      "▁१९": 1143,
      "యా": 1144,
      "ాబ": 1145,
      "ిత": 1146,
      "▁v": 1147,
      "▁ను": 1148,
      "ril": 1149,
      "रे": 1150,
      "outh": 1151,
      "india-": 1152,
      "a,": 1153,
      "les": 1154,
      "pr": 1155,
      "ated": 1156,
      "याः": 1157,
      "▁199": 1158,
      "▁हिन्दी\n": 1159,
      "5%": 1160,
      "e-": 1161,
      "▁बह": 1162,
      "hich": 1163,
      "onstitu": 1164,
      "▁शासन": 1165,
      "AAQBAJ&pg=PA": 1166,
      "e.": 1167,
      "दन": 1168,
      "मह": 1169,
      "▁ల": 1170,
      "▁దేశ": 1171,
      "▁భా": 1172,
      "▁सि": 1173,
      "▁मा": 1174,
      "త్వ": 1175,
      "ंग्रे": 1176,
      "s-": 1177,
      "▁जि": 1178,
      "\nm": 1179,
      "2\n": 1180,
      "cal": 1181,
      "ob": 1182,
      "ous": 1183,
      "ंत्र": 1184,
      "रकार": 1185,
      "▁फ": 1186,
      "▁मु": 1187,
      "und": 1188,
      "ernment": 1189,
      "indu": 1190,
      "ार्": 1191,
      "ानां": 1192,
      "నా": 1193,
      "▁(200": 1194,
      "iss": 1195,
      "ass": 1196,
      "india/": 1197,
      "▁En": 1198,
      "ath": 1199,
      "जा": 1200,
      "नि": 1201,
      "▁8": 1202,
      "▁अधिक": 1203,
      "rid": 1204,
      "▁An": 1205,
      "▁St": 1206,
      "%e0%a4%b": 1207,
      "▁that": 1208,
      "▁पा": 1209,
      "000": 1210,
      "च्च": 1211,
      "।[": 1212,
      "▁at": 1213,
      "lin": 1214,
      "ost": 1215,
      "१९": 1216,
      "జీ": 1217,
      "నే": 1218,
      "పా": 1219,
      "▁कार": 1220,
      "▁सर्व": 1221,
      "▁तक": 1222,
      "్యవ": 1223,
      "▁కూడ": 1224,
      "ect": 1225,
      "ల్ల": 1226,
      "▁ఆర్": 1227,
      "००": 1228,
      "▁अग": 1229,
      "lic": 1230,
      "ज़": 1231,
      "दी": 1232,
      "दे": 1233,
      "र्थ": 1234,
      "▁History": 1235,
      "33": 1236,
      "br": 1237,
      "to": 1238,
      "यु": 1239,
      "▁था": 1240,
      "▁which": 1241,
      "▁संस्कृत": 1242,
      "▁has": 1243,
      "▁लि": 1244,
      "85": 1245,
      "oi": 1246,
      "pril": 1247,
      "టు": 1248,
      "డి": 1249,
      "డు": 1250,
      "ణా": 1251,
      "వాత": 1252,
      "ా\n": 1253,
      "ామ": 1254,
      "్మ": 1255,
      "▁లో": 1256,
      "▁ని": 1257,
      "▁क्ष": 1258,
      "ाने": 1259,
      "omp": 1260,
      "▁pr": 1261,
      "तिःः": 1262,
      "▁మొ": 1263,
      "भारतस्य": 1264,
      "www.c": 1265,
      "▁देशः": 1266,
      "try": 1267,
      "सीत्": 1268,
      "▁నుండి": 1269,
      "-m": 1270,
      ".;": 1271,
      "3,": 1272,
      "ati": 1273,
      "वी": 1274,
      "▁k": 1275,
      "ve": 1276,
      "ख्या": 1277,
      "सि": 1278,
      "▁रा": 1279,
      "▁सरकार": 1280,
      "▁of\n": 1281,
      "▁978-1-": 1282,
      "ci": 1283,
      "e/": 1284,
      "धु": 1285,
      "▁5": 1286,
      "्रि": 1287,
      "calf": 1288,
      "\nआ": 1289,
      "-l": 1290,
      "p?": 1291,
      "पर": 1292,
      "తు": 1293,
      "మైన": 1294,
      "ాన్": 1295,
      "ాని": 1296,
      "▁ड": 1297,
      "▁ద": 1298,
      "▁స్థ": 1299,
      "▁किया": 1300,
      "▁भू": 1301,
      "ालय": 1302,
      "etcalf": 1303,
      "uly": 1304,
      "▁రై": 1305,
      "\nउ": 1306,
      "7,": 1307,
      "uary": 1308,
      "कर": 1309,
      "व्य": 1310,
      "్\n": 1311,
      "▁द्व": 1312,
      "▁India's": 1313,
      "▁its": 1314,
      "0.": 1315,
      "12": 1316,
      "6,": 1317,
      "a\n": 1318,
      "a.": 1319,
      "गढ": 1320,
      "ाग": 1321,
      "ines": 1322,
      "ult": 1323,
      "act": 1324,
      "iti": 1325,
      "ूच": 1326,
      "▁कु": 1327,
      "▁अस्य": 1328,
      "▁वर्त": 1329,
      "▁Metcalf": 1330,
      "ाराज्य": 1331,
      "द्वीप": 1332,
      "▁क्षेत्र": 1333,
      "ies": 1334,
      "national": 1335,
      "बसे": 1336,
      "ाय": 1337,
      "ఖ్య": 1338,
      "జిన": 1339,
      "పాల": 1340,
      "eral": 1341,
      "▁and\n": 1342,
      "ical": 1343,
      "ర్వ": 1344,
      "ాలు\n": 1345,
      "माण": 1346,
      "▁అధిక": 1347,
      "ాయి.": 1348,
      "▁साथ": 1349,
      "▁पुरालेखित।": 1350,
      "%E0%A4%": 1351,
      "/artic": 1352,
      "2-": 1353,
      "8,": 1354,
      "Dw": 1355,
      "y,": 1356,
      "दू": 1357,
      "ed\n": 1358,
      "ism": 1359,
      "▁26": 1360,
      "india.gov.in/": 1361,
      "▁उत्तर": 1362,
      "श्चिम": 1363,
      "▁प्राच": 1364,
      "36": 1365,
      "ik": 1366,
      "▁ध": 1367,
      "▁नाम": 1368,
      "out": 1369,
      "▁गण": 1370,
      "▁यह": 1371,
      "world": 1372,
      "थम": 1373,
      "रूप": 1374,
      "▁al": 1375,
      "ash": 1376,
      "▁April": 1377,
      "धिकार": 1378,
      "▁अनु": 1379,
      "-b": 1380,
      "PP": 1381,
      "ms": 1382,
      "णा": 1383,
      "గు": 1384,
      "ధ్య": 1385,
      "సిన": 1386,
      "ాష్ట్ర": 1387,
      "ేదీ": 1388,
      "▁सबसे": 1389,
      "dition": 1390,
      "म्प": 1391,
      "▁2021": 1392,
      "▁ము": 1393,
      "రిజిన": 1394,
      "▁(http://www.": 1395,
      "ాయి.\n": 1396,
      "स्थाान": 1397,
      "स्थान": 1398,
      "్యవస్థ": 1399,
      "రిజినల్": 1400,
      "35": 1401,
      "aj": 1402,
      "ue": 1403,
      "ंड": 1404,
      "निक": 1405,
      "▁२०": 1406,
      "्रीी": 1407,
      "▁10": 1408,
      "▁18": 1409,
      "▁प्रदेश": 1410,
      "ublic": 1411,
      "ission": 1412,
      "\nब": 1413,
      "9,": 1414,
      "ओं": 1415,
      "खा": 1416,
      "चल": 1417,
      "ञ्च": 1418,
      "▁कास": 1419,
      "▁आसीत्": 1420,
      "econom": 1421,
      "▁language": 1422,
      "anguages": 1423,
      "िन्स": 1424,
      "5%8": 1425,
      "onstitution": 1426,
      "▁कासिन्स": 1427,
      "pl": 1428,
      "लु": 1429,
      "हर": 1430,
      "ुज": 1431,
      "▁6": 1432,
      "रात": 1433,
      "▁17": 1434,
      "यां": 1435,
      "▁केन्द्र": 1436,
      "ष्ठ": 1437,
      "amb": 1438,
      "ल्ल": 1439,
      "ack": 1440,
      "शासित": 1441,
      "\n•": 1442,
      "&s": 1443,
      "-d": 1444,
      "GD": 1445,
      "की": 1446,
      "जी": 1447,
      "तर": 1448,
      "े।": 1449,
      "११": 1450,
      "ంబ": 1451,
      "ంత్ర": 1452,
      "పంచ": 1453,
      "వే": 1454,
      "ూసిన": 1455,
      "inist": 1456,
      "్రీ": 1457,
      "ome": 1458,
      "న్ని": 1459,
      "▁गया": 1460,
      "lion": 1461,
      "▁రాష్ట్ర": 1462,
      "ాలు,": 1463,
      "▁लोक": 1464,
      "लाई": 1465,
      "▁తేదీ": 1466,
      "▁अन्य": 1467,
      "జీని": 1468,
      "▁తేదీ:": 1469,
      "46": 1470,
      "eg": 1471,
      "edia": 1472,
      "सभा": 1473,
      "ैव": 1474,
      "▁ch": 1475,
      "ant": 1476,
      "▁कि": 1477,
      "▁न्या": 1478,
      "2011": 1479,
      "irst": 1480,
      "▁July": 1481,
      "\nभारतीय": 1482,
      "▁Press.": 1483,
      "2,": 1484,
      "38": 1485,
      "77": 1486,
      "C&pg=PA": 1487,
      "ces": 1488,
      "ip": 1489,
      "qu": 1490,
      "हास": 1491,
      "्ञ": 1492,
      "▁[": 1493,
      "ord": 1494,
      "न्न": 1495,
      "▁जु": 1496,
      "▁बा": 1497,
      "ountry": 1498,
      "news/": 1499,
      "▁बहु": 1500,
      "\nA": 1501,
      "95": 1502,
      "9.\n": 1503,
      "tern": 1504,
      "टी": 1505,
      "▁16": 1506,
      "ितं": 1507,
      "▁2014.\n": 1508,
      "\nమ": 1509,
      "4-": 1510,
      "o\n": 1511,
      "ंध": 1512,
      "भ्य": 1513,
      "ధాన": 1514,
      "య్య": 1515,
      "ofindia": 1516,
      "ates": 1517,
      "▁India.": 1518,
      "▁Mar": 1519,
      "ame": 1520,
      "▁25": 1521,
      "▁చూసిన": 1522,
      "ద్ద": 1523,
      "काश": 1524,
      "स्कृ": 1525,
      "▁ఒక": 1526,
      "▁ఒరిజినల్": 1527,
      "▁పేజీని": 1528,
      "other": 1529,
      "ridge": 1530,
      "\n(": 1531,
      "-in": 1532,
      "4,": 1533,
      "48": 1534,
      "7.\n": 1535,
      "ach": 1536,
      "cont": 1537,
      "nolog": 1538,
      "ph": 1539,
      "ry": 1540,
      "ःः\n": 1541,
      "त्या": 1542,
      "तमे": 1543,
      "यः\n": 1544,
      "ून": 1545,
      "ard": 1546,
      "▁मन": 1547,
      "▁अत्र": 1548,
      "▁15": 1549,
      "▁तस्य": 1550,
      "ितः": 1551,
      "▁Th": 1552,
      "over": 1553,
      "देशः": 1554,
      "ताः": 1555,
      "प्रा": 1556,
      "ford": 1557,
      "धर्मः,": 1558,
      "▁वर्षे": 1559,
      "\nव": 1560,
      "cy": 1561,
      "क्": 1562,
      "orth": 1563,
      "ed.": 1564,
      "▁2010": 1565,
      "▁है,": 1566,
      "▁Population": 1567,
      "▁\"The": 1568,
      "विध": 1569,
      "ture": 1570,
      "ambridge": 1571,
      "▁जुलाई": 1572,
      "/p": 1573,
      "49": 1574,
      "ll": 1575,
      "oh": 1576,
      "xford": 1577,
      "िश": 1578,
      "▁ई": 1579,
      "▁छ": 1580,
      "▁२": 1581,
      "▁ते": 1582,
      "▁प्रमुख": 1583,
      "▁India:": 1584,
      "▁Pr": 1585,
      "▁wh": 1586,
      "▁were": 1587,
      "▁Dec": 1588,
      "ress": 1589,
      "▁Asia": 1590,
      "\nప": 1591,
      "\nప్ర": 1592,
      "गण": 1593,
      "शत": 1594,
      "ीस": 1595,
      "కై": 1596,
      "ట్": 1597,
      "సి": 1598,
      "ిన్న": 1599,
      "▁స్": 1600,
      "్రమ": 1601,
      "ారం": 1602,
      "ారి": 1603,
      "▁दे": 1604,
      "▁sub": 1605,
      "▁Comm": 1606,
      "▁కా": 1607,
      "ింది": 1608,
      "नाथ": 1609,
      "▁మార్": 1610,
      "▁ప్రాంం": 1611,
      "▁hav": 1612,
      "▁Hindu": 1613,
      "ండు": 1614,
      "ులు,": 1615,
      "्मी": 1616,
      "య్యబడ": 1617,
      "\nल": 1618,
      "56": 1619,
      "खण्ड": 1620,
      "ाान": 1621,
      "ोग": 1622,
      "oug": 1623,
      "▁ad": 1624,
      "▁संविधान": 1625,
      "une": 1626,
      "संस्कृत": 1627,
      "/https://www.": 1628,
      "DwAAQBAJ&pg=PA": 1629,
      "atic": 1630,
      "ian": 1631,
      "per": 1632,
      "क्र": 1633,
      "ढ़": 1634,
      "वस्था": 1635,
      "सार": 1636,
      "ann": 1637,
      "म्बर": 1638,
      "▁World": 1639,
      "odern": 1640,
      "भूमि": 1641,
      "37": 1642,
      "5.\n": 1643,
      "eth": 1644,
      "edi": 1645,
      "ficial": 1646,
      "ober": 1647,
      "र्य": 1648,
      "ैन": 1649,
      "ine": 1650,
      "ank": 1651,
      "ond": 1652,
      "▁अन्त": 1653,
      "▁India\"": 1654,
      "▁India,": 1655,
      ".ph": 1656,
      "▁gr": 1657,
      "▁पाकि": 1658,
      "\nఅ": 1659,
      "39": 1660,
      "4).": 1661,
      "census": 1662,
      "how": 1663,
      "year": 1664,
      "काल": 1665,
      "ञ्": 1666,
      "तम": 1667,
      "र्ये": 1668,
      "वान्": 1669,
      "षः": 1670,
      "ीं": 1671,
      "ील": 1672,
      "ीीय": 1673,
      "డ్": 1674,
      "దూ": 1675,
      "ప్": 1676,
      "ర్య": 1677,
      "ష్": 1678,
      "▁ख": 1679,
      "https://": 1680,
      "్రి": 1681,
      "▁बाद": 1682,
      "▁प्रति": 1683,
      "usines": 1684,
      "స్క": 1685,
      "▁కో": 1686,
      "ङ्के": 1687,
      "▁Oxford": 1688,
      "eport": 1689,
      "స్తు": 1690,
      "క్షి": 1691,
      "ారు.": 1692,
      "▁गीतं": 1693,
      "▁హిం": 1694,
      "▁భాష": 1695,
      "▁ఆర్కై": 1696,
      "▁ఆర్కైవు": 1697,
      "\nc": 1698,
      ",000": 1699,
      "-w": 1700,
      ".html": 1701,
      "▁धर्म": 1702,
      "्रा": 1703,
      "▁पर्व": 1704,
      "ान्त": 1705,
      "100": 1706,
      "ligion": 1707,
      "▁राष्ट्रप": 1708,
      "▁जाता": 1709,
      "udd": 1710,
      "\nS": 1711,
      "\ns": 1712,
      "-p": 1713,
      "gen": 1714,
      "led": 1715,
      "त्व": 1716,
      "धी": 1717,
      "बंध": 1718,
      "▁थ": 1719,
      "्रह": 1720,
      "erv": 1721,
      "▁Cent": 1722,
      "▁उप": 1723,
      "evel": 1724,
      "▁रूप": 1725,
      "री,": 1726,
      "fficial": 1727,
      "/http://www.": 1728,
      "ugust": 1729,
      "evelop": 1730,
      "\nच": 1731,
      "IN": 1732,
      "oli": 1733,
      "वन": 1734,
      "वाद": 1735,
      "हि": 1736,
      "्ल": 1737,
      "on-": 1738,
      "ार्थ": 1739,
      "arg": 1740,
      "arli": 1741,
      "eng": 1742,
      "▁मान": 1743,
      "▁अप": 1744,
      "▁2016": 1745,
      "▁Cambridge": 1746,
      "s.[": 1747,
      "▁1950": 1748,
      "ाद्व": 1749,
      "ctober": 1750,
      "मुद्र": 1751,
      "▁2011.\n": 1752,
      "times.com/": 1753,
      "▁(PDF)": 1754,
      "ुजरात": 1755,
      "▁Commission": 1756,
      "\nవ": 1757,
      ".india": 1758,
      "/c": 1759,
      "0:": 1760,
      "गीत": 1761,
      "ैद": 1762,
      "ोर": 1763,
      "కో": 1764,
      "చే": 1765,
      "త్య": 1766,
      "దాయ": 1767,
      "మి": 1768,
      "రణ": 1769,
      "ీ,": 1770,
      "▁భ": 1771,
      "▁स्त": 1772,
      "▁పా": 1773,
      "ेंद्र": 1774,
      "▁cent": 1775,
      "▁కు": 1776,
      "▁వ్యవస్థ": 1777,
      "ాల్": 1778,
      "emb": 1779,
      "▁ले": 1780,
      "▁not": 1781,
      "త్తర": 1782,
      "▁భారతీయ": 1783,
      "ept": 1784,
      "...": 1785,
      "ంది.\n": 1786,
      "▁(PDF).": 1787,
      "▁చెయ్యబడ": 1788,
      "త్వంం": 1789,
      "ానికి": 1790,
      "0:00": 1791,
      "\nd": 1792,
      "\np": 1793,
      "fter": 1794,
      "ध्व": 1795,
      "ृह": 1796,
      "▁un": 1797,
      "any": 1798,
      "▁स्": 1799,
      "▁August": 1800,
      "▁South": 1801,
      "illion": 1802,
      "▁National": 1803,
      "▁(https://web.archive.org/web/20": 1804,
      "▁October": 1805,
      "▁कार्य": 1806,
      "www.census": 1807,
      "▁have": 1808,
      "3.\n": 1809,
      "9-": 1810,
      "ज्ञ": 1811,
      "शि": 1812,
      "ेद": 1813,
      "▁le": 1814,
      "an,": 1815,
      "▁साम": 1816,
      "▁अव": 1817,
      "▁दो": 1818,
      "▁तु": 1819,
      "ide": 1820,
      "lim": 1821,
      "ign": 1822,
      "▁June": 1823,
      "संविधान": 1824,
      "government": 1825,
      "▁हिन्दी": 1826,
      "ज़ीी": 1827,
      "▁पुरालेखित।.": 1828,
      "\n.": 1829,
      "\n1": 1830,
      "\nराज्य": 1831,
      "-f": 1832,
      "aw": 1833,
      "s\n": 1834,
      "sp": 1835,
      "जाा": 1836,
      "ेण": 1837,
      "▁ऐ": 1838,
      "▁ri": 1839,
      "▁(19": 1840,
      "ally": 1841,
      "म्,": 1842,
      "istic": 1843,
      "▁तेन": 1844,
      "▁(https://d": 1845,
      "स्ट": 1846,
      "▁Tim": 1847,
      "uring": 1848,
      "▁एत": 1849,
      "▁श्रीी": 1850,
      "▁196": 1851,
      "▁New": 1852,
      "ङ्गला": 1853,
      "ound": 1854,
      "धिकारिक": 1855,
      "भूमिःः": 1856,
      "how/": 1857,
      "ञ्जाा": 1858,
      "र्येण": 1859,
      "ke": 1860,
      "त्ये": 1861,
      "धि": 1862,
      "ोड़": 1863,
      "ం,": 1864,
      "ంద్ర": 1865,
      "గర": 1866,
      "ణి": 1867,
      "భు": 1868,
      "మా": 1869,
      "ిల్ల": 1870,
      "ెద్ద": 1871,
      "▁घ": 1872,
      "▁ఏ": 1873,
      "ార్ట": 1874,
      "▁పార్ట": 1875,
      "లు,": 1876,
      "▁जय": 1877,
      "▁जो": 1878,
      "▁కే": 1879,
      "▁bec": 1880,
      "▁మత": 1881,
      "ాలలో": 1882,
      "భారతదేశం": 1883,
      "▁సా": 1884,
      "▁ప్రపంచ": 1885,
      "క్కు": 1886,
      "తంత్ర": 1887,
      "ड़ाा": 1888,
      "▁ఎన్న": 1889,
      "▁పేరు": 1890,
      "leshow/": 1891,
      "GDP": 1892,
      "ింది.\n": 1893,
      "▁ప్రాంంత": 1894,
      ".php?": 1895,
      "%2": 1896,
      "45": 1897,
      "ail": 1898,
      "ction": 1899,
      "conom": 1900,
      "yst": 1901,
      "जय": 1902,
      "▁$": 1903,
      "anuary": 1904,
      "ore": 1905,
      "ision": 1906,
      "▁नव": 1907,
      "▁प्रधान": 1908,
      "▁cl": 1909,
      "ations": 1910,
      "rad": 1911,
      "iles/": 1912,
      "▁2007": 1913,
      "own": 1914,
      "▁region": 1915,
      "▁form": 1916,
      "link": 1917,
      "▁प्राचीन": 1918,
      ".indiatimes.com/": 1919,
      "eptember": 1920,
      "\nthe": 1921,
      "-t": 1922,
      "3-": 1923,
      "ein": 1924,
      "son": 1925,
      "sit": 1926,
      "डु": 1927,
      "शिया": 1928,
      "स,": 1929,
      "सम्बर": 1930,
      "ोर्": 1931,
      "▁year": 1932,
      "▁समा": 1933,
      "म्ब": 1934,
      "▁per": 1935,
      "rib": 1936,
      "ive": 1937,
      "ury": 1938,
      "ill": 1939,
      "▁यु": 1940,
      "▁राष्ट्रीीय": 1941,
      "\nमें": 1942,
      "ंग्रेज़ीी": 1943,
      "व्यवस्था": 1944,
      "्मीर": 1945,
      "/A": 1946,
      "air": 1947,
      "fe": 1948,
      "i,": 1949,
      "ib": 1950,
      "se": 1951,
      "ँच": 1952,
      "दु": 1953,
      "वर्ष": 1954,
      "ीगढ": 1955,
      "inor": 1956,
      "▁पश्चिम": 1957,
      "▁2023": 1958,
      "ingu": 1959,
      "index": 1960,
      "▁December": 1961,
      "ough": 1962,
      "ystem": 1963,
      "\nM": 1964,
      "\nచ": 1965,
      "\nజ": 1966,
      "1]": 1967,
      "te": 1968,
      "गत": 1969,
      "ध्ये": 1970,
      "ంక": 1971,
      "ంధ": 1972,
      "కొ": 1973,
      "మే": 1974,
      "ాక": 1975,
      "ాస్": 1976,
      "ీన": 1977,
      "▁us": 1978,
      "▁దేశం": 1979,
      "inent": 1980,
      "ince": 1981,
      "▁मि": 1982,
      "ाना": 1983,
      "▁పరి": 1984,
      "▁ter": 1985,
      ".cms": 1986,
      "ited": 1987,
      "▁cons": 1988,
      "▁క్రీ": 1989,
      "ास्त": 1990,
      "▁వచ్చ": 1991,
      "ament": 1992,
      "▁21": 1993,
      "overnment": 1994,
      "▁ప్రజ": 1995,
      "▁ప్రధాన": 1996,
      "ాత్ర": 1997,
      "igh": 1998,
      "▁చే": 1999,
      "▁है।\n": 2000,
      "▁భారతదేశ": 2001,
      "▁భారతదేశం": 2002,
      "ంగ్ల": 2003,
      "रवरी": 2004,
      "ansk": 2005,
      "▁एवं": 2006,
      "▁जिस": 2007,
      "నాభా": 2008,
      "▁కూడా": 2009,
      "▁రైలు": 2010,
      "▁అధికార": 2011,
      "▁మార్గ": 2012,
      "స్కృ": 2013,
      "34": 2014,
      "5,": 2015,
      "9).": 2016,
      "ts": 2017,
      "uch": 2018,
      "ym": 2019,
      "गोल": 2020,
      "चित": 2021,
      "▁30": 2022,
      "▁क्र": 2023,
      "eration": 2024,
      "▁मार": 2025,
      "▁अने": 2026,
      "▁2020": 2027,
      "▁14": 2028,
      "ric": 2029,
      "▁बे": 2030,
      "▁प्रसि": 2031,
      "▁September": 2032,
      "▁world": 2033,
      "▁May": 2034,
      "ासा": 2035,
      "lig": 2036,
      "oll": 2037,
      "19-": 2038,
      "web/201": 2039,
      "▁north": 2040,
      "glish": 2041,
      "▁पर्वत": 2042,
      "ज्ञाान": 2043,
      "▁प्रधानम": 2044,
      "\nw": 2045,
      ",[": 2046,
      "-c": 2047,
      "-re": 2048,
      "2]": 2049,
      "2.\n": 2050,
      "Hindi": 2051,
      "m.nic.in/": 2052,
      "ncl": 2053,
      "pec": 2054,
      "ure": 2055,
      "जि": 2056,
      "ठाग": 2057,
      "धार": 2058,
      "सद": 2059,
      "ेषु": 2060,
      "▁कृत": 2061,
      "es.": 2062,
      "▁पह": 2063,
      "ानि\n": 2064,
      "▁अपि": 2065,
      "▁हिम": 2066,
      "rim": 2067,
      "▁जून": 2068,
      "नाङ्के": 2069,
      "0%e0%a": 2070,
      "देशस्य": 2071,
      "▁एषः": 2072,
      "र्वकार": 2073,
      "▁Econom": 2074,
      "ower": 2075,
      "▁January": 2076,
      "▁विश्वे": 2077,
      "पुरम्\n": 2078,
      "युक्त": 2079,
      "भ्यः": 2080,
      "नाथठाग": 2081,
      "ञ्जााब": 2082,
      "anskrit": 2083,
      "nclm.nic.in/": 2084,
      "\nC": 2085,
      "\nP": 2086,
      "\nत": 2087,
      "\nप्र": 2088,
      "\nपु": 2089,
      "6).": 2090,
      "8-": 2091,
      "World": 2092,
      "af": 2093,
      "hindi": 2094,
      "ile": 2095,
      "y-": 2096,
      "टे": 2097,
      "परा": 2098,
      "फल": 2099,
      "लया": 2100,
      "ूर": 2101,
      "ोप": 2102,
      "▁es": 2103,
      "▁em": 2104,
      "म्म": 2105,
      "▁Ind": 2106,
      "ween": 2107,
      "▁into": 2108,
      "ाली": 2109,
      "▁आधिकारिक": 2110,
      "etween": 2111,
      "▁24": 2112,
      "▁संस्कृ": 2113,
      "aste": 2114,
      "▁नेपाल": 2115,
      "form": 2116,
      "ternational": 2117,
      "\nజాతీయ": 2118,
      "41": 2119,
      "6]": 2120,
      "8).": 2121,
      "[11": 2122,
      "tri": 2123,
      "नव": 2124,
      "पा": 2125,
      "हिन्द": 2126,
      "़रवरी": 2127,
      "िव": 2128,
      "గి": 2129,
      "దా": 2130,
      "యిన": 2131,
      "రో": 2132,
      "వీ": 2133,
      "సు": 2134,
      "ి,": 2135,
      "ిమ": 2136,
      "▁ओ": 2137,
      "▁केंद्र": 2138,
      "ork": 2139,
      "ark": 2140,
      "▁their": 2141,
      "▁हि": 2142,
      "▁పు": 2143,
      "ater": 2144,
      "▁वर्": 2145,
      "▁दश": 2146,
      "ood": 2147,
      "▁comp": 2148,
      "▁but": 2149,
      "దిన": 2150,
      "▁మధ్య": 2151,
      "▁चु": 2152,
      "urop": 2153,
      "old": 2154,
      "గా\n": 2155,
      "క్క": 2156,
      "ृत्य": 2157,
      "▁ఉత్తర": 2158,
      "▁Language": 2159,
      "ించిన": 2160,
      "\nభారతదేశ": 2161,
      "▁been": 2162,
      "\nहिन्द": 2163,
      "దేశంలోని": 2164,
      "▁రాజ్య": 2165,
      "▁हुई": 2166,
      "ద్ధి": 2167,
      "▁फ़रवरी": 2168,
      "▁Stein": 2169,
      "▁लिए": 2170,
      "▁March": 2171,
      "nologue": 2172,
      "argest": 2173,
      "▁పార్టీ": 2174,
      "క్కువ": 2175,
      "inguistic": 2176,
      "-of": 2177,
      "-india-": 2178,
      ".\"\n": 2179,
      "ISBN": 2180,
      "ft": 2181,
      "दस्य": 2182,
      "मत": 2183,
      "ौद्ध": 2184,
      "▁ऋ": 2185,
      "▁all": 2186,
      "▁government": 2187,
      "▁मत": 2188,
      "eds.": 2189,
      "▁part": 2190,
      "▁प्रथम": 2191,
      "▁first": 2192,
      "स्तान": 2193,
      "21-": 2194,
      "िन्धु": 2195,
      "ourt": 2196,
      "मुख्य": 2197,
      "10.10": 2198,
      "▁अगस्त": 2199,
      "continent": 2200,
      "www.censusindia.gov.in/": 2201,
      "210": 2202,
      "8.\n": 2203,
      "ace": 2204,
      "bot": 2205,
      "go": 2206,
      "mp": 2207,
      "हीं": 2208,
      "ाारा": 2209,
      "िह": 2210,
      "ोड": 2211,
      "ोध": 2212,
      "ोष": 2213,
      "albot": 2214,
      "▁पत्र": 2215,
      "▁अर": 2216,
      "▁official": 2217,
      "asp": 2218,
      "▁\"A": 2219,
      "ement": 2220,
      "▁languages": 2221,
      "ि\nक": 2222,
      "Indian": 2223,
      "ल्ली": 2224,
      "▁राज्यों": 2225,
      "▁हुआ": 2226,
      "obal": 2227,
      "▁English": 2228,
      "2011census": 2229,
      "▁(https://doi": 2230,
      "\nके": 2231,
      "57": 2232,
      "CE": 2233,
      "Report": 2234,
      "eop": 2235,
      "ire": 2236,
      "wik": 2237,
      "ंश": 2238,
      "मं": 2239,
      "मो": 2240,
      "समा": 2241,
      "ृद्ध": 2242,
      "२,": 2243,
      "ared": 2244,
      "▁this": 2245,
      "▁मध्य": 2246,
      "ise": 2247,
      "▁13": 2248,
      "▁तत्": 2249,
      "▁ना": 2250,
      "िता": 2251,
      "▁Constitution": 2252,
      "▁Sh": 2253,
      "▁con": 2254,
      "▁cont": 2255,
      "age": 2256,
      "▁एशिया": 2257,
      "▁2006,": 2258,
      "▁Hindi": 2259,
      "▁रवी": 2260,
      "oduc": 2261,
      "▁इतिहास": 2262,
      "योग": 2263,
      "्रिस्त": 2264,
      "%E0%A4%A": 2265,
      "economic": 2266,
      "-in-": 2267,
      "ध्वज": 2268,
      "गोलिक": 2269,
      "\nD": 2270,
      "\nb": 2271,
      "\n२": 2272,
      "\nof": 2273,
      ",N": 2274,
      "/0": 2275,
      "2]\n": 2276,
      "6]\n": 2277,
      "C).": 2278,
      "t,": 2279,
      "tle": 2280,
      "గిన": 2281,
      "ఢిల్ల": 2282,
      "పతి": 2283,
      "రం": 2284,
      "లం": 2285,
      "వ)\n": 2286,
      "ాస": 2287,
      "ిని": 2288,
      "ీర్": 2289,
      "ుకు": 2290,
      "ెల": 2291,
      "ెలు": 2292,
      "▁Y": 2293,
      "▁|": 2294,
      "▁या": 2295,
      "▁li": 2296,
      "esh": 2297,
      "ali": 2298,
      "eneral": 2299,
      "राठ": 2300,
      "్రె": 2301,
      "र्श": 2302,
      "र्माण": 2303,
      "▁పర": 2304,
      "▁పెద్ద": 2305,
      "न्ध": 2306,
      "▁दिया": 2307,
      "▁Ash": 2308,
      "▁tra": 2309,
      "▁కార": 2310,
      "▁కలి": 2311,
      "ింంది.": 2312,
      "▁Talbot": 2313,
      "ాలను": 2314,
      "▁22": 2315,
      "▁\nప్ర": 2316,
      "▁రె": 2317,
      "ిక్": 2318,
      "▁उत्": 2319,
      "▁संघ": 2320,
      "tical": 2321,
      "भाग": 2322,
      "త్స": 2323,
      "▁జాతీయ": 2324,
      "▁(https://web.archive.org/web/200": 2325,
      "िये": 2326,
      "రువాత": 2327,
      "\nభారతీయ": 2328,
      "ritann": 2329,
      "వాణా": 2330,
      "शासन": 2331,
      "▁समय": 2332,
      "ాబ్": 2333,
      "▁మొద": 2334,
      "▁స్థాన": 2335,
      "▁द्वाारा": 2336,
      "लुग": 2337,
      "ప్ప": 2338,
      "evelopment": 2339,
      "▁Commissioner": 2340,
      "%2F": 2341,
      "eople": 2342,
      "ritannic": 2343,
      "\".": 2344,
      "1/": 2345,
      "91": 2346,
      "a)": 2347,
      "ah": 2348,
      "busines": 2349,
      "c=": 2350,
      "fic": 2351,
      "odi": 2352,
      "rd": 2353,
      "ral": 2354,
      "ution": 2355,
      "vi": 2356,
      "ः)\n": 2357,
      "दयः": 2358,
      "भिन्": 2359,
      "मास": 2360,
      "महा": 2361,
      "रण": 2362,
      "लङ्": 2363,
      "ळम्\n": 2364,
      "ाः\n": 2365,
      "▁(20": 2366,
      "ari": 2367,
      "als": 2368,
      "▁अस्": 2369,
      "र्दू": 2370,
      "▁विक": 2371,
      "riti": 2372,
      "▁जल": 2373,
      "▁भारतं": 2374,
      "▁बृह": 2375,
      "▁Census": 2376,
      "▁Minor": 2377,
      "▁\"C": 2378,
      "न्तः": 2379,
      "तिःः\n": 2380,
      "ष्ण": 2381,
      "▁इत्य": 2382,
      "umm": 2383,
      "ङ्ग्ल": 2384,
      "त्त्व": 2385,
      "▁।\nभारत": 2386,
      "ण्डीगढ": 2387,
      "▁अभव": 2388,
      "मिळ": 2389,
      "प्रदेशः\n": 2390,
      "दिशि": 2391,
      "▁दिनाङ्के": 2392,
      "पालिका": 2393,
      "▁978-0-5": 2394,
      "▁गीतस्य": 2395,
      "गेण": 2396,
      "रवर्येण": 2397,
      "▁कारण": 2398,
      "ities": 2399,
      "ashm": 2400,
      "शासितप्रदेश": 2401,
      "ाद्वीप": 2402,
      "▁श्रीीलङ्": 2403,
      "urope": 2404,
      "▁रवीन्द्र": 2405,
      "▁श्रीीलङ्का": 2406,
      "\ne": 2407,
      "):": 2408,
      "-स": 2409,
      "/f": 2410,
      "2/": 2411,
      "24.": 2412,
      "67": 2413,
      "71": 2414,
      "TR": 2415,
      "land": 2416,
      "ram": 2417,
      "एँ": 2418,
      "कु": 2419,
      "तंत्र": 2420,
      "नगर": 2421,
      "वरी": 2422,
      "शा": 2423,
      "्ला": 2424,
      "▁other": 2425,
      "ini": 2426,
      "them": 2427,
      "alay": 2428,
      "enn": 2429,
      "ased": 2430,
      "▁pl": 2431,
      "▁नाग": 2432,
      "▁system": 2433,
      "▁बना": 2434,
      "▁बढ़": 2435,
      ".co": 2436,
      "▁between": 2437,
      "नाव": 2438,
      "▁most": 2439,
      ".com/news/": 2440,
      "ी\nम": 2441,
      "ural": 2442,
      "▁Fe": 2443,
      "ocial": 2444,
      "able": 2445,
      "▁United": 2446,
      "▁न्याय": 2447,
      "arliament": 2448,
      "▁मार्च": 2449,
      "▁प्रसिद्ध": 2450,
      "▁(https://doi.org/": 2451,
      "\nIndia": 2452,
      "%7": 2453,
      ".htm": 2454,
      "43": 2455,
      "59": 2456,
      "ai": 2457,
      "cre": 2458,
      "dr": 2459,
      "ख्य": 2460,
      "तृत": 2461,
      "बे": 2462,
      "▁५": 2463,
      "ani": 2464,
      "ar,": 2465,
      "▁12": 2466,
      "▁वे": 2467,
      "ingh": 2468,
      "▁Pl": 2469,
      "▁23": 2470,
      "ी\nस": 2471,
      "ulture": 2472,
      "ताब्": 2473,
      "ला,": 2474,
      "clud": 2475,
      "▁Ass": 2476,
      "ance/": 2477,
      "/articleshow/": 2478,
      "inister": 2479,
      "▁न्याया": 2480,
      "ed.).": 2481,
      "\n201": 2482,
      "4/": 2483,
      "5-": 2484,
      "53": 2485,
      "Gu": 2486,
      "PC": 2487,
      "na": 2488,
      "ंं": 2489,
      "गा": 2490,
      "तु": 2491,
      "मी": 2492,
      "मिका": 2493,
      "यं": 2494,
      "रिया": 2495,
      "ेक्ष": 2496,
      "ोब": 2497,
      "।\nभारत": 2498,
      "१,": 2499,
      "కీయ": 2500,
      "గ్": 2501,
      "టె": 2502,
      "టిక": 2503,
      "ధి": 2504,
      "మె": 2505,
      "యు": 2506,
      "లను": 2507,
      "లకు": 2508,
      "షు": 2509,
      "ాఖ": 2510,
      "ావ": 2511,
      "ీతం": 2512,
      "ౌక": 2513,
      "▁డ": 2514,
      "▁ev": 2515,
      "▁काल": 2516,
      "ार्य": 2517,
      "ess": 2518,
      "▁పట్ట": 2519,
      "▁International": 2520,
      "▁(https://books.google.com/": 2521,
      "▁ब्रह": 2522,
      "▁కొ": 2523,
      "▁కాల": 2524,
      "राजधान": 2525,
      "▁వా": 2526,
      ".org/w": 2527,
      "▁సంగ": 2528,
      "▁सेना": 2529,
      "▁mi": 2530,
      "▁more": 2531,
      "▁28": 2532,
      "▁రవాణా": 2533,
      "▁ప్రదేశ": 2534,
      "▁1947": 2535,
      "▁dec": 2536,
      "▁during": 2537,
      "▁ఉంట": 2538,
      "▁ఉంది.": 2539,
      "राष्ट्रप": 2540,
      "▁रह": 2541,
      "రిహ": 2542,
      "230": 2543,
      "త్తం": 2544,
      "नेपाल": 2545,
      "▁భారతదేశంలో": 2546,
      "▁జన": 2547,
      "▁Official": 2548,
      "▁ఇతర": 2549,
      "estern": 2550,
      "ीीप": 2551,
      "ముఖ": 2552,
      "ించింది.": 2553,
      "ियों": 2554,
      "ड़ीी": 2555,
      "ప్రదాయ": 2556,
      "ంగ్రె": 2557,
      "స్తాన్": 2558,
      "fore": 2559,
      "मिल": 2560,
      "▁బహ": 2561,
      "ाराष्ट्र": 2562,
      "▁గల": 2563,
      "▁भाषाओं": 2564,
      "\nభారతదేశం": 2565,
      "▁दिसम्बर": 2566,
      "क्ति\n": 2567,
      "ongress": 2568,
      "ారు.\n": 2569,
      "ana-": 2570,
      "▁स्थि\n": 2571,
      "ందిన": 2572,
      "రాష్ట్ర": 2573,
      "glance/": 2574,
      "▁इसके": 2575,
      "bruary": 2576,
      "oi:": 2577,
      "వాతంత్ర": 2578,
      "cient": 2579,
      "తున్న": 2580,
      "/article": 2581,
      "▁अनुसार": 2582,
      "క్షిణ": 2583,
      "मुद्रा": 2584,
      "త్యధిక": 2585,
      "embly": 2586,
      "▁చెయ్యబడింది.": 2587,
      "0:00\n": 2588,
      "▁ఎన్నో": 2589,
      "index.php?": 2590,
      "ymb": 2591,
      "ासागर": 2592,
      "aspx": 2593,
      "लुगु": 2594,
      "ritish": 2595,
      "\nl": 2596,
      "\nn": 2597,
      "3]": 2598,
      "7).": 2599,
      "Ch": 2600,
      "doc": 2601,
      "oy": 2602,
      "ty": 2603,
      "वे": 2604,
      "्ले": 2605,
      "▁—": 2606,
      "▁end": 2607,
      "are": 2608,
      "ofile": 2609,
      "ice": 2610,
      "▁comm": 2611,
      "ाला": 2612,
      "▁ac": 2613,
      "▁after": 2614,
      "107": 2615,
      "▁27": 2616,
      "▁विभिन्": 2617,
      "क्षेत्र": 2618,
      "त्तीस": 2619,
      "oci": 2620,
      "▁प्राप्त": 2621,
      "india-glance/": 2622,
      "र्थिक": 2623,
      "▁als": 2624,
      "▁2021.\n": 2625,
      "▁class": 2626,
      "-to-": 2627,
      "▁years": 2628,
      "म्मू": 2629,
      "www.censusindia.gov.in/2011census": 2630,
      "▁अरब": 2631,
      "▁February": 2632,
      "त्तीसगढ": 2633,
      "\nE": 2634,
      "\n१": 2635,
      ")\"": 2636,
      "/link": 2637,
      "1).": 2638,
      "4.\n": 2639,
      "5]": 2640,
      "6-": 2641,
      "ru": 2642,
      "y=": 2643,
      "yson": 2644,
      "इति": 2645,
      "टक": 2646,
      "णां": 2647,
      "थिय": 2648,
      "दश": 2649,
      "ोो": 2650,
      "ौगोलिक": 2651,
      "▁we": 2652,
      "▁res": 2653,
      "्यन्त": 2654,
      "▁सु": 2655,
      "▁सूच": 2656,
      "ारी": 2657,
      "▁(eds.": 2658,
      "en,": 2659,
      "▁महा": 2660,
      "ानु": 2661,
      "राण": 2662,
      "▁अफ": 2663,
      "asp?": 2664,
      "▁par": 2665,
      "▁जग": 2666,
      "▁Am": 2667,
      "▁नहीं": 2668,
      "▁बन": 2669,
      "▁बौद्ध": 2670,
      "▁tr": 2671,
      "▁tw": 2672,
      "▁Re": 2673,
      "▁विद्य": 2674,
      "▁विविध": 2675,
      "urr": 2676,
      "▁इत्या": 2677,
      "विद्य": 2678,
      "raph": 2679,
      "▁had": 2680,
      "भाव": 2681,
      "▁de": 2682,
      "▁Government": 2683,
      "संख्या": 2684,
      "मेव": 2685,
      "imag": 2686,
      "abl": 2687,
      "▁हैं,": 2688,
      "▁करने": 2689,
      "ffer": 2690,
      "article": 2691,
      "▁978-0-19-": 2692,
      "▁स्थान": 2693,
      "\nहै": 2694,
      "देह": 2695,
      "र्थव्यवस्था": 2696,
      "ipedia": 2697,
      "▁subcontinent": 2698,
      "nclm.nic.in/sh": 2699,
      "wikipedia": 2700,
      "ोबार": 2701,
      "\n3": 2702,
      "\n7": 2703,
      "\nH": 2704,
      "\nते": 2705,
      "\n0.": 2706,
      "2).": 2707,
      "5).": 2708,
      "cord": 2709,
      "ich": 2710,
      "pt": 2711,
      "ple": 2712,
      "ran": 2713,
      "sc": 2714,
      "val": 2715,
      "ं,": 2716,
      "चार": 2717,
      "नेश": 2718,
      "पूर्व": 2719,
      "श्र": 2720,
      "ीड": 2721,
      "ीव": 2722,
      "४७": 2723,
      "▁he": 2724,
      "▁over": 2725,
      "▁सदन": 2726,
      "▁(ht": 2727,
      "es-": 2728,
      "▁than": 2729,
      "म्भ": 2730,
      "म्स": 2731,
      "म्प्र": 2732,
      "▁भर": 2733,
      "▁population": 2734,
      "▁prim": 2735,
      "▁व्य": 2736,
      "▁नगर": 2737,
      "uslim": 2738,
      "▁2013": 2739,
      "iter": 2740,
      "oup": 2741,
      "etail": 2742,
      "नाडु": 2743,
      "▁चीन": 2744,
      "olic": 2745,
      "▁BCE": 2746,
      "▁British": 2747,
      "▁संसद": 2748,
      "▁hum": 2749,
      "web.archive.org/web/": 2750,
      "▁num": 2751,
      "indus": 2752,
      "akist": 2753,
      "▁Chin": 2754,
      "ucle": 2755,
      "harm": 2756,
      "▁सिख": 2757,
      "०००": 2758,
      "▁ईसा": 2759,
      "▁पाकिस्तान": 2760,
      "ledge": 2761,
      "▁स्था": 2762,
      "▁अनेक": 2763,
      "▁tradition": 2764,
      "ashmir": 2765,
      "ymbol": 2766,
      "\nh": 2767,
      "\nय": 2768,
      "\nand": 2769,
      "\nవి": 2770,
      "\nजन": 2771,
      "/%e0%a4%": 2772,
      "/index.php?": 2773,
      "1.\n": 2774,
      "8/": 2775,
      "88": 2776,
      "8),": 2777,
      "96": 2778,
      "C-0": 2779,
      "DD": 2780,
      "Qu": 2781,
      "ban": 2782,
      "d%e0%a4%b": 2783,
      "ख:": 2784,
      "खन": 2785,
      "ण्य": 2786,
      "तत्त्व": 2787,
      "थमे": 2788,
      "द्या": 2789,
      "नम्\n": 2790,
      "न्या": 2791,
      "मस्ति": 2792,
      "लों": 2793,
      "स्व": 2794,
      "सङ्": 2795,
      "सर्वकार": 2796,
      "ूह": 2797,
      "ेभ्यः": 2798,
      "ोरवर्येण": 2799,
      "्नाथठाग": 2800,
      "१४": 2801,
      "ంటి": 2802,
      "ంస్కృ": 2803,
      "కాల": 2804,
      "క్రమ": 2805,
      "గణ": 2806,
      "టీ": 2807,
      "ట్ల": 2808,
      "పూ": 2809,
      "మంత్ర": 2810,
      "యో": 2811,
      "రాజ": 2812,
      "లస": 2813,
      "లలో": 2814,
      "లతో": 2815,
      "వర్": 2816,
      "ా,": 2817,
      "ాచ": 2818,
      "ూప": 2819,
      "ృద్ధి": 2820,
      "ెంగ": 2821,
      "▁ऊ": 2822,
      "▁im": 2823,
      "▁कवि": 2824,
      "▁सप्त": 2825,
      "▁(1": 2826,
      "▁(1,": 2827,
      "title": 2828,
      "▁पञ्च": 2829,
      "्तु": 2830,
      "म्)\n": 2831,
      "▁हे": 2832,
      "▁పాల": 2833,
      "ree": 2834,
      "report": 2835,
      "▁2017": 2836,
      "స్ల": 2837,
      "▁Modern": 2838,
      "ర్ప": 2839,
      "ింధ": 2840,
      "ीये": 2841,
      "▁आह": 2842,
      "▁आगत": 2843,
      "न्ते": 2844,
      "amil": 2845,
      "▁సభ": 2846,
      "▁సరిహ": 2847,
      "ोंों": 2848,
      "ः\nव": 2849,
      "▁\nఉ": 2850,
      "▁\nక": 2851,
      "ematic": 2852,
      "▁विधान": 2853,
      "ङ्क": 2854,
      "▁इद": 2855,
      "स्ती": 2856,
      "भारतम्": 2857,
      "▁ప్రభు": 2858,
      "▁అయిన": 2859,
      "▁అత్యధిక": 2860,
      "196": 2861,
      "▁చి": 2862,
      "ि\nम": 2863,
      "भागे": 2864,
      "▁ఉప": 2865,
      ".[3": 2866,
      "owing": 2867,
      "▁रहा": 2868,
      "▁है।[": 2869,
      "▁यदा": 2870,
      "త్త": 2871,
      "▁భారత్": 2872,
      "▁देशौ": 2873,
      "▁देशों": 2874,
      "ద్దు": 2875,
      "▁ele": 2876,
      "ङ्गा": 2877,
      "ङ्गली": 2878,
      "▁ఆధ": 2879,
      "ण्ट": 2880,
      "▁।\n१९": 2881,
      "▁నే": 2882,
      "▁भागे": 2883,
      "▁ఇది": 2884,
      "విధ": 2885,
      "ముద్ర": 2886,
      "%e0%a5%8": 2887,
      "▁करोड़": 2888,
      "ानि,": 2889,
      "ffair": 2890,
      "▁గు": 2891,
      "प्रदेशराज्यम्": 2892,
      "▁K.": 2893,
      "ान्,": 2894,
      "ండియా": 2895,
      "२०२": 2896,
      "द्योग": 2897,
      "▁ఎక్కువ": 2898,
      "समें": 2899,
      "▁स्थाने": 2900,
      "▁ఉన్నాయి.": 2901,
      "▁ఉన్నాయి.\n": 2902,
      "timesofindia": 2903,
      "\nपञ्जााब": 2904,
      "▁स्वतंत्र": 2905,
      "▁होता": 2906,
      "सागर": 2907,
      "▁రాజకీయ": 2908,
      "▁महाराज्य": 2909,
      "▁हुए": 2910,
      "ాబిత": 2911,
      "दनप": 2912,
      "▁లే": 2913,
      "athematic": 2914,
      "▁अधिकृत्य": 2915,
      "▁अगाय": 2916,
      "డిప": 2917,
      "▁మొత్తం": 2918,
      "▁राग": 2919,
      "▁रागेण": 2920,
      "\nआङ्ग्ल": 2921,
      "▁कुल": 2922,
      "ाराज्यम्": 2923,
      "▁प्राचार्य": 2924,
      "रूपेण": 2925,
      "निकोबार": 2926,
      "▁రాష్ట్రా\n": 2927,
      "▁बाङ्गला": 2928,
      "సియా": 2929,
      "▁पाकिस्थान": 2930,
      "▁హిందూ": 2931,
      "▁భాషలు": 2932,
      "्राज्य": 2933,
      "\nचण्डीगढ": 2934,
      "మిళ": 2935,
      "▁स्तः": 2936,
      "ాల్లో": 2937,
      "▁लेख:": 2938,
      "▁तेनैव": 2939,
      "▁Times": 2940,
      "ాస్త్ర": 2941,
      "▁క్రీడ": 2942,
      "▁हिमालय": 2943,
      "लयाळम्\n": 2944,
      "▁estim": 2945,
      "▁चुनाव": 2946,
      "▁पत्रिका": 2947,
      "ared/link": 2948,
      "ఢిల్లీ": 2949,
      "न्ध्र": 2950,
      "मासस्य": 2951,
      "▁अभवत्": 2952,
      "मिळ्": 2953,
      "▁978-0-521-": 2954,
      "▁रवीन्द्र्नाथठाग": 2955,
      ".org/w/index.php?": 2956,
      "nclm.nic.in/shared/link": 2957,
      "wikipedia.org/w/index.php?": 2958,
      "uclear": 2959,
      "सङ्ख्या": 2960,
      "title=": 2961,
      "▁रवीन्द्र्नाथठागोरवर्येण": 2962,
      "wikipedia.org/w/index.php?title=": 2963,
      "\nN": 2964,
      "4]": 2965,
      "87": 2966,
      "a.com/": 2967,
      "bh": 2968,
      "bi": 2969,
      "ok": 2970,
      "pur": 2971,
      "ven": 2972,
      "क्य": 2973,
      "ली\n": 2974,
      "ूर्ण": 2975,
      "▁tim": 2976,
      "▁सह": 2977,
      "erg": 2978,
      "ese": 2979,
      "enti": 2980,
      "र्मा": 2981,
      "▁2022": 2982,
      "▁Act": 2983,
      "▁Sanskrit": 2984,
      "▁co": 2985,
      "▁ab": 2986,
      "▁गु": 2987,
      "▁29": 2988,
      "▁विस्त": 2989,
      "▁Budd": 2990,
      "iron": 2991,
      "पुरी,": 2992,
      "▁From": 2993,
      "▁Linguistic": 2994,
      "▁हिन्दु": 2995,
      "earch": 2996,
      "▁Press,": 2997,
      "णिपुर": 2998,
      "▁मुख्य": 2999,
      "धुनिक": 3000,
      "\nउत्तर": 3001,
      "ublication": 3002,
      "▁समाज": 3003,
      "▁Economic": 3004,
      "▁न्यायपालिका": 3005,
      "▁also": 3006,
      "\nf": 3007,
      "\ns://": 3008,
      "-h": 3009,
      "9]": 3010,
      "B0%": 3011,
      "Zv": 3012,
      "aus": 3013,
      "cent": 3014,
      "eh": 3015,
      "ech": 3016,
      "gar": 3017,
      "get": 3018,
      "hat": 3019,
      "ris": 3020,
      "tal": 3021,
      "ted": 3022,
      "uri": 3023,
      "को": 3024,
      "सफ": 3025,
      "िप": 3026,
      "५०": 3027,
      "tive": 3028,
      "alth": 3029,
      "▁पार्": 3030,
      "▁It": 3031,
      "▁ही": 3032,
      "rief": 3033,
      "▁Affair": 3034,
      "▁sup": 3035,
      "▁south": 3036,
      "▁such": 3037,
      "▁2018,": 3038,
      "▁2019.\n": 3039,
      "▁Comp": 3040,
      "▁Singh": 3041,
      "▁\"India": 3042,
      "▁Data": 3043,
      "▁शताब्": 3044,
      "▁संबंध": 3045,
      "▁land": 3046,
      "50th": 3047,
      "indust": 3048,
      "oss": 3049,
      ".gov/": 3050,
      "▁(https://web.archive.org/web/20160": 3051,
      "▁जाती": 3052,
      "▁state": 3053,
      "ंग्रेस": 3054,
      "brary": 3055,
      "▁था।": 3056,
      "-language": 3057,
      "ajor": 3058,
      "▁2010,": 3059,
      "-with": 3060,
      "ैदान": 3061,
      "▁साम्राज्य": 3062,
      "▁became": 3063,
      "▁Assembly": 3064,
      "images/": 3065,
      "ymbols": 3066,
      "▁Buddh": 3067,
      "▁शताब्दी": 3068,
      "\nB": 3069,
      "\n20": 3070,
      "\nदि": 3071,
      "-2": 3072,
      "3]\n": 3073,
      "97": 3074,
      "Th": 3075,
      "[1": 3076,
      "e:": 3077,
      "hy": 3078,
      "jab": 3079,
      "kn": 3080,
      "pp": 3081,
      "uk": 3082,
      "ule": 3083,
      "viron": 3084,
      "yy": 3085,
      "चे": 3086,
      "टान": 3087,
      "णी": 3088,
      "बाद": 3089,
      "मण": 3090,
      "लाल": 3091,
      "शोक": 3092,
      "श्मीर": 3093,
      "ीना": 3094,
      "ोनेश": 3095,
      "१६": 3096,
      "्यक": 3097,
      "▁सिन्धु": 3098,
      "ered": 3099,
      "र्ज": 3100,
      "▁2024": 3101,
      "isation": 3102,
      "asia": 3103,
      "▁व्या": 3104,
      "न्म": 3105,
      "▁Al": 3106,
      "rel": 3107,
      "reat": 3108,
      "▁sh": 3109,
      "▁sq": 3110,
      "▁includ": 3111,
      "usic": 3112,
      "ovision": 3113,
      "ता\n": 3114,
      "▁total": 3115,
      "ild": 3116,
      "▁Har": 3117,
      "पुत्र": 3118,
      "ument": 3119,
      "▁report": 3120,
      "gle.com/books?id=": 3121,
      "ose": 3122,
      "▁विशाल": 3123,
      "ext": 3124,
      "clop": 3125,
      "ोलन": 3126,
      "▁स्वतन्त्र": 3127,
      "▁km": 3128,
      "7,26": 3129,
      "actbook": 3130,
      "ायिका": 3131,
      "हरलाल": 3132,
      "inistry": 3133,
      "cyclop": 3134,
      "ligi": 3135,
      "▁ब्रह्म": 3136,
      "aspx?": 3137,
      "▁स्थाप": 3138,
      "\n4": 3139,
      "\nद": 3140,
      "\nఉ": 3141,
      "\nశ": 3142,
      "\n13": 3143,
      "-n": 3144,
      "0&s": 3145,
      "2%": 3146,
      "219": 3147,
      "3TR": 3148,
      "7%": 3149,
      "AL": 3150,
      "S.": 3151,
      "[10": 3152,
      "britannic": 3153,
      "detail": 3154,
      "ght": 3155,
      "ks": 3156,
      "ls": 3157,
      "pect": 3158,
      "ss": 3159,
      "t\np": 3160,
      "yn": 3161,
      "ंजा": 3162,
      "ई,": 3163,
      "झार": 3164,
      "न्य": 3165,
      "पेक्ष": 3166,
      "फ़": 3167,
      "भर": 3168,
      "भो": 3169,
      "रपेक्ष": 3170,
      "लग": 3171,
      "ॉंग्रेस": 3172,
      "ौह": 3173,
      "ం.": 3174,
      "ం:": 3175,
      "ంతో": 3176,
      "కాలు": 3177,
      "గో": 3178,
      "గంగా": 3179,
      "టా": 3180,
      "ణంగా": 3181,
      "తిక": 3182,
      "తాబ్": 3183,
      "దార": 3184,
      "దంం": 3185,
      "పే": 3186,
      "ఫ్": 3187,
      "భి": 3188,
      "మ్మ": 3189,
      "రీ": 3190,
      "వరి": 3191,
      "వచ్చ": 3192,
      "శ్మ": 3193,
      "సభ": 3194,
      "హిం": 3195,
      "ుకో": 3196,
      "ూర్": 3197,
      "ెబ": 3198,
      "▁ఐ": 3199,
      "▁గా": 3200,
      "▁ద్": 3201,
      "▁und": 3202,
      "▁దేశంలోని": 3203,
      "▁कई": 3204,
      "▁साल": 3205,
      "▁सम्प": 3206,
      "▁(S": 3207,
      "▁मई": 3208,
      "▁मै": 3209,
      "▁मैदान": 3210,
      "omen": 3211,
      "ారస": 3212,
      "▁పత": 3213,
      "▁పో": 3214,
      "िक्": 3215,
      "▁sp": 3216,
      "▁ind": 3217,
      "▁प्रचल": 3218,
      "▁2019": 3219,
      "▁Sch": 3220,
      "▁caste": 3221,
      "ర్లు": 3222,
      "ould": 3223,
      "ింంచ": 3224,
      "నికి": 3225,
      "▁మన": 3226,
      "▁మహ": 3227,
      "▁వే": 3228,
      "▁వ్య": 3229,
      "ాలయ": 3230,
      "ాలతో": 3231,
      ".org/web/201": 3232,
      "▁సామ": 3233,
      "▁సిని": 3234,
      "▁సౌక": 3235,
      "▁సింధ": 3236,
      "ece": 3237,
      "▁రో": 3238,
      "स्त्र": 3239,
      "▁Development": 3240,
      "▁उच्च": 3241,
      "▁ప్రక": 3242,
      "▁ప్రస్తు": 3243,
      "▁ప్రముఖ": 3244,
      "▁शु": 3245,
      "▁అతి": 3246,
      "▁అనే": 3247,
      "stat": 3248,
      "क्षा": 3249,
      "▁చిన్న": 3250,
      "▁doi:": 3251,
      ".in)\n": 3252,
      "unjab": 3253,
      "▁Europe": 3254,
      "ird": 3255,
      "▁(https://web.ar": 3256,
      "రిత్ర": 3257,
      "▁జరి": 3258,
      "▁జాబిత": 3259,
      "ांग": 3260,
      "▁తరువాత": 3261,
      "▁తమిళ": 3262,
      "▁ఆఫ్": 3263,
      "elhi": 3264,
      "▁నగర": 3265,
      "▁నడిప": 3266,
      "▁ఇంగ్ల": 3267,
      "ंगा": 3268,
      "▁१५": 3269,
      "ograph": 3270,
      "▁బ్రి": 3271,
      "▁जनसंख्या": 3272,
      "25.": 3273,
      "aper": 3274,
      "▁Press": 3275,
      "▁విస్త": 3276,
      "▁వివిధ": 3277,
      "బడిన": 3278,
      "ology": 3279,
      "▁1998,": 3280,
      "ंत्री": 3281,
      "जाति": 3282,
      "▁దా": 3283,
      "పాలిత": 3284,
      "▁ముఖ్య": 3285,
      "▁రాష్ట్రపతి": 3286,
      "▁ఒకటి": 3287,
      "▁కాంగ్రె": 3288,
      "▁కాశ్మ": 3289,
      "▁थी": 3290,
      "▁పాకి": 3291,
      "▁కేంద్ర": 3292,
      ".indiatimes.com/india/": 3293,
      "▁పరిశ": 3294,
      "▁అధికారిక": 3295,
      "▁northern": 3296,
      "ీర్ణ": 3297,
      "▁రెండు": 3298,
      "ప్పటిక": 3299,
      "तृत्व": 3300,
      "▁mi)": 3301,
      "▁బహు": 3302,
      "▁सूचना": 3303,
      "▁సరిహద్దు": 3304,
      "▁चुनावों": 3305,
      "vironment": 3306,
      "3TRt": 3307,
      "britannica.com/": 3308,
      "ंजाब": 3309,
      "తాబ్దంం": 3310,
      "\na": 3311,
      ".८": 3312,
      "44": 3313,
      "=1": 3314,
      "Ar": 3315,
      "CL": 3316,
      "LD": 3317,
      "National": 3318,
      "_D": 3319,
      "bc": 3320,
      "back": 3321,
      "cat": 3322,
      "dle": 3323,
      "g/": 3324,
      "ili": 3325,
      "me": 3326,
      "िन": 3327,
      "ेष": 3328,
      "ोद": 3329,
      "।\n": 3330,
      "▁/": 3331,
      "▁ra": 3332,
      "▁up": 3333,
      "▁...": 3334,
      "anc": 3335,
      "▁सी": 3336,
      "▁(म": 3337,
      "arge": 3338,
      "as,": 3339,
      "read": 3340,
      "▁se": 3341,
      "्वर": 3342,
      "▁बंग": 3343,
      "▁CE": 3344,
      "▁Con": 3345,
      "▁Congress": 3346,
      "▁Se": 3347,
      "▁Ministry": 3348,
      "▁am": 3349,
      "▁modern": 3350,
      "▁Rout": 3351,
      "न्दे": 3352,
      "▁Dyson": 3353,
      "▁197": 3354,
      "rac": 3355,
      "21.": 3356,
      "ade": 3357,
      "संस्कृ": 3358,
      "▁east": 3359,
      "ell": 3360,
      "▁(http://p": 3361,
      "▁जनगण": 3362,
      "ountri": 3363,
      "जनप": 3364,
      "▁'जन": 3365,
      "त्यमेव": 3366,
      "harat": 3367,
      "भाषा(": 3368,
      "्रिट": 3369,
      "परि": 3370,
      "ities,": 3371,
      "▁२००": 3372,
      "ethnologue": 3373,
      "▁जयते": 3374,
      "▁प्रधानमन्त्र": 3375,
      "▁ऋष": 3376,
      "/files/": 3377,
      "इतिहास": 3378,
      "▁(eds.).": 3379,
      "▁two": 3380,
      "म्प्रदा": 3381,
      "olicy": 3382,
      "ligious": 3383,
      "▁Routledge": 3384,
      "ethnologue.com/": 3385,
      "\n\"": 3386,
      "\nइ": 3387,
      "\nज": 3388,
      "-on-": 3389,
      "6.\n": 3390,
      "6),": 3391,
      "93": 3392,
      "Official": 3393,
      "country": 3394,
      "jar": 3395,
      "nd": 3396,
      "ning": 3397,
      "गुजरात": 3398,
      "च्": 3399,
      "छत्तीसगढ": 3400,
      "ठा": 3401,
      "डिया": 3402,
      "भु": 3403,
      "मक": 3404,
      "में": 3405,
      "यन": 3406,
      "यों": 3407,
      "रिक": 3408,
      "ीच": 3409,
      "ी)\n": 3410,
      "▁:": 3411,
      "▁७": 3412,
      "▁कॉंग्रेस": 3413,
      "▁सक": 3414,
      "ery": 3415,
      "▁there": 3416,
      "▁पार": 3417,
      "rect": 3418,
      "religion": 3419,
      "▁social": 3420,
      "▁2012": 3421,
      "▁2019.": 3422,
      "▁C.": 3423,
      "स्ला": 3424,
      "▁Pakist": 3425,
      "▁M.": 3426,
      "ना,": 3427,
      "▁\"M": 3428,
      "▁\"P": 3429,
      "न्तु": 3430,
      "▁million": 3431,
      "iddle": 3432,
      "econd": 3433,
      "ures": 3434,
      "▁इन": 3435,
      "▁इस्ला": 3436,
      "▁उन": 3437,
      "anges": 3438,
      "▁2009,": 3439,
      "▁long": 3440,
      "▁dance": 3441,
      "▁national": 3442,
      "▁नेतृत्व": 3443,
      "ड़ेे": 3444,
      "osed": 3445,
      "18.": 3446,
      "▁जनजाति": 3447,
      "\nमध्य": 3448,
      "निव": 3449,
      "-largest": 3450,
      "माणु": 3451,
      "▁2021.": 3452,
      "economy": 3453,
      "▁बहुत": 3454,
      "▁देख": 3455,
      "ैन्य": 3456,
      "sput": 3457,
      "▁मिल": 3458,
      "▁पहले": 3459,
      "▁वर्ग": 3460,
      "▁दशक": 3461,
      "▁स्थि\nत": 3462,
      "्लेे": 3463,
      "nclm.nic.in/shared/linkimages/": 3464,
      "िक्क": 3465,
      "3TRtDwAAQBAJ&pg=PA": 3466,
      "CLM": 3467,
      "\nU": 3468,
      "\nt": 3469,
      "110": 3470,
      "1][": 3471,
      "124": 3472,
      "5]\n": 3473,
      "68": 3474,
      "81-": 3475,
      "JI": 3476,
      "Jgo": 3477,
      "ST": 3478,
      "au": 3479,
      "aJI": 3480,
      "bbc": 3481,
      "fl": 3482,
      "gr": 3483,
      "iz": 3484,
      "iod": 3485,
      "lobal": 3486,
      "mund": 3487,
      "s=": 3488,
      "sa.": 3489,
      "कस्य": 3490,
      "तान": 3491,
      "तः\n": 3492,
      "तमा": 3493,
      "पय": 3494,
      "पङ्": 3495,
      "भौगोलिक": 3496,
      "मि\n": 3497,
      "यवा": 3498,
      "यूर": 3499,
      "वर्ण": 3500,
      "वन्तः": 3501,
      "साम": 3502,
      "ा:": 3503,
      "ाश्च": 3504,
      "ाब्": 3505,
      "ातन्त्र": 3506,
      "ाङ्गला": 3507,
      "ीन्द्र": 3508,
      "ृष्ट": 3509,
      "ेः": 3510,
      "ोत्": 3511,
      "ोच्च": 3512,
      "an.": 3513,
      "्रन्": 3514,
      "▁क्रिस्त": 3515,
      "on,": 3516,
      "▁सङ्": 3517,
      "ering": 3518,
      "al,": 3519,
      "▁मध्ये": 3520,
      "▁मदनप": 3521,
      "▁अष्ट": 3522,
      "▁अद्या": 3523,
      "▁वाल": 3524,
      "िकवि": 3525,
      "▁तत्र": 3526,
      "▁तमे": 3527,
      "▁तदा": 3528,
      "▁तदन": 3529,
      "याः\n": 3530,
      "▁Ac": 3531,
      "▁All": 3532,
      "▁भारती": 3533,
      "▁भारतम्": 3534,
      "▁नद्य": 3535,
      "▁sc": 3536,
      "▁ब्रिट": 3537,
      "▁प्रभाव": 3538,
      "िति": 3539,
      "ितम्": 3540,
      "▁both": 3541,
      "ालयः": 3542,
      "ालाद्वीप": 3543,
      "ीयशासन": 3544,
      "▁TLD": 3545,
      "▁आपरा": 3546,
      "ष्प": 3547,
      ")\n(": 3548,
      "ः\nप": 3549,
      "ovember": 3550,
      "देशीय": 3551,
      "▁इत्ये": 3552,
      "राज्यम्\n": 3553,
      "म्\nअ": 3554,
      "म्\nआ": 3555,
      "म्\nव": 3556,
      "▁Dav": 3557,
      "विस्ती": 3558,
      "्याः": 3559,
      "्याम": 3560,
      "्याा": 3561,
      "▁संयो": 3562,
      "raj": 3563,
      "ange": 3564,
      "क्षर": 3565,
      "क्षद्वीप": 3566,
      "▁large": 3567,
      "ight": 3568,
      "▁def": 3569,
      "▁East": 3570,
      "▁Emp": 3571,
      "राष्ट्रीय": 3572,
      "राष्ट्रिय": 3573,
      "▁no": 3574,
      "रीत्या": 3575,
      "umeration": 3576,
      "▁देशे": 3577,
      "काः": 3578,
      "तेन": 3579,
      "ङ्गान": 3580,
      "26.": 3581,
      "269,": 3582,
      "▁।\nभारतस्य": 3583,
      "ortal": 3584,
      "ःः)\n": 3585,
      "▁पुण्य": 3586,
      "कारिण": 3587,
      "occ": 3588,
      "ock": 3589,
      "▁राष्ट्रध्वज": 3590,
      "ण्डमान": 3591,
      "ण्डोनेश": 3592,
      "287,26": 3593,
      "the-": 3594,
      "▁भाषाः": 3595,
      "किम्\n": 3596,
      "▁राज्यानि": 3597,
      "▁beg": 3598,
      "द्वारा": 3599,
      "▁disput": 3600,
      "▁विश्वस्य": 3601,
      "▁दक्षिणे": 3602,
      "\nपर": 3603,
      "\nगीत": 3604,
      "html).": 3605,
      "ब्ध": 3606,
      "रवीन्द्र": 3607,
      "योः": 3608,
      "▁ext": 3609,
      "▁हिन्दी\n२": 3610,
      "▁माकिम्\n": 3611,
      "च्चेे": 3612,
      "▁सर्वे": 3613,
      "▁लिखित": 3614,
      "▁वर्ते": 3615,
      "▁वर्ते।": 3616,
      "onstitutional": 3617,
      "▁कासिन्सः": 3618,
      "▁लोकतन्त्र": 3619,
      "काश्मीर": 3620,
      "othermund": 3621,
      "▁group": 3622,
      ".html)": 3623,
      "▁राष्ट्रपतिःः": 3624,
      "▁कार्यकारिण": 3625,
      "ोर्ट": 3626,
      "▁युग": 3627,
      "दुच्चेे": 3628,
      ".cms).": 3629,
      "▁बेङ्गली": 3630,
      "▁world's": 3631,
      "0%e0%a4%": 3632,
      "देशस्य,": 3633,
      "▁Indus": 3634,
      "▁आधिकारिकरूपेण": 3635,
      "▁संस्कृतिःः": 3636,
      "▁नाम्": 3637,
      "भागः": 3638,
      "▁बृहत्त": 3639,
      "▁।\nभारतं": 3640,
      "शासितप्रदेशाः": 3641,
      "दशशत": 3642,
      "▁इत्यादयः": 3643,
      "ीडा": 3644,
      "\nआङ्ग्ल,": 3645,
      "निकोबारद्वीप": 3646,
      "\nचण्डीगढ\nपञ्जााब": 3647,
      "▁estimate": 3648,
      "▁Act,": 3649,
      "industan": 3650,
      "▁under": 3651,
      "भाषा(ःः)\n": 3652,
      "sa.wikipedia.org/w/index.php?title=": 3653,
      "मि\nन्": 3654,
      "यवाक्य": 3655,
      "ातन्त्र्य": 3656,
      "▁क्रिस्ताब्": 3657,
      "▁सङ्घ": 3658,
      "▁अद्यापि": 3659,
      "ालाद्वीपः": 3660,
      "▁आपराधिक": 3661,
      "विस्तीर्ण": 3662,
      "\nL": 3663,
      "\nओ": 3664,
      "\nర": 3665,
      "\nin": 3666,
      "\nస్": 3667,
      "\nसे": 3668,
      "\n3,": 3669,
      "/t": 3670,
      "290": 3671,
      "58": 3672,
      "NCLM": 3673,
      "Vu": 3674,
      "ZVu": 3675,
      "_E": 3676,
      "a-": 3677,
      "ault": 3678,
      "hdr": 3679,
      "ject": 3680,
      "kZVu": 3681,
      "main": 3682,
      "pag": 3683,
      "s:": 3684,
      "ten": 3685,
      "ver": 3686,
      "ंट": 3687,
      "कृ": 3688,
      "जपुरी,": 3689,
      "तार": 3690,
      "दर्श": 3691,
      "ये": 3692,
      "ैल": 3693,
      "ॉल": 3694,
      "्न": 3695,
      "ంత": 3696,
      "ం,\n": 3697,
      "ందు": 3698,
      "ంప్రదాయ": 3699,
      "ఆర్": 3700,
      "ఖండ": 3701,
      "గం": 3702,
      "గే": 3703,
      "గలు": 3704,
      "జన": 3705,
      "జి": 3706,
      "టం": 3707,
      "డే": 3708,
      "త్యంం": 3709,
      "నీ": 3710,
      "మన": 3711,
      "మీ": 3712,
      "మ్య": 3713,
      "లా": 3714,
      "ళ్ల": 3715,
      "వడ": 3716,
      "వె": 3717,
      "వతంత్ర": 3718,
      "వత్స": 3719,
      "వృద్ధి": 3720,
      "శ్చ": 3721,
      "సా": 3722,
      "సింది.": 3723,
      "హదార": 3724,
      "ీ;": 3725,
      "ుల": 3726,
      "ూచ": 3727,
      "ేంద్ర": 3728,
      "ైగా": 3729,
      "ొద": 3730,
      "ౌద్ధ": 3731,
      "్వ": 3732,
      "▁j": 3733,
      "▁ऑ": 3734,
      "▁ఖ": 3735,
      "▁దీ": 3736,
      "▁out": 3737,
      "▁ed.).": 3738,
      "▁occ": 3739,
      "203": 3740,
      "2021": 3741,
      "ारम्भ": 3742,
      "arm": 3743,
      "arn": 3744,
      "▁मौ": 3745,
      "▁अहि": 3746,
      "▁अंग्रेज़ीी": 3747,
      ".\nజాతీయ": 3748,
      "▁भो": 3749,
      "▁పద్ధ": 3750,
      "▁పండు": 3751,
      "▁పాత్ర": 3752,
      "at-": 3753,
      "ature": 3754,
      "▁जब": 3755,
      "▁some": 3756,
      "లో\n": 3757,
      "▁प्रत्ये": 3758,
      "▁में,": 3759,
      "ite": 3760,
      "ర్ల": 3761,
      "న్మ": 3762,
      "▁आस": 3763,
      "▁आर्थिक": 3764,
      "నిక": 3765,
      "▁ag": 3766,
      "▁\"G": 3767,
      "▁गई": 3768,
      "▁गान": 3769,
      "▁चित": 3770,
      "▁వెబ": 3771,
      "ాలకు": 3772,
      "amp": 3773,
      "aman": 3774,
      "▁సమ": 3775,
      "▁R.": 3776,
      "▁Rothermund": 3777,
      "▁\nమ": 3778,
      "emoc": 3779,
      "▁రంగ": 3780,
      "त्रि": 3781,
      "▁D.": 3782,
      "▁Beng": 3783,
      "▁ప్రతి": 3784,
      "గా,": 3785,
      "▁संयुक्त": 3786,
      "▁అభి": 3787,
      "ियाँ": 3788,
      "న్నాయి.\n": 3789,
      "▁later": 3790,
      "▁काम": 3791,
      "▁చైన": 3792,
      "▁చరిత్ర": 3793,
      "▁लग": 3794,
      "▁लिये": 3795,
      "त्मक": 3796,
      "ers,": 3797,
      "నుక": 3798,
      "ల్ప": 3799,
      "ల్లో": 3800,
      "ల్వే": 3801,
      "ादरा": 3802,
      "archive.org/detail": 3803,
      ".[40": 3804,
      "owth": 3805,
      "▁J.": 3806,
      "▁Nations": 3807,
      "▁(https://web.archive.org/": 3808,
      "23.": 3809,
      "▁यू": 3810,
      "త్వా": 3811,
      "धानी": 3812,
      "संबर": 3813,
      "▁జాత": 3814,
      "▁జనాభా": 3815,
      "त्तरा": 3816,
      "▁परि": 3817,
      "407": 3818,
      "▁నా": 3819,
      "స్థాన": 3820,
      "స్థాన్": 3821,
      "▁బెంగ": 3822,
      "▁గణ": 3823,
      "▁గో": 3824,
      "▁दिव": 3825,
      "▁दिसंबर": 3826,
      "ంలో,": 3827,
      "रुणा": 3828,
      "▁(2018),": 3829,
      "▁differ": 3830,
      "▁సంవత్స": 3831,
      "समिया": 3832,
      "▁राजधानी": 3833,
      "\nసా": 3834,
      "▁निभा": 3835,
      ".nic.in)\n": 3836,
      "▁శతాబ్దంం": 3837,
      "ugh": 3838,
      "▁దేశాల": 3839,
      "▁जिसमें": 3840,
      "ार्द": 3841,
      "निरपेक्ष": 3842,
      "line": 3843,
      "▁ఆర్ధిక": 3844,
      "857": 3845,
      "वीं": 3846,
      "cience": 3847,
      "▁రైల్వే": 3848,
      "ర్వహ": 3849,
      "▁पुरालेखित।,": 3850,
      "▁२०११": 3851,
      "ంబై": 3852,
      "▁2014.\n1": 3853,
      "\nమధ్య": 3854,
      "ట్లు": 3855,
      "▁ఏర్ప": 3856,
      "▁సాధ": 3857,
      "\nజనాభా": 3858,
      "ంధీ": 3859,
      "▁used": 3860,
      "▁వచ్చింంది.": 3861,
      "▁మార్గాలు": 3862,
      "▁संस्कृति": 3863,
      "िहार": 3864,
      ",NGDP": 3865,
      "వ)\n•": 3866,
      "▁Asher": 3867,
      "▁కారణంగా": 3868,
      "▁మొదల": 3869,
      "मी2": 3870,
      "ావరణ": 3871,
      "▁పట్టణ": 3872,
      "▁సంగీతం": 3873,
      "వాతంత్ర్య": 3874,
      "वेली": 3875,
      "iterac": 3876,
      "ాచీన": 3877,
      "Zva": 3878,
      "ौहार्द": 3879,
      "▁సౌకర్య": 3880,
      "▁జాబితా": 3881,
      "▁నడిపించ": 3882,
      "▁ఇంగ్లీ": 3883,
      "▁పరిశ్రమ": 3884,
      "▁David": 3885,
      "శ్చిమ": 3886,
      "▁వెబ్": 3887,
      "▁అభివృద్ధి": 3888,
      "रुणाचल": 3889,
      "\ndia": 3890,
      "/S": 3891,
      "/m": 3892,
      "4\n": 3893,
      "6–": 3894,
      "79": 3895,
      "7]": 3896,
      "83": 3897,
      "HA": 3898,
      "[13": 3899,
      "[18": 3900,
      "[14": 3901,
      "een": 3902,
      "efore": 3903,
      "med": 3904,
      "oz": 3905,
      "rar": 3906,
      "versity": 3907,
      "पश्चिम": 3908,
      "रल": 3909,
      "रि": 3910,
      "ाख": 3911,
      "१७": 3912,
      "▁economic": 3913,
      "▁0:00\n": 3914,
      "▁कृ": 3915,
      "ther": 3916,
      "▁समान": 3917,
      "ारो": 3918,
      "orn": 3919,
      "arly": 3920,
      "did": 3921,
      "▁मे": 3922,
      "▁they": 3923,
      "▁अर्थव्यवस्था": 3924,
      "tps://": 3925,
      "▁2026": 3926,
      "ised": 3927,
      "▁11": 3928,
      "ool": 3929,
      "▁since": 3930,
      "▁fl": 3931,
      "ing,": 3932,
      "▁Man": 3933,
      "▁Mon": 3934,
      "▁Mich": 3935,
      "▁आन्द": 3936,
      "▁आधुनिक": 3937,
      "2012": 3938,
      "▁me": 3939,
      "▁many": 3940,
      "ovement": 3941,
      "▁Raj": 3942,
      "▁Reg": 3943,
      "india.com/": 3944,
      "raw": 3945,
      "str": 3946,
      "19.": 3947,
      "1947": 3948,
      "▁2003": 3949,
      "▁2004": 3950,
      "▁2004,": 3951,
      "ists": 3952,
      "istrar": 3953,
      "archive.": 3954,
      ".[4": 3955,
      "▁November": 3956,
      "▁रू": 3957,
      "▁General": 3958,
      "▁Off": 3959,
      "▁For": 3960,
      "epend": 3961,
      "epublic": 3962,
      "geoh": 3963,
      "theh": 3964,
      "akh": 3965,
      "troduc": 3966,
      "\nमह": 3967,
      "\"\n(": 3968,
      "ध्यम": 3969,
      "▁978-81-": 3970,
      "▁stat": 3971,
      "ata_": 3972,
      "onstituent": 3973,
      "ative": 3974,
      "▁978-1-107": 3975,
      "asha": 3976,
      "▁Central": 3977,
      "olitical": 3978,
      "वादी": 3979,
      "▁(199": 3980,
      "radesh": 3981,
      "▁period": 3982,
      "ribution": 3983,
      "business/": 3984,
      "view": 3985,
      "▁Minorities,": 3986,
      "GuaJI": 3987,
      "www.censusindia.gov.in/2011census/": 3988,
      "▁trans": 3989,
      "cording": 3990,
      "▁(htt\np": 3991,
      "web.archive.org/web/201": 3992,
      "timesofindia.indiatimes.com/india/": 3993,
      "▁km2": 3994,
      "JgoC&pg=PA": 3995,
      "emocra": 3996,
      "▁आन्दोलन": 3997,
      "▁Registrar": 3998,
      "geohack": 3999,
      "\nना": 4000,
      "\n15": 4001,
      "\nप्रदेश": 4002,
      "\nमुद्रा": 4003,
      ".६": 4004,
      "/Hindi": 4005,
      "07": 4006,
      "8]": 4007,
      "8–": 4008,
      "Retrieved": 4009,
      "UT": 4010,
      "ael": 4011,
      "def": 4012,
      "history": 4013,
      "man": 4014,
      "owe": 4015,
      "sm": 4016,
      "ters": 4017,
      "ंपरा": 4018,
      "आई": 4019,
      "एस": 4020,
      "घालय": 4021,
      "टा": 4022,
      "डी": 4023,
      "थवा": 4024,
      "धी,": 4025,
      "नों": 4026,
      "बोध": 4027,
      "रू": 4028,
      "वर": 4029,
      "वर्त": 4030,
      "शु": 4031,
      "सदन": 4032,
      "हें": 4033,
      "ुष": 4034,
      "ूबर": 4035,
      "ूदू": 4036,
      "ैं": 4037,
      "२८": 4038,
      "▁,": 4039,
      "▁en": 4040,
      "▁Qu": 4041,
      "ances": 4042,
      "▁सदस्य": 4043,
      "▁सैन्य": 4044,
      "ारिक": 4045,
      "▁(संस्कृत": 4046,
      "aram": 4047,
      "▁पू": 4048,
      "▁अंग्रे": 4049,
      "▁अथवा": 4050,
      "▁Inform": 4051,
      "tions": 4052,
      "▁जन्म": 4053,
      "▁दर": 4054,
      "leg": 4055,
      "leas": 4056,
      "▁भारतवर्ष": 4057,
      "▁न्य": 4058,
      "▁नदी": 4059,
      "▁incre": 4060,
      "▁बीच": 4061,
      "▁प्रे": 4062,
      "▁प्रमाण": 4063,
      "ing.": 4064,
      "ation,": 4065,
      "▁P.": 4066,
      "▁Part": 4067,
      "etary": 4068,
      "▁गठ": 4069,
      "▁गो": 4070,
      "▁minister": 4071,
      "▁mathematic": 4072,
      "▁major": 4073,
      "ी\nत": 4074,
      "ी\n२": 4075,
      "▁विदेश": 4076,
      "urban": 4077,
      "▁B.;": 4078,
      "प्रैल": 4079,
      "माचल": 4080,
      "▁लोग": 4081,
      ".in.": 4082,
      "▁रच": 4083,
      "▁रक्षा": 4084,
      "▁one": 4085,
      "▁Gu": 4086,
      "▁religious": 4087,
      "▁परमाणु": 4088,
      "ayback": 4089,
      "▁Fund": 4090,
      "▁भाग": 4091,
      "▁Languages": 4092,
      "ogn": 4093,
      "वाहरलाल": 4094,
      "es/0": 4095,
      "हाँ": 4096,
      "theast": 4097,
      "▁जनवरी": 4098,
      "▁Union": 4099,
      "▁(https://web.archive.org/web/20140": 4100,
      "▁(https://books.google.com/books?id=Zva": 4101,
      "▁(2013": 4102,
      ").\n4": 4103,
      "▁राजन": 4104,
      "▁Asian": 4105,
      "▁निर्माण": 4106,
      "\nकन्न": 4107,
      "▁होती": 4108,
      "\nगुजरात": 4109,
      "html)": 4110,
      "-symbols": 4111,
      "▁वर्षों": 4112,
      "▁महासागर": 4113,
      "▁१९४७": 4114,
      "▁मातर": 4115,
      "▁Encyclop": 4116,
      "ather": 4117,
      "देव": 4118,
      "▁था,": 4119,
      "▁कुछ": 4120,
      "▁क्षेत्रीय": 4121,
      "national-symbols": 4122,
      "ism,": 4123,
      "▁गणराज्य": 4124,
      "ohn": 4125,
      "▁२८": 4126,
      "▁who": 4127,
      "edic": 4128,
      "बंधन": 4129,
      "ाद्वीीप": 4130,
      "▁स्तर": 4131,
      "▁(https://web.archive.org/web/202": 4132,
      "sites/": 4133,
      "▁territ": 4134,
      "▁ओर": 4135,
      "arket": 4136,
      "▁वर्षा": 4137,
      "Report.pdf)": 4138,
      "▁विकास": 4139,
      "्लाा": 4140,
      "▁Plate": 4141,
      "▁न्यायाल": 4142,
      "india-glance/national-symbols": 4143,
      "▁classical": 4144,
      "\nतेलुगु": 4145,
      "श्रेे": 4146,
      "bhasha": 4147,
      "▁time": 4148,
      "ovisions": 4149,
      "झारखण्ड": 4150,
      "ांग्लाा": 4151,
      "▁among": 4152,
      "▁Empire": 4153,
      "kZVuDwAAQBAJ&pg=PA": 4154,
      "archive.org/details/": 4155,
      "त्तराखण्ड": 4156,
      "▁निभाई": 4157,
      "▁Office": 4158,
      "\nकन्नड": 4159,
      "\nई": 4160,
      "\nए": 4161,
      "\nre": 4162,
      "-अ": 4163,
      "121": 4164,
      "4]\n": 4165,
      "4][": 4166,
      "5-0": 4167,
      "76": 4168,
      "a/": 4169,
      "b)": 4170,
      "dm": 4171,
      "fer": 4172,
      "ih": 4173,
      "ibrary": 4174,
      "nt": 4175,
      "vers": 4176,
      "जिक": 4177,
      "टना": 4178,
      "बै": 4179,
      "लि": 4180,
      "वेश": 4181,
      "वंश": 4182,
      "हन": 4183,
      "ैत": 4184,
      "ined": 4185,
      "thnologue": 4186,
      "20.": 4187,
      "original": 4188,
      "▁(in": 4189,
      "▁(a)": 4190,
      "tis": 4191,
      "educ": 4192,
      ".\n8": 4193,
      ".\nISBN": 4194,
      "omin": 4195,
      "▁Is": 4196,
      "ase": 4197,
      "andhi": 4198,
      "▁pre": 4199,
      "▁Pradesh": 4200,
      "▁war": 4201,
      "▁Mach": 4202,
      "▁आधार": 4203,
      "2019": 4204,
      "▁\"H": 4205,
      "▁गारो": 4206,
      "▁mar": 4207,
      "▁mil": 4208,
      "ove": 4209,
      "ulke": 4210,
      "▁Delhi": 4211,
      "▁Bi": 4212,
      "▁1960": 4213,
      "▁2003,": 4214,
      "भाष": 4215,
      "▁des": 4216,
      ".[23": 4217,
      "508": 4218,
      "▁rep": 4219,
      "▁Fish": 4220,
      "22.": 4221,
      "2221": 4222,
      "▁Wayback": 4223,
      "15/": 4224,
      "▁Kulke": 4225,
      "▁(https://web.archive.org/web/20190": 4226,
      "1,7": 4227,
      "udget": 4228,
      ".pdf)\n(": 4229,
      "endra": 4230,
      "▁area": 4231,
      "global": 4232,
      "▁Environment": 4233,
      "ector": 4234,
      "atis": 4235,
      "▁भूमि": 4236,
      "PPP": 4237,
      "\n(https://": 4238,
      "▁खास": 4239,
      "usiness": 4240,
      "▁Centre": 4241,
      "▁(https://doi.org/10.": 4242,
      "%7c": 4243,
      "▁(https://books.google.com/book": 4244,
      "document": 4245,
      "▁विभिन्न": 4246,
      "▁prime": 4247,
      "▁number": 4248,
      "▁सीमा": 4249,
      "ractic": 4250,
      "▁Routledge.": 4251,
      "flu": 4252,
      "▁ब्रिटिश": 4253,
      "▁कृष": 4254,
      "\nमहाराष्ट्र": 4255,
      ".pdf)\n(PDF": 4256,
      "\nT": 4257,
      "\nन": 4258,
      "\nఇ": 4259,
      "\nఎ": 4260,
      "\nన": 4261,
      "\nति": 4262,
      "\nऔर": 4263,
      "\nवि": 4264,
      "\nनेपाल": 4265,
      "%3": 4266,
      "),\n": 4267,
      ",0": 4268,
      ",5": 4269,
      ",५": 4270,
      "-उ": 4271,
      "-11": 4272,
      ".world": 4273,
      ".asp?": 4274,
      ".పూ": 4275,
      "418": 4276,
      "63": 4277,
      "7-": 4278,
      "7°": 4279,
      "8]\n": 4280,
      "9–": 4281,
      "Kashmir": 4282,
      "Language": 4283,
      "_p": 4284,
      "a;": 4285,
      "a-b": 4286,
      "eak": 4287,
      "lm": 4288,
      "nal": 4289,
      "oin": 4290,
      "oor": 4291,
      "os/": 4292,
      "tain": 4293,
      "ver,": 4294,
      "ँकि": 4295,
      "ंह": 4296,
      "एं": 4297,
      "गि": 4298,
      "चन": 4299,
      "जो": 4300,
      "जपा": 4301,
      "तं": 4302,
      "तन": 4303,
      "तान्त": 4304,
      "थी": 4305,
      "धायिका": 4306,
      "फे": 4307,
      "भग": 4308,
      "भेद": 4309,
      "रं": 4310,
      "ली,": 4311,
      "लोक": 4312,
      "वह": 4313,
      "वार": 4314,
      "वरी,": 4315,
      "शी": 4316,
      "शक्त": 4317,
      "शील": 4318,
      "सभ": 4319,
      "हरी": 4320,
      "हरु": 4321,
      "ाक": 4322,
      "ीता": 4323,
      "ोगर": 4324,
      "्ड": 4325,
      "१०": 4326,
      "ంజ": 4327,
      "ంద": 4328,
      "ంప": 4329,
      "ం.\n": 4330,
      "ందే": 4331,
      "ంతు": 4332,
      "అధిక": 4333,
      "గ్ర": 4334,
      "గం\n": 4335,
      "జ్య": 4336,
      "టక": 4337,
      "టో": 4338,
      "ట్ర": 4339,
      "తా": 4340,
      "తే": 4341,
      "తము": 4342,
      "తులు": 4343,
      "థిక": 4344,
      "దన": 4345,
      "ద్య": 4346,
      "దక్షిణ": 4347,
      "నలో": 4348,
      "నాలు": 4349,
      "బా": 4350,
      "బె": 4351,
      "భూ": 4352,
      "భిన్న": 4353,
      "మై": 4354,
      "మాన": 4355,
      "యిత": 4356,
      "రే": 4357,
      "రిక": 4358,
      "లే": 4359,
      "లమె": 4360,
      "ళిక": 4361,
      "వార": 4362,
      "వలం": 4363,
      "శ్ర": 4364,
      "షన్": 4365,
      "సై": 4366,
      "స్య": 4367,
      "హార": 4368,
      "ాప": 4369,
      "ాదేశ": 4370,
      "ీక": 4371,
      "ుు": 4372,
      "ెండ": 4373,
      "్డ": 4374,
      "▁ఘ": 4375,
      "▁ఫ": 4376,
      "▁40": 4377,
      "▁యు": 4378,
      "inc": 4379,
      "ins": 4380,
      "्रि\nक": 4381,
      "▁की\n": 4382,
      "▁कर्ज": 4383,
      "्यान्": 4384,
      "2020": 4385,
      "one": 4386,
      "▁सितं": 4387,
      "ार्म": 4388,
      "ories": 4389,
      "▁(%": 4390,
      "arch": 4391,
      "▁पड़": 4392,
      "▁पार्थ": 4393,
      "▁प्लेे": 4394,
      "▁मराठ": 4395,
      "राव": 4396,
      "▁अमे": 4397,
      "▁अलग": 4398,
      ".\nప్ర": 4399,
      "్రాజ": 4400,
      "▁పి": 4401,
      "▁పైగా": 4402,
      "▁वेद": 4403,
      "▁ज़": 4404,
      "▁जे": 4405,
      "▁ज्ञ": 4406,
      "▁दीव": 4407,
      "▁तीस": 4408,
      "▁Af": 4409,
      "▁Ara": 4410,
      "reed": 4411,
      "▁नद": 4412,
      "్యాయ": 4413,
      "▁बु": 4414,
      "▁बार": 4415,
      "▁बड़ेे": 4416,
      "▁प्रकार": 4417,
      "▁प्रारम्भ": 4418,
      "స్,": 4419,
      "స్స": 4420,
      "▁Summ": 4421,
      "▁క్య": 4422,
      "▁కిం": 4423,
      "▁br": 4424,
      "▁billion": 4425,
      "▁Punjab": 4426,
      "▁Portal": 4427,
      "▁Mugh": 4428,
      "ర్గ": 4429,
      "ర్కొ": 4430,
      "న్ఫ": 4431,
      "▁आर": 4432,
      "▁आर्य": 4433,
      "దేశపు": 4434,
      "तिरु": 4435,
      "▁మే": 4436,
      "▁మై": 4437,
      "▁మూడ": 4438,
      "▁వహ": 4439,
      "▁వై": 4440,
      "▁వారస": 4441,
      "ాలా": 4442,
      "ాలీ": 4443,
      "ames": 4444,
      "▁సు": 4445,
      "▁సర్వ": 4446,
      "▁సమా": 4447,
      "ी\nको": 4448,
      "▁\nఅ": 4449,
      "▁\nఇ": 4450,
      "▁\nప": 4451,
      "▁\nస": 4452,
      "ulti": 4453,
      "देशिक": 4454,
      "▁विवाद": 4455,
      "▁विधायिका": 4456,
      "▁రహదార": 4457,
      "uran": 4458,
      "urve": 4459,
      "ికత": 4460,
      "ికి": 4461,
      "▁Bh": 4462,
      "▁Before": 4463,
      "▁संस्था": 4464,
      "प्रकाश": 4465,
      "▁అను": 4466,
      "▁అక్ష": 4467,
      "ాత్మ": 4468,
      "న్నడ": 4469,
      "190": 4470,
      "▁2007.": 4471,
      "▁2005.\n": 4472,
      "▁high": 4473,
      "క్సభ": 4474,
      "▁Him": 4475,
      "నులు,": 4476,
      "लावा": 4477,
      "ల్లు": 4478,
      "ండో": 4479,
      "ాయక": 4480,
      "ాయు": 4481,
      "▁ఉంది.\n": 4482,
      "resent": 4483,
      "▁रो": 4484,
      "కుంట": 4485,
      "पुराण": 4486,
      "रीक्ष": 4487,
      "umb": 4488,
      "▁జమ్మ": 4489,
      "▁జన్మ": 4490,
      "▁జంతు": 4491,
      "imal": 4492,
      "good": 4493,
      "▁తెలు": 4494,
      "405": 4495,
      "▁Or": 4496,
      "త్రక": 4497,
      "ments": 4498,
      "▁నాలు": 4499,
      "▁Ludd": 4500,
      "▁ఇస్ల": 4501,
      "▁ఇండియా": 4502,
      "▁ఇన్ఫ": 4503,
      "తి,": 4504,
      "ल्ले": 4505,
      "ंग्ल": 4506,
      "విస్త": 4507,
      "ములో": 4508,
      "తం,": 4509,
      "తంగా": 4510,
      "ించి": 4511,
      "ించింది.\n": 4512,
      "▁करना": 4513,
      "▁करता": 4514,
      "AAJ": 4515,
      "భాష": 4516,
      "టిలో": 4517,
      "दिल्ली": 4518,
      "सीमा": 4519,
      "ournal": 4520,
      "▁जाते": 4521,
      "ార్లమె": 4522,
      "▁(2014).": 4523,
      "ంటు": 4524,
      "ంటే": 4525,
      "opulation_": 4526,
      "\nअंग्रेज़ीी": 4527,
      "दाख": 4528,
      "ంచి": 4529,
      "▁సంక": 4530,
      "▁సంఖ్య": 4531,
      "▁సంస్కృ": 4532,
      "समूह": 4533,
      "\nసంస్కృ": 4534,
      "వామ్య": 4535,
      "ध्यक्ष": 4536,
      "newsit": 4537,
      "त्य\n": 4538,
      "చ్చింంది.": 4539,
      "▁समीप": 4540,
      "రాస్య": 4541,
      "▁శాస్త్ర": 4542,
      "▁రాజ్యంం": 4543,
      "▁చెందిన": 4544,
      "8090": 4545,
      ".nic.in/newsit": 4546,
      "▁पूर्वी": 4547,
      "▁१९९": 4548,
      "ాబా": 4549,
      "e.aspx?": 4550,
      "▁లక్ష": 4551,
      "▁దేశాలలో": 4552,
      "▁భాగ": 4553,
      "▁सिंं": 4554,
      "▁जिन": 4555,
      "▁కూడిన": 4556,
      "టుంబ": 4557,
      "ణాసియా": 4558,
      "▁నిర్": 4559,
      "▁నిర్వహ": 4560,
      "www.cia": 4561,
      "▁डॉल": 4562,
      "▁దక్షిణ": 4563,
      "▁भूमिका": 4564,
      "▁రైళ్ల": 4565,
      "national-language": 4566,
      "%E0%A4%B": 4567,
      "▁धी": 4568,
      "▁धार्म": 4569,
      "▁अनुमान": 4570,
      "గువ": 4571,
      "ंडिया": 4572,
      "ल्लीी": 4573,
      "▁किन्तु": 4574,
      "▁मन'": 4575,
      "▁This": 4576,
      "▁छा": 4577,
      "▁Asia:": 4578,
      "\nప్రభు": 4579,
      "▁మార్గా": 4580,
      "డ్డు": 4581,
      "ష్ణ": 4582,
      "▁प्रतिष्ठ": 4583,
      "▁కోర్": 4584,
      "▁హిందీ": 4585,
      "arliest": 4586,
      "▁2016.\n": 4587,
      "▁పాక్": 4588,
      "▁చెయ్యబడింది.\n": 4589,
      "ణిజ్య": 4590,
      "▁घोष": 4591,
      "▁కేవలం": 4592,
      "▁ప్రపంచంలో": 4593,
      "▁ప్రాంంతాలు": 4594,
      "म्बई,": 4595,
      "ib.nic.in/newsit": 4596,
      "\nచె": 4597,
      "ాస్వామ్య": 4598,
      "▁term": 4599,
      ".cms)": 4600,
      "▁వచ్చిన": 4601,
      "▁ప్రధానమంత్ర": 4602,
      "ాత్రం": 4603,
      "▁భారతదేశానికి": 4604,
      "▁जिसके": 4605,
      "चित्र": 4606,
      "▁प्रधानमंत्री": 4607,
      "వీప": 4608,
      "ిమాలయ": 4609,
      "▁పుట్ట": 4610,
      "▁రాజ్యాలు": 4611,
      "-of-india-": 4612,
      "ोडो": 4613,
      ",NGD": 4614,
      "ెలవు": 4615,
      "▁York": 4616,
      "▁పరంగా": 4617,
      "▁కార్య": 4618,
      "▁కలిగి": 4619,
      "▁उत्प": 4620,
      "▁మొదటి": 4621,
      "business-": 4622,
      "▁(https://doi.org/10.10": 4623,
      "%7C": 4624,
      "▁డాల": 4625,
      "▁కాలంలో": 4626,
      "राजधानी\n": 4627,
      "▁ప్రదేశ్\n": 4628,
      "ालाँकि": 4629,
      "थियार": 4630,
      "▁अफग": 4631,
      "▁विद्यमान": 4632,
      "विद्यालय": 4633,
      "▁ఎక్కువగా": 4634,
      "▁स्वतंत्रता": 4635,
      "echnolog": 4636,
      "garh": 4637,
      "▁पार्टी": 4638,
      "know": 4639,
      "relid=": 4640,
      "హిందూ": 4641,
      "▁గాంధీ": 4642,
      "▁ప్రకారం": 4643,
      "▁ప్రస్తుతం": 4644,
      "▁అనేక": 4645,
      "▁బ్రిటి": 4646,
      "▁కాంగ్రెసు": 4647,
      "▁కాశ్మీ": 4648,
      "▁పాకిస్థాన్": 4649,
      "=1&s": 4650,
      "▁जनगणना": 4651,
      "nclm.nic.in/shared/linkimages/NCLM": 4652,
      "▁began": 4653,
      "ault/files/": 4654,
      "ొదటి": 4655,
      "▁यूनिव": 4656,
      "▁గణతంత్ర": 4657,
      "ావరణం": 4658,
      "▁వెబ్సై": 4659,
      "▁status": 4660,
      "lease.aspx?": 4661,
      "▁गठबंधन": 4662,
      "▁(https://books.google.com/books?id=ZvaGuaJI": 4663,
      ".పూ.": 4664,
      "तान्त्रि\nक": 4665,
      "्यान्म": 4666,
      "▁सितंबर": 4667,
      "▁प्लेेट": 4668,
      "▁ज्ञाा": 4669,
      "▁సర్వీ": 4670,
      "▁జమ్మూ": 4671,
      "▁జంతువు": 4672,
      "▁తెలుగు": 4673,
      "రాస్యత": 4674,
      "▁डॉलर": 4675,
      "lease.aspx?relid=": 4676,
      "\n8": 4677,
      "\nR": 4678,
      "\nराज": 4679,
      "\n28": 4680,
      ".uk": 4681,
      "/s": 4682,
      "/201": 4683,
      "/india/": 4684,
      "05": 4685,
      "1–": 4686,
      "55": 4687,
      "81": 4688,
      "8f": 4689,
      "978": 4690,
      "ES": 4691,
      "LA": 4692,
      "[15": 4693,
      "ao": 4694,
      "cbi": 4695,
      "de/": 4696,
      "from": 4697,
      "ha": 4698,
      "ie": 4699,
      "if": 4700,
      "ific": 4701,
      "jang": 4702,
      "lish": 4703,
      "ned": 4704,
      "red": 4705,
      "rough": 4706,
      "ross": 4707,
      "उर्दू": 4708,
      "चीन": 4709,
      "णाली": 4710,
      "ती\n": 4711,
      "लित": 4712,
      "सूच": 4713,
      "हु": 4714,
      "हित": 4715,
      "िख": 4716,
      "िर": 4717,
      "१८": 4718,
      "▁३": 4719,
      "▁54": 4720,
      "▁urban": 4721,
      "्री": 4722,
      "2022": 4723,
      "▁सां": 4724,
      "eric": 4725,
      "ars": 4726,
      "▁them": 4727,
      "राबाद": 4728,
      "ed,": 4729,
      "omas": 4730,
      "ating": 4731,
      "atab": 4732,
      "▁(http\ns://": 4733,
      "▁वा": 4734,
      "▁जैन": 4735,
      "▁ता": 4736,
      "region": 4737,
      "ww\nw": 4738,
      "▁in\n": 4739,
      "▁2015": 4740,
      "▁2014.": 4741,
      "▁2011.": 4742,
      "▁2012.": 4743,
      "▁2015.\n": 4744,
      "▁found": 4745,
      "itary": 4746,
      "▁S.": 4747,
      "▁country": 4748,
      "▁Pers": 4749,
      "ालै": 4750,
      "▁western": 4751,
      "▁Tr": 4752,
      "▁आग": 4753,
      "▁\"E": 4754,
      "▁\"In": 4755,
      ")\n•": 4756,
      "am,": 4757,
      "▁music": 4758,
      "ident": 4759,
      "▁Report": 4760,
      "ular": 4761,
      "ता,": 4762,
      "006": 4763,
      "▁Bl": 4764,
      "▁उभ": 4765,
      "rah": 4766,
      "ility": 4767,
      "▁2008,": 4768,
      "▁last": 4769,
      "▁his": 4770,
      "▁hous": 4771,
      "▁H.": 4772,
      "▁N.": 4773,
      "▁non-": 4774,
      "▁On": 4775,
      "epart": 4776,
      "ocal": 4777,
      "गरिक": 4778,
      "ण्डल": 4779,
      ".nih": 4780,
      "▁general": 4781,
      "app": 4782,
      "▁2011\"": 4783,
      "16.": 4784,
      "स्कृतिक": 4785,
      "exp": 4786,
      "▁Retrieved\n": 4787,
      "ourc": 4788,
      "▁राज्यसभा": 4789,
      "articleshow/": 4790,
      "▁rule": 4791,
      "▁निम्": 4792,
      "times.indiatimes.com/": 4793,
      "efence": 4794,
      "2\n0": 4795,
      "obb": 4796,
      "▁along": 4797,
      "▁अनुसूच": 4798,
      "qual": 4799,
      "भ्यता": 4800,
      "▁2010.\n": 4801,
      ".html).": 4802,
      "...]": 4803,
      "▁lead": 4804,
      "▁Indo-": 4805,
      "\nहिन्दी\n": 4806,
      "▁contr": 4807,
      "▁विकस": 4808,
      "arliamentofindia": 4809,
      "ociet": 4810,
      "▁human": 4811,
      "▁election": 4812,
      "▁विस्तार": 4813,
      "ehru": 4814,
      "ssam": 4815,
      "▁doi:10.": 4816,
      "▁Michael": 4817,
      "troduction": 4818,
      "default/files/": 4819,
      "▁Informatic": 4820,
      "sites/default/files/": 4821,
      "▁कृषि": 4822,
      "urvey": 4823,
      "cbi.n": 4824,
      "\nG": 4825,
      "\n10": 4826,
      "\n0%": 4827,
      "\n.in": 4828,
      "\n4%": 4829,
      "\nमुख्य": 4830,
      "\nत्रि": 4831,
      "&ol": 4832,
      "(१९": 4833,
      "-ब": 4834,
      "-म": 4835,
      "-and": 4836,
      "-भू": 4837,
      "-pr": 4838,
      ".मी2": 4839,
      "/\n": 4840,
      "/l": 4841,
      "01": 4842,
      "1%20": 4843,
      "2%E0%A4%": 4844,
      "31": 4845,
      "64": 4846,
      "6%e0%a4%b": 4847,
      "7%e0%a4%": 4848,
      "A/A": 4849,
      "BC": 4850,
      "B%E0%A4%B": 4851,
      "C+": 4852,
      "D:": 4853,
      "E%E0%A": 4854,
      "IA": 4855,
      "II": 4856,
      "LS": 4857,
      "MDD": 4858,
      "QAAQBAJ&pg=PA": 4859,
      "Re": 4860,
      "R)\n": 4861,
      "Tabl": 4862,
      "W00": 4863,
      "XLS": 4864,
      "[३": 4865,
      "a4%": 4866,
      "a4/": 4867,
      "b\n": 4868,
      "c.": 4869,
      "ced": 4870,
      "e%e0%a4%b": 4871,
      "f%e0%a4%": 4872,
      "jana-": 4873,
      "ket": 4874,
      "mit": 4875,
      "most": 4876,
      "oes": 4877,
      "oad": 4878,
      "pdf": 4879,
      "s18": 4880,
      "ually": 4881,
      "ंद": 4882,
      "ंब": 4883,
      "ंदि": 4884,
      "असमिया": 4885,
      "एषः": 4886,
      "कक": 4887,
      "कत्व": 4888,
      "ख्रिस्त": 4889,
      "घ्र": 4890,
      "चरण": 4891,
      "जर्": 4892,
      "जितः": 4893,
      "ट,": 4894,
      "टि": 4895,
      "ठय": 4896,
      "डिश": 4897,
      "तम्": 4898,
      "तखण्ड": 4899,
      "दः": 4900,
      "दम्": 4901,
      "दी\n": 4902,
      "दधिक": 4903,
      "धौ": 4904,
      "नः": 4905,
      "पः\n": 4906,
      "ब्र": 4907,
      "बद्ध": 4908,
      "ब्रह": 4909,
      "भृत": 4910,
      "मै": 4911,
      "मरी": 4912,
      "मः)\n": 4913,
      "मिति": 4914,
      "यम्": 4915,
      "यन्त": 4916,
      "यश्च": 4917,
      "यः,": 4918,
      "लमहा": 4919,
      "लि\nम": 4920,
      "लङ्गा": 4921,
      "ळि": 4922,
      "वः\n": 4923,
      "वर्येण": 4924,
      "शोध": 4925,
      "शयम्": 4926,
      "षयाः": 4927,
      "षितं": 4928,
      "सके": 4929,
      "सप्त": 4930,
      "सम्प": 4931,
      "सन्तः": 4932,
      "हली": 4933,
      "हितं": 4934,
      "हिता": 4935,
      "हवेली": 4936,
      "ऽपि": 4937,
      "ा.": 4938,
      "ाटक": 4939,
      "ात्मक": 4940,
      "िं": 4941,
      "िमे": 4942,
      "िखित": 4943,
      "िट,": 4944,
      "ीन्": 4945,
      "ूरु": 4946,
      "ृक्ष": 4947,
      "े\n": 4948,
      "ेत": 4949,
      "ैः": 4950,
      "ैली": 4951,
      "ोसफ": 4952,
      "ौर": 4953,
      "्मा": 4954,
      "१]": 4955,
      "१तम": 4956,
      "२७": 4957,
      "४८": 4958,
      "′′": 4959,
      "₹)": 4960,
      "▁z": 4961,
      "▁ष": 4962,
      "▁॥": 4963,
      "▁web": 4964,
      "▁op": 4965,
      "▁50": 4966,
      "▁ठा": 4967,
      "anthem": 4968,
      "▁कह": 4969,
      "▁कति": 4970,
      "▁कश्मीर": 4971,
      "्यते": 4972,
      "▁सः": 4973,
      "▁सन्त": 4974,
      "▁समुद्र": 4975,
      "▁सम्प्रदा": 4976,
      "▁(2": 4977,
      "▁(J": 4978,
      "▁(IN": 4979,
      "▁(b)": 4980,
      "▁(₹)": 4981,
      "aries": 4982,
      "dist": 4983,
      "ties": 4984,
      "enumeration": 4985,
      "▁पत्": 4986,
      "▁पश्च": 4987,
      "▁पहा": 4988,
      "▁पथमे": 4989,
      "▁मस्": 4990,
      "▁मील": 4991,
      "▁मणिपुर": 4992,
      "▁मयूर": 4993,
      "▁मालाद्वीपः": 4994,
      "ानः": 4995,
      "ानाम": 4996,
      "राणि": 4997,
      "▁अतः": 4998,
      "▁अकर": 4999,
      "▁अप्रैल": 5000,
      "म्:": 5001,
      "म्स्य": 5002,
      ".\nA": 5003,
      "र्गे": 5004,
      "र्सि": 5005,
      "▁2024.": 5006,
      "▁हालाँकि": 5007,
      "▁हथियार": 5008,
      "▁1.": 5009,
      "▁pur": 5010,
      "▁people": 5011,
      "िकलमहा": 5012,
      "▁जी": 5013,
      "▁जिन्": 5014,
      "▁जार्": 5015,
      "▁दर्": 5016,
      "▁तृत": 5017,
      "▁तच्च": 5018,
      "▁त्रि": 5019,
      "▁तमिल": 5020,
      "यायां": 5021,
      "▁केचन": 5022,
      "▁भारते": 5023,
      "▁भारतम्\n": 5024,
      "▁भारतदेशस्य": 5025,
      "▁नील": 5026,
      "▁(https://\n": 5027,
      "▁(https://p": 5028,
      "▁(https://sa.wikipedia.org/w/index.php?title=": 5029,
      "▁set": 5030,
      "▁serv": 5031,
      "ivil": 5032,
      "स्याः": 5033,
      "्वाान": 5034,
      "्वेत": 5035,
      "▁बद": 5036,
      "▁ब्र": 5037,
      "▁बने": 5038,
      "▁बड़ाा": 5039,
      "▁प्रजा": 5040,
      "▁प्रथमे": 5041,
      "▁tem": 5042,
      "▁tril": 5043,
      "▁fig": 5044,
      "िताः": 5045,
      "ितीये": 5046,
      "▁Cather": 5047,
      "▁SI": 5048,
      "▁Sik": 5049,
      "▁caus": 5050,
      "स्मि\nन्": 5051,
      "स्लि\nम": 5052,
      "▁Pub": 5053,
      "▁People": 5054,
      "ीयते": 5055,
      "▁आप": 5056,
      "▁आयः\n": 5057,
      "▁आचार": 5058,
      "▁आंग्ल": 5059,
      "▁आचरण": 5060,
      "etr": 5061,
      "ासे": 5062,
      "नामा": 5063,
      "नाधिकार": 5064,
      "नामिका": 5065,
      "▁\"L": 5066,
      "▁\"World": 5067,
      "न्ते।": 5068,
      "न्तरं": 5069,
      "▁गंगा": 5070,
      "▁ग्रन्": 5071,
      "▁गीयते": 5072,
      ")\n२०२": 5073,
      "▁च\n": 5074,
      "▁च।": 5075,
      "▁च\nराज्य": 5076,
      "▁चतु": 5077,
      "▁चीना": 5078,
      ".org/World": 5079,
      "▁सेवा": 5080,
      "▁made": 5081,
      "ः\nउ": 5082,
      "ः\n१": 5083,
      "ः\nभारतस्य": 5084,
      "0%20": 5085,
      "ी\n३": 5086,
      "▁Republic": 5087,
      "देशयोः": 5088,
      "ताधिक": 5089,
      "▁विहितं": 5090,
      "▁इण्डोनेश": 5091,
      "▁इंडिया": 5092,
      "म्\nमु": 5093,
      "स्तके": 5094,
      "त्राः": 5095,
      "▁एताः": 5096,
      "▁एच्": 5097,
      "▁Br": 5098,
      "भारतीय": 5099,
      "भारतगण": 5100,
      "विंश": 5101,
      "▁उद्": 5102,
      "▁उद्योग": 5103,
      "▁उषितं": 5104,
      "▁शहर": 5105,
      "▁श्याम": 5106,
      "▁श्वेत": 5107,
      "माञ्च": 5108,
      "मााक": 5109,
      "stand": 5110,
      "क्षी": 5111,
      "▁2009": 5112,
      "▁2001,": 5113,
      "▁lists": 5114,
      "र्वन्ति": 5115,
      "▁की।": 5116,
      "▁लक्षद्वीप": 5117,
      "ि\nताः": 5118,
      "ly,": 5119,
      "ादयः": 5120,
      "ादकत्व": 5121,
      "षां": 5122,
      "राष्ट्रगीत": 5123,
      "▁John": 5124,
      "▁रक्त": 5125,
      "▁रचित": 5126,
      "▁यश्च": 5127,
      "▁यवन": 5128,
      "▁येषु": 5129,
      "▁यूर": 5130,
      "ad%e0%a4%b": 5131,
      "पुस्तके": 5132,
      "▁only": 5133,
      "Ind": 5134,
      "नेषु": 5135,
      "नेहरु": 5136,
      "संयो": 5137,
      "संशोध": 5138,
      "संहिता": 5139,
      "मेः": 5140,
      "मेण्ट": 5141,
      "▁देशस्य": 5142,
      "▁देशाः\n": 5143,
      "imf": 5144,
      "तेषु": 5145,
      "तेषां": 5146,
      "ङ्गल": 5147,
      "ङ्ग्ला": 5148,
      "▁remain": 5149,
      "▁परंपरा": 5150,
      "e0%a5%8": 5151,
      "लेन": 5152,
      "ण्ठय": 5153,
      "▁।\nसंविधान": 5154,
      "▁।\nफे": 5155,
      "▁।\nख्रिस्त": 5156,
      "िमपङ्": 5157,
      "ल्स": 5158,
      "ote:": 5159,
      "][3": 5160,
      "▁राष्ट्रस्य": 5161,
      "▁राष्ट्रिय": 5162,
      "गरिट,": 5163,
      "▁भारतीये": 5164,
      "▁भारतीयसंस्कृत": 5165,
      "▁भारतीयार्थ": 5166,
      "ियन": 5167,
      "▁हिन्दूदू": 5168,
      "▁कर्तु": 5169,
      "मिनि": 5170,
      "वाँ": 5171,
      "सेषु": 5172,
      "सेण्ट": 5173,
      "्येन": 5174,
      "\nभारतस्य": 5175,
      ".net": 5176,
      "▁gre": 5177,
      "ake": 5178,
      "धर्मः": 5179,
      "मानव": 5180,
      "▁जननी": 5181,
      "प्रदेशे": 5182,
      "प्रदेशस्य": 5183,
      "▁भाषायाः\n": 5184,
      "किःः": 5185,
      "किस्थाान": 5186,
      "▁दिनेषु": 5187,
      "▁the\nC": 5188,
      "क्तं": 5189,
      "क्तयः": 5190,
      "%e0%a4%ad%e0%a4%b": 5191,
      "ाायन": 5192,
      "▁मूलतः": 5193,
      "▁31": 5194,
      "▁सायं": 5195,
      "▁(https://web.archive.org/web/20110": 5196,
      "▁राज्यानां": 5197,
      "709": 5198,
      "रुजनप": 5199,
      "र्णम्": 5200,
      "र्णाटक": 5201,
      "\nसर्वकार": 5202,
      "जनं": 5203,
      "▁अभिगमन\nति": 5204,
      "समृद्ध": 5205,
      "▁राजानः": 5206,
      "▁स्थितः": 5207,
      "▁निर्": 5208,
      "▁'जय": 5209,
      "▁'तत्त्व": 5210,
      "▁'रवीन्द्र": 5211,
      "▁'नामिका": 5212,
      "▁स्वातन्त्र्य": 5213,
      "▁स्वपुस्तके": 5214,
      "▁गीतवान्": 5215,
      "▁V.": 5216,
      "▁अस्ति।": 5217,
      "▁अस्ति’": 5218,
      "▁भारतस्य\n": 5219,
      "▁77°": 5220,
      "others": 5221,
      "भाषा\n": 5222,
      "भाषाणां": 5223,
      "भाषाः\n१": 5224,
      "▁महता": 5225,
      "%202-": 5226,
      "▁पूर्वं": 5227,
      "▁पूर्वदि": 5228,
      "▁१९८": 5229,
      "रेजि": 5230,
      "▁हिन्दी\n४": 5231,
      "▁हिन्दी\n६": 5232,
      "▁शासनं": 5233,
      "▁शासनम्\n": 5234,
      "▁शासनार्थ": 5235,
      "महाराज्य": 5236,
      "महाद्वीप": 5237,
      "महासागर": 5238,
      "महोद": 5239,
      "महाद्वीीप": 5240,
      "▁मागरिट,": 5241,
      "▁मुन": 5242,
      "%e0%a4%b6%e0%a4%b": 5243,
      "१९तमे": 5244,
      "▁सर्वसमा": 5245,
      "▁सर्वोच्च": 5246,
      "▁अगस्ट": 5247,
      "युतः": 5248,
      "▁संस्कृतं": 5249,
      "▁संस्कृतम्,": 5250,
      "▁prov": 5251,
      "-mana-": 5252,
      "▁राम": 5253,
      "▁of\nthe": 5254,
      "▁of\nIndia": 5255,
      "e/%e0%a4%ad%e0%a4%b": 5256,
      "\nआन्ध्र": 5257,
      "▁डा.": 5258,
      "▁भूमेः": 5259,
      "करण": 5260,
      "▁द्वेे": 5261,
      "▁द्वितीये": 5262,
      "ूची\n": 5263,
      "▁वर्तमान": 5264,
      "▁वर्तन्ते": 5265,
      "▁उत्तरदिशि": 5266,
      "थम्येन": 5267,
      "रूप्यक": 5268,
      "PPC": 5269,
      "स्थानं": 5270,
      "्रीीका": 5271,
      "▁प्रदेशान्,": 5272,
      "5%80%e0%a4%": 5273,
      "5%8D:": 5274,
      "▁कासिन्सवर्येण": 5275,
      "▁कासिन्सनामा": 5276,
      "▁केन्द्रशासितप्रदेशाः": 5277,
      "ष्ठसदन": 5278,
      "ल्लयां": 5279,
      "ल्लिखित": 5280,
      "शासिता": 5281,
      "जीयायां": 5282,
      "११तमे": 5283,
      "\nभारतीयरूप्यक": 5284,
      "न्नै": 5285,
      "▁बाङ्ग्ला": 5286,
      "▁बहुमत": 5287,
      "95%E0%A4%A": 5288,
      "95%e0%a5%8": 5289,
      "4-7": 5290,
      "काशितम्": 5291,
      "content": 5292,
      "तमेन": 5293,
      "यः\n(": 5294,
      "▁तस्याः": 5295,
      "▁Thomas": 5296,
      "प्रादेशिक": 5297,
      "प्राथम्येन": 5298,
      "/population_": 5299,
      "49857": 5300,
      "▁तेषु": 5301,
      "▁तेलुगु": 5302,
      "▁देहली": 5303,
      "\nलदाख": 5304,
      "ought": 5305,
      "▁addition": 5306,
      "क्रीडा": 5307,
      "ethn": 5308,
      "ank.org/": 5309,
      "▁अन्तिमपङ्": 5310,
      "तमः": 5311,
      ".html)\n": 5312,
      "ान्ताल": 5313,
      "▁राष्ट्रपत": 5314,
      "▁Century": 5315,
      "वादः": 5316,
      "▁मानव": 5317,
      "▁अपने": 5318,
      "▁अपनी": 5319,
      "गीतस्य": 5320,
      "ोरमहोद": 5321,
      "▁century": 5322,
      "▁स्सन्तः": 5323,
      "▁अवधौ": 5324,
      "▁दोनों": 5325,
      "▁तुर्": 5326,
      "▁ऐकक": 5327,
      "▁ऐदम्": 5328,
      "▁right": 5329,
      "▁एतत्": 5330,
      "▁एतद्": 5331,
      "▁1962": 5332,
      "▁युद्ध": 5333,
      "दुर्गे": 5334,
      "वर्षेभ्यः": 5335,
      "ध्येयवाक्य": 5336,
      "ानाम्": 5337,
      "▁2020.": 5338,
      "▁पर्वतान्,": 5339,
      "ज्ञाानं": 5340,
      "जिदः": 5341,
      "▁कृतः": 5342,
      "▁कृतवान्": 5343,
      "0%e0%a5%80%e0%a4%": 5344,
      "पुरम्\nम": 5345,
      "नाथठागोरमहोद": 5346,
      "\nतमिळ्": 5347,
      "af/%e0%a4%": 5348,
      "ोपसागर": 5349,
      "नवदशशत": 5350,
      "हिन्दी\n": 5351,
      "▁प्रथमः": 5352,
      "▁प्रथमवार": 5353,
      "ोड्ड": 5354,
      "ल्लीम्": 5355,
      "समाजीयायां": 5356,
      "२,८": 5357,
      "▁Short": 5358,
      "%E0%A4%AB%E0%A4%B": 5359,
      "ध्वजः\n": 5360,
      "र्शिकवि": 5361,
      "1/DD": 5362,
      "महाशयम्": 5363,
      "▁अस्मााक": 5364,
      "नगरम्\n": 5365,
      "वरीमासस्य": 5366,
      "शाखा": 5367,
      ".com/news/india/": 5368,
      "ी\nमलयाळम्\n": 5369,
      "▁५०००": 5370,
      "PCA/A": 5371,
      "१,०": 5372,
      "▁विभिन्ना": 5373,
      "क्षेत्रा": 5374,
      "म्मूकाश्मीर": 5375,
      "थियोसफ": 5376,
      "्यन्ते।": 5377,
      "ानुवादः": 5378,
      "▁अफ्रीीका": 5379,
      "▁जगति": 5380,
      "▁जगतः": 5381,
      "▁विद्यते": 5382,
      "▁विविधाः": 5383,
      "▁स्थानमस्ति": 5384,
      "देहली\n": 5385,
      "▁सदनं": 5386,
      "▁नगरहवेली": 5387,
      "▁अनेकानि": 5388,
      "\nजनसङ्ख्या": 5389,
      "/%e0%a4%95%e0%a5%8": 5390,
      "C-01%20": 5391,
      "C-01/DD": 5392,
      "न्याया": 5393,
      "सर्वकारः,": 5394,
      "▁कविमहाशयम्": 5395,
      "▁(1,269,": 5396,
      "्तुरुजनप": 5397,
      "▁हे’": 5398,
      "▁आहत्य\n": 5399,
      "▁आह्वाान": 5400,
      "▁आगतम्": 5401,
      "▁आगतवान्": 5402,
      "▁विधानानि": 5403,
      "ङ्कण": 5404,
      "▁इदं": 5405,
      "▁।\n१९११तमे": 5406,
      "▁भागे,": 5407,
      "%e0%a5%87%e0%a4%": 5408,
      "द्योगिक": 5409,
      "▁अगायत": 5410,
      "▁अगायन्": 5411,
      "▁रागः": 5412,
      "▁रागसंयो": 5413,
      "▁प्राचार्यस्य": 5414,
      "▁पत्रिकायाः": 5415,
      "▁पत्रिकायां": 5416,
      "▁हिन्दुमहासागर": 5417,
      "ublications/": 5418,
      "rief-on-": 5419,
      "▁Affairs": 5420,
      "▁Data.": 5421,
      "-2_D": 5422,
      "ildli": 5423,
      "पुत्रेण": 5424,
      "▁विशालाः": 5425,
      "▁स्वतन्त्रः": 5426,
      "▁ब्रह्मदेश": 5427,
      "S.XLS": 5428,
      "ynth": 5429,
      "▁सम्पादकत्व": 5430,
      "▁शुरू": 5431,
      "▁(म्यान्म": 5432,
      "ountries/": 5433,
      "▁ऋषयः": 5434,
      "गुजराती\n": 5435,
      "▁इस्लाम": 5436,
      "िक्किम": 5437,
      "पयानि": 5438,
      "▁मदनपल्लीम्": 5439,
      "▁तदनु": 5440,
      "▁नद्यः": 5441,
      "▁TLD\n.in": 5442,
      "▁संयोजितः": 5443,
      "rajbhasha": 5444,
      "राष्ट्रीयः": 5445,
      "▁राष्ट्रध्वजोड्ड": 5446,
      "ण्डमाननिकोबारद्वीप": 5447,
      "287,263": 5448,
      "▁लिखितम्": 5449,
      "▁कार्यकारिणी,": 5450,
      "दुच्चेेर": 5451,
      "▁नाम्ना": 5452,
      "\nचण्डीगढ\nपञ्जााबी,": 5453,
      "▁क्रिस्ताब्दे": 5454,
      "विस्तीर्णम्\n": 5455,
      "▁अहिं": 5456,
      "▁प्रत्येकस्य": 5457,
      "▁आसन्": 5458,
      "▁गानं": 5459,
      "▁चित्तुरुजनप": 5460,
      "▁दिवसेषु": 5461,
      "ौहार्देन": 5462,
      "oz.org/World": 5463,
      "did=": 5464,
      "▁Monetary": 5465,
      "\"\n(https://": 5466,
      "/Hindi/%e0%a4%95%e0%a5%8": 5467,
      "बोधप्रकाश": 5468,
      "▁Quote:": 5469,
      "▁(संस्कृतम्)\n": 5470,
      "▁नदीः": 5471,
      "▁प्रेस,": 5472,
      "▁प्रमाणेन": 5473,
      "ी\nतमिळ्": 5474,
      "▁विदेशी": 5475,
      "▁रचितं": 5476,
      "es/00%20": 5477,
      "▁वर्षाणि": 5478,
      "▁न्यायालय": 5479,
      "dmoz.org/World": 5480,
      "\nनेपाली\n": 5481,
      "a-brief-on-": 5482,
      "lm.nih": 5483,
      "सभानाम": 5484,
      "▁(%)\n": 5485,
      "▁पार्थयन्त": 5486,
      "▁जेम्स": 5487,
      "▁आरब्ध": 5488,
      "ी\nकोङ्कण": 5489,
      "▁रोमाञ्च": 5490,
      "▁धीरे": 5491,
      "▁अनुमानम्स्य": 5492,
      "▁छात्राः": 5493,
      "▁प्रतिष्ठेे": 5494,
      "-of-india-a-brief-on-": 5495,
      "विद्यालयस्य": 5496,
      "▁यूनिवर्सि": 5497,
      "8f%e0%a4%b6%e0%a4%b": 5498,
      "▁Informatics": 5499,
      "cbi.nlm.nih": 5500,
      "&oldid=": 5501,
      "2%E0%A4%95%E0%A4%A": 5502,
      "E%E0%A5%8D:": 5503,
      "MDDS.XLS": 5504,
      "Tables/00%20": 5505,
      "W00C-01%20": 5506,
      "[३]": 5507,
      "a4%e0%a5%8": 5508,
      "a4/)": 5509,
      "f%e0%a4%af": 5510,
      "jana-g": 5511,
      "s18.com/news/india/": 5512,
      "दधिकनवदशशत": 5513,
      "ब्रवरीमासस्य": 5514,
      "▁ठाकु": 5515,
      "anthem-of-india-a-brief-on-": 5516,
      "▁कतिपयानि": 5517,
      "▁(INR)\n": 5518,
      "▁पत्नी": 5519,
      "▁पश्चिमे": 5520,
      "▁मस्जिदः": 5521,
      "▁अकरोत्": 5522,
      "िकलमहाविद्यालयस्य": 5523,
      "▁(https://sa.wikipedia.org/w/index.php?title=%E0%A4%AB%E0%A4%B": 5524,
      "▁trillion": 5525,
      "▁Catherine": 5526,
      "▁Publish": 5527,
      "▁आयः\n$": 5528,
      "▁आंग्लानुवादः": 5529,
      "▁आचरणानि,": 5530,
      "▁ग्रन्थ": 5531,
      ")\n२०२४": 5532,
      "▁चीनादेशः": 5533,
      "ताधिकाः": 5534,
      "▁इण्डोनेशिया": 5535,
      "▁एच्.": 5536,
      "विंशतिःः": 5537,
      "▁उद्ग": 5538,
      "▁रक्तदुर्गे": 5539,
      "मेण्ट्": 5540,
      "ण्ठयेन": 5541,
      "▁।\nफेब्रवरीमासस्य": 5542,
      "▁।\nख्रिस्तपूर्व": 5543,
      "▁भारतीयार्थव्यवस्था": 5544,
      "▁कर्तुं": 5545,
      "सेण्टथियोसफ": 5546,
      "ाायनम्": 5547,
      "▁अभिगमन\nतिथि:": 5548,
      "▁'तत्त्वबोधप्रकाश": 5549,
      "▁'रवीन्द्रनाथठागोरमहोद": 5550,
      "▁'नामिकाया": 5551,
      "रेजिमेण्ट्": 5552,
      "महाद्वीपे": 5553,
      "▁सर्वसमायः\n(": 5554,
      "▁अगस्टमासस्य": 5555,
      "-mana-49857": 5556,
      "e/%e0%a4%ad%e0%a4%be%e0%a4%b": 5557,
      "ष्ठसदनम्\n": 5558,
      "ल्लिखितवान्": 5559,
      "/population_enumeration": 5560,
      "▁अन्तिमपङ्किःः": 5561,
      "▁अवधौ,": 5562,
      "▁ऐककण्ठयेन": 5563,
      "▁ऐदम्प्राथम्येन": 5564,
      "0%e0%a5%80%e0%a4%af/%e0%a4%": 5565,
      "▁प्रथमवारं": 5566,
      "र्शिकविःः": 5567,
      "▁अस्मााकं": 5568,
      "▁५०००वर्षेभ्यः": 5569,
      "PCA/A-2_D": 5570,
      "C-01/DDW00C-01%20": 5571,
      "▁आहत्य\n$": 5572,
      "▁आह्वाानेन": 5573,
      "%e0%a5%87%e0%a4%a4%e0%a5%8": 5574,
      "▁रागसंयोजनं": 5575,
      "▁सम्पादकत्वं": 5576,
      "▁(म्यान्मार्": 5577,
      "▁राष्ट्रध्वजोड्डाायनम्": 5578,
      "ण्डमाननिकोबारद्वीपसमूह": 5579,
      "▁चित्तुरुजनपदस्य": 5580,
      "/Hindi/%e0%a4%95%e0%a5%8d%e0%a4%b": 5581,
      "dmoz.org/World/Hindi/%e0%a4%95%e0%a5%8d%e0%a4%b": 5582,
      "▁रोमाञ्चि\nताः": 5583,
      "▁यूनिवर्सिटी": 5584,
      "8f%e0%a4%b6%e0%a4%bf%e0%a4%af": 5585,
      "2%E0%A4%95%E0%A4%AE%E0%A5%8D:": 5586,
      "anthem-of-india-a-brief-on-jana-g": 5587,
      "▁(https://sa.wikipedia.org/w/index.php?title=%E0%A4%AB%E0%A4%B2%E0%A4%95%E0%A4%AE%E0%A5%8D:": 5588,
      "सेण्टथियोसफिकलमहाविद्यालयस्य": 5589,
      "▁'तत्त्वबोधप्रकाशिका": 5590,
      "▁'रवीन्द्रनाथठागोरमहोदयः\n": 5591,
      "-mana-498576.": 5592,
      "0%e0%a5%80%e0%a4%af/%e0%a4%8f%e0%a4%b6%e0%a4%bf%e0%a4%af": 5593,
      "C-01/DDW00C-01%20MDDS.XLS": 5594,
      "%e0%a5%87%e0%a4%a4%e0%a5%8d%e0%a4%b": 5595,
      "\n0": 5596,
      "\nJ": 5597,
      "\nK": 5598,
      "\nO": 5599,
      "\nमि": 5600,
      "\n1.": 5601,
      "\nto": 5602,
      "\ng/": 5603,
      "-C": 5604,
      "-S": 5605,
      "-i": 5606,
      "-for": 5607,
      "/w": 5608,
      "/india": 5609,
      "1]\n": 5610,
      "123": 5611,
      "220": 5612,
      "2][": 5613,
      "3%": 5614,
      "5–": 5615,
      "511": 5616,
      "6/": 5617,
      "7]\n": 5618,
      "8%": 5619,
      "854": 5620,
      "9/http://": 5621,
      "AG": 5622,
      "CN": 5623,
      "N_": 5624,
      "RA": 5625,
      "Tim": 5626,
      "_N_": 5627,
      "bank.org/": 5628,
      "can": 5629,
      "cise": 5630,
      "day": 5631,
      "eat": 5632,
      "les/": 5633,
      "nus": 5634,
      "o_": 5635,
      "oon": 5636,
      "oid": 5637,
      "ption": 5638,
      "ration": 5639,
      "sa": 5640,
      "stitu": 5641,
      "ta": 5642,
      "tw": 5643,
      "u,": 5644,
      "ues": 5645,
      "uct": 5646,
      "ved": 5647,
      "yp": 5648,
      "खंड": 5649,
      "चि": 5650,
      "ड\n": 5651,
      "पिय": 5652,
      "रान": 5653,
      "शेष": 5654,
      "सरी": 5655,
      "सरे": 5656,
      "७७": 5657,
      "▁८": 5658,
      "▁economy": 5659,
      "anag": 5660,
      "though": 5661,
      "er.": 5662,
      "ors": 5663,
      "oral": 5664,
      "or\ng/": 5665,
      "▁(प": 5666,
      "ara": 5667,
      "arb": 5668,
      "alle": 5669,
      "▁through": 5670,
      "राय": 5671,
      "official": 5672,
      "▁हर": 5673,
      "▁वै": 5674,
      "▁(https://book": 5675,
      "▁sev": 5676,
      "▁sim": 5677,
      "▁str": 5678,
      "▁spec": 5679,
      "▁influ": 5680,
      "iving": 5681,
      "▁tex": 5682,
      "▁fam": 5683,
      "▁Col": 5684,
      "▁Science": 5685,
      "▁census": 5686,
      "▁Mana": 5687,
      "▁Muslim": 5688,
      "▁Tw": 5689,
      "▁Tamil": 5690,
      "eter": 5691,
      "2011-": 5692,
      "▁\"B": 5693,
      "▁गुजरात": 5694,
      ".org/en": 5695,
      "amm": 5696,
      "ided": 5697,
      "▁विज्ञाान": 5698,
      "स्ति\n": 5699,
      "▁B.": 5700,
      "ily": 5701,
      "क्षि": 5702,
      "]\n(": 5703,
      "1950": 5704,
      "▁2007,": 5705,
      "▁2007.\n": 5706,
      "istor": 5707,
      "▁her": 5708,
      "▁He": 5709,
      "▁Jain": 5710,
      "▁Nehru": 5711,
      "▁new": 5712,
      "23%": 5713,
      "▁Gana": 5714,
      "▁Gandhi": 5715,
      "uman": 5716,
      "gov.in/": 5717,
      "11.": 5718,
      "▁rel": 5719,
      "▁religion": 5720,
      "40.": 5721,
      "▁forest": 5722,
      "hip": 5723,
      "▁पुन": 5724,
      "ospect": 5725,
      "28.": 5726,
      "▁१०": 5727,
      ".gov.in.": 5728,
      "िका,": 5729,
      "▁gen": 5730,
      "ake-": 5731,
      "India.pdf)": 5732,
      "25.\n": 5733,
      "apit": 5734,
      "▁Kashmir": 5735,
      "exist": 5736,
      "7080": 5737,
      "904": 5738,
      "earning": 5739,
      "▁Chines": 5740,
      "▁rate": 5741,
      "news18.com/news/india/": 5742,
      "\nक्र": 5743,
      "ब्द": 5744,
      "ब्ब": 5745,
      "▁exp": 5746,
      "▁१९५०": 5747,
      "prov": 5748,
      "profile": 5749,
      "▁1994,": 5750,
      "ultural": 5751,
      "place": 5752,
      "ploy": 5753,
      "लुरु": 5754,
      "जीव": 5755,
      "▁लोकसभा": 5756,
      "469": 5757,
      "77_": 5758,
      "ternal": 5759,
      "प्राप्त": 5760,
      "▁२९": 5761,
      "▁subject": 5762,
      "▁Hinduism": 5763,
      "▁adop": 5764,
      "edium": 5765,
      "▁अन्तर्": 5766,
      "ैदिक": 5767,
      "ैदराबाद": 5768,
      "▁union": 5769,
      "▁left": 5770,
      "धिराज्य": 5771,
      "▁consid": 5772,
      "▁क्रय": 5773,
      "pecial": 5774,
      "arliamentary": 5775,
      "0:00\n0:00": 5776,
      "docs/": 5777,
      "▁ईसाई": 5778,
      "स्वरूप": 5779,
      "▁978-0-521-8090": 5780,
      "▁2022.\n": 5781,
      "hattis": 5782,
      "50thReport.pdf)": 5783,
      "ksai": 5784,
      "▁Dyson,": 5785,
      "▁Pakistan": 5786,
      "▁0:00\n/": 5787,
      "▁(htt\nps://": 5788,
      "geohack.php?": 5789,
      "owever,": 5790,
      "arams=": 5791,
      "▁Machin": 5792,
      "documents/": 5793,
      ".pdf)\n(PDF)": 5794,
      "reedom": 5795,
      "▁Mughal": 5796,
      "▁Himalay": 5797,
      ".uk/": 5798,
      "jangan": 5799,
      "▁सांस्कृतिक": 5800,
      "atabas": 5801,
      "epartment": 5802,
      "quality": 5803,
      "ynthia": 5804,
      "_N_77_": 5805,
      "\nI": 5806,
      "\nश": 5807,
      "\nబ": 5808,
      "\nదేశ": 5809,
      "\n200": 5810,
      "\n1,": 5811,
      "\nపా": 5812,
      "\nవే": 5813,
      ");": 5814,
      ",9": 5815,
      "-v": 5816,
      ".und": 5817,
      "/20": 5818,
      "/we": 5819,
      "226": 5820,
      "313": 5821,
      "4–": 5822,
      "51": 5823,
      "5.pdf)": 5824,
      "61": 5825,
      "66": 5826,
      "74": 5827,
      "9]\n": 5828,
      "=0&s": 5829,
      "Am": 5830,
      "En": 5831,
      "Government": 5832,
      "Gini": 5833,
      "JP": 5834,
      "S$": 5835,
      "WE": 5836,
      "ae": 5837,
      "dom": 5838,
      "eb": 5839,
      "h\nt": 5840,
      "ium": 5841,
      "mod": 5842,
      "rin": 5843,
      "rish": 5844,
      "ting": 5845,
      "ual": 5846,
      "vel": 5847,
      "y\n": 5848,
      "ya": 5849,
      "yle": 5850,
      "yam": 5851,
      "ंंग": 5852,
      "अभ": 5853,
      "भी": 5854,
      "म,": 5855,
      "वल": 5856,
      "शीन": 5857,
      "ीद": 5858,
      "ोढ़": 5859,
      "ोटे": 5860,
      "ఒక": 5861,
      "కా": 5862,
      "క్య": 5863,
      "గతి": 5864,
      "గష్ట": 5865,
      "చల్": 5866,
      "జె": 5867,
      "జాలు": 5868,
      "టే": 5869,
      "టై": 5870,
      "టంలో": 5871,
      "డిన": 5872,
      "తూ": 5873,
      "తాలు": 5874,
      "తరువాత": 5875,
      "దరణ": 5876,
      "నది": 5877,
      "నాల": 5878,
      "పై": 5879,
      "పో": 5880,
      "పెద్ద": 5881,
      "పిక్": 5882,
      "బంధ": 5883,
      "భ్య": 5884,
      "మూ": 5885,
      "మ్": 5886,
      "మాలు": 5887,
      "మాత": 5888,
      "మతి": 5889,
      "మారు": 5890,
      "మింంచ": 5891,
      "మొదటి": 5892,
      "యింది.": 5893,
      "రత": 5894,
      "రాలు": 5895,
      "రంగ": 5896,
      "లయా": 5897,
      "ళ్": 5898,
      "వం\n": 5899,
      "వ్యవస్థ": 5900,
      "శీ": 5901,
      "శాఖ": 5902,
      "సే": 5903,
      "సిం": 5904,
      "సులు": 5905,
      "ాదరణ": 5906,
      "ిజ": 5907,
      "ిస్త": 5908,
      "ీఠ": 5909,
      "ీర": 5910,
      "ీలు": 5911,
      "ీలో": 5912,
      "ుకొ": 5913,
      "ూరు": 5914,
      "ెహ": 5915,
      "ెనీ": 5916,
      "ే,": 5917,
      "ేష": 5918,
      "ొందిన": 5919,
      "ోత్స": 5920,
      "ౌగో": 5921,
      "▁దేశంలో": 5922,
      "▁ob": 5923,
      "▁टे": 5924,
      "▁old": 5925,
      "▁టె": 5926,
      "▁ఢిల్లీ": 5927,
      "▁టై": 5928,
      "▁कं": 5929,
      "▁सो": 5930,
      "er-": 5931,
      "eries": 5932,
      "ortheast": 5933,
      "▁(P": 5934,
      "▁(c": 5935,
      "▁(अ": 5936,
      "▁(ed.).": 5937,
      "▁(h\nt": 5938,
      "▁पी": 5939,
      "▁पंजाब": 5940,
      "▁मंत्र": 5941,
      "▁मशीन": 5942,
      "▁अब": 5943,
      "▁अलावा": 5944,
      "▁अमरी": 5945,
      "http://": 5946,
      "్రై": 5947,
      "ారక": 5948,
      "ారం\n": 5949,
      "▁పూ": 5950,
      "▁పర్వ": 5951,
      "▁పర్య": 5952,
      "▁పశ్చిమ": 5953,
      "▁పీఠ": 5954,
      "atter": 5955,
      "ched": 5956,
      "▁power": 5957,
      "▁वर्ण": 5958,
      "▁वीं": 5959,
      "rig": 5960,
      "▁जै": 5961,
      "▁जाना": 5962,
      "▁दृष्ट": 5963,
      "▁A.": 5964,
      "▁At": 5965,
      "▁के\n": 5966,
      "release.aspx?relid=": 5967,
      "▁(https://books.goo": 5968,
      "▁sour": 5969,
      "▁inter": 5970,
      "ick": 5971,
      "▁बड़ीी": 5972,
      "ustr": 5973,
      "▁में).": 5974,
      "▁far": 5975,
      "▁foll": 5976,
      "▁San": 5977,
      "▁Stu": 5978,
      "▁Spr": 5979,
      "▁can": 5980,
      "▁culture": 5981,
      "▁కథ": 5982,
      "▁కల": 5983,
      "▁కల్": 5984,
      "▁bel": 5985,
      "▁based": 5986,
      "▁Publication": 5987,
      "▁Policy": 5988,
      "▁Puran": 5989,
      "▁wide": 5990,
      "▁would": 5991,
      "ర్,": 5992,
      "ర్చ": 5993,
      "ర్త": 5994,
      "ర్ష": 5995,
      "ర్మే": 5996,
      "▁आक": 5997,
      "▁आव": 5998,
      "▁आया": 5999,
      "organ": 6000,
      "దేశీ": 6001,
      "▁ago": 6002,
      "▁app": 6003,
      "▁गति": 6004,
      "▁गां": 6005,
      ")\nభారత": 6006,
      ")\nజాతీయ": 6007,
      "▁మా": 6008,
      "▁మాత": 6009,
      "▁మంది": 6010,
      "▁మణి": 6011,
      "▁మాత్రం": 6012,
      "▁వల": 6013,
      "▁వాత": 6014,
      "▁వంట": 6015,
      "▁వంటి": 6016,
      "ాలనే": 6017,
      "ాలెండ": 6018,
      "108-": 6019,
      "భారతీయ": 6020,
      "భారతదేశంలో": 6021,
      "▁సి": 6022,
      "▁సార్": 6023,
      "▁సిక్": 6024,
      "▁సముద్ర": 6025,
      "ection": 6026,
      "▁\nజ": 6027,
      "▁\nహిందూ": 6028,
      "agw": 6029,
      "▁రే": 6030,
      "▁రకాల": 6031,
      "▁రూప": 6032,
      "ిక,": 6033,
      "▁Di": 6034,
      "▁Britannic": 6035,
      "▁BBC": 6036,
      "विज्ञाान": 6037,
      "▁ప్రారం": 6038,
      "▁शिक": 6039,
      "▁संग": 6040,
      "▁అవ": 6041,
      "▁అని": 6042,
      "▁అరు": 6043,
      "▁అమె": 6044,
      "ాతో": 6045,
      "ంంది.": 6046,
      "ినీ": 6047,
      "న్నాయి.": 6048,
      "న్నారు.": 6049,
      "▁largest": 6050,
      "▁history": 6051,
      "▁చాలా": 6052,
      "▁लाख": 6053,
      "క్టో": 6054,
      "క్నాల": 6055,
      "ि\nय": 6056,
      "▁Hindus": 6057,
      "217": 6058,
      "eval": 6059,
      ",\nS": 6060,
      ",\nISBN": 6061,
      "▁data": 6062,
      "▁develop": 6063,
      "▁ఉండ": 6064,
      ".[10": 6065,
      ".[16": 6066,
      "కులు": 6067,
      "రిస్త": 6068,
      "రిగిన": 6069,
      "adu": 6070,
      "-0.\n": 6071,
      "▁Ge": 6072,
      "नेमा": 6073,
      "id=203": 6074,
      "▁జరు": 6075,
      "ांति": 6076,
      "▁edition": 6077,
      "▁తన": 6078,
      "▁తి": 6079,
      "▁తలస": 6080,
      "▁पर्य": 6081,
      "4020": 6082,
      "▁న్యాయ": 6083,
      "berg": 6084,
      "▁ఇత": 6085,
      "▁ఇవ": 6086,
      "▁ఇవి": 6087,
      "▁ఇక్క": 6088,
      "ीतिक": 6089,
      "▁पुर": 6090,
      "వి.": 6091,
      "ముఖ్య": 6092,
      "ించి,": 6093,
      "ప్రదేశ": 6094,
      "osh": 6095,
      "osi": 6096,
      "▁अभी": 6097,
      "वायु": 6098,
      "▁బాంం": 6099,
      "▁బంగ్ల": 6100,
      "akes": 6101,
      "▁जनता": 6102,
      "254": 6103,
      "▁గ్ర": 6104,
      "\nభారతదేశంలోని": 6105,
      "▁दिल्लीी": 6106,
      "▁(https://web.archive.org/web/20130": 6107,
      "▁जाति": 6108,
      "ూడండి": 6109,
      "%E0%B": 6110,
      "%E0%B0%": 6111,
      "▁ఎన్ని": 6112,
      "▁disc": 6113,
      "▁సంఘ": 6114,
      "▁సంస్థ": 6115,
      "▁సంప్రదాయ": 6116,
      "బడత": 6117,
      "బడ్డ": 6118,
      "▁ఉన్నారు.": 6119,
      "ద్రా": 6120,
      "ాంంతాలు": 6121,
      "▁होते": 6122,
      "▁Vol": 6123,
      "చ్చే": 6124,
      "▁समर्थ": 6125,
      "▁समूह": 6126,
      "▁శాఖ": 6127,
      "▁రాజు": 6128,
      "\nకా": 6129,
      "\nకాల": 6130,
      "\nకూడ": 6131,
      "ట్టమొదటి": 6132,
      "లిచ": 6133,
      "▁१९६": 6134,
      "▁నుంచి": 6135,
      "pro": 6136,
      "▁దేశానికి": 6137,
      "indu.com/": 6138,
      "▁(2007).": 6139,
      "▁(2006),": 6140,
      "issing": 6141,
      "▁अधिकार": 6142,
      "▁And": 6143,
      "▁States": 6144,
      "పాదన": 6145,
      "▁ఆర్థిక": 6146,
      "ామాబా": 6147,
      "▁లోని": 6148,
      "▁produc": 6149,
      "▁మొట్టమొదటి": 6150,
      "▁kn": 6151,
      "e/hindi": 6152,
      "మైనది.": 6153,
      "▁స్థాయి": 6154,
      "ultan": 6155,
      "పాలన": 6156,
      "పాలించ": 6157,
      "ically": 6158,
      "DwAAQBAJ": 6159,
      "▁ముంబై": 6160,
      "ంబూ": 6161,
      "▁ఒకే": 6162,
      "\nविक": 6163,
      "क्ट": 6164,
      "क्सफ": 6165,
      "▁when": 6166,
      "\nపే": 6167,
      "▁స్వాతంత్ర్య": 6168,
      "ారిత్రక": 6169,
      "▁ప్రాంంతం": 6170,
      "edieval": 6171,
      "▁अन्तर": 6172,
      "డ్డ": 6173,
      "▁प्रतिशत": 6174,
      "▁కోట్ల": 6175,
      "క్షిణాసియా": 6176,
      "▁उपमहाद्वीीप": 6177,
      "olitic": 6178,
      "▁अपना": 6179,
      "\nవచ్చింంది.": 6180,
      "చేయ": 6181,
      "▁భూ": 6182,
      "▁కుటుంబ": 6183,
      "▁వ్యవస్థలో": 6184,
      "త్వంంలో": 6185,
      "aws": 6186,
      "▁News": 6187,
      "గరికత": 6188,
      "▁घा": 6189,
      "▁సాంప్రదాయ": 6190,
      "linkid=203": 6191,
      "ोर्ड": 6192,
      "illenn": 6193,
      "ँची": 6194,
      "index1.": 6195,
      "మేన": 6196,
      "ాకా": 6197,
      "ీనంలో": 6198,
      "▁పరిపాలన": 6199,
      "▁క్రీ.పూ.": 6200,
      "▁ప్రజల": 6201,
      "▁ప్రజలు": 6202,
      "▁చేయ": 6203,
      "▁చేసింది.": 6204,
      "▁है।\nमुख्य": 6205,
      "nclm.nic.in/index1.": 6206,
      "ोपीय": 6207,
      "tripur": 6208,
      "దాపు": 6209,
      "▁हिस्": 6210,
      "దినోత్స": 6211,
      "గా\nఉ": 6212,
      "క్కన": 6213,
      "\nభారతదేశపు": 6214,
      "\nहिन्दी": 6215,
      "▁రాజ్యాంం": 6216,
      "▁ऋतु": 6217,
      "▁हुआ।": 6218,
      "ాసన": 6219,
      "▁Asher,": 6220,
      "▁కలిసి": 6221,
      "▁స్థానంలో": 6222,
      "c=0&s": 6223,
      "fication": 6224,
      "▁जलोढ़": 6225,
      ".htm)": 6226,
      "/articleshow/54": 6227,
      "▁కొన్ని": 6228,
      "▁1947,": 6229,
      "▁रहे": 6230,
      "▁జనగణ": 6231,
      "వాతంత్ర్యంం": 6232,
      "www.censusindia.gov.in/2011census/population_enumeration": 6233,
      "y=are": 6234,
      "▁Americ": 6235,
      "▁बनाने": 6236,
      "\nहै।": 6237,
      "▁व्यवस्था": 6238,
      "ంస్కృతిక": 6239,
      "గణతంత్ర": 6240,
      "లతో,": 6241,
      "▁\nకేంద్ర": 6242,
      "▁ప్రభుత్వ": 6243,
      "▁ఆధార": 6244,
      "▁నేపాల": 6245,
      "▁లేని": 6246,
      "▁లేదా": 6247,
      "▁రాష్ట్రా\nల": 6248,
      "▁सहयोग": 6249,
      "▁विस्तृत": 6250,
      "▁Buddhist": 6251,
      "\nदिसम्बर": 6252,
      "▁2024.\n": 6253,
      "▁व्याप": 6254,
      "▁including": 6255,
      "▁स्थापना": 6256,
      "వచ్చు": 6257,
      "ుకోవడ": 6258,
      "ూర్తి": 6259,
      "ూర్పు": 6260,
      "▁పతకాలు": 6261,
      "▁వేల": 6262,
      "▁వేగంగా": 6263,
      "▁వ్యాప": 6264,
      "▁సామ్రాజ": 6265,
      "▁సినిమా": 6266,
      "▁సింధు": 6267,
      "▁రోడ్డు": 6268,
      "statoid": 6269,
      "▁ఆఫ్ఘ": 6270,
      "▁దాదాపు": 6271,
      "▁ముఖ్యమైన": 6272,
      "▁थी।": 6273,
      "ప్పటికీ,": 6274,
      "▁బహుళ": 6275,
      "britannica.com/place": 6276,
      "Archived": 6277,
      "▁See": 6278,
      "▁eastern": 6279,
      "ethnologue.com/15/": 6280,
      "\n3,287,263": 6281,
      "hdr.und": 6282,
      "ఆర్ధిక": 6283,
      "వెనుక": 6284,
      "▁ऑक्सफ": 6285,
      "▁పద్ధతి": 6286,
      "▁जबकि": 6287,
      "▁ప్రతిపాదన": 6288,
      "▁लगभग": 6289,
      "త్వాన్ని": 6290,
      "▁బెంగాలీ": 6291,
      "▁different": 6292,
      "▁మొదలైన": 6293,
      "▁ఇంగ్లీషు": 6294,
      "▁పరిశ్రమలు": 6295,
      "[18]": 6296,
      "ependence": 6297,
      "ribution.asp?": 6298,
      "business/business-": 6299,
      "www.censusindia.gov.in/2011census/PCA/A-2_D": 6300,
      "UTC+": 6301,
      "▁अंग्रेजी": 6302,
      "▁Encyclopedia": 6303,
      "ంజాబ": 6304,
      "ంపెనీ": 6305,
      "అధికార": 6306,
      "ట్రో": 6307,
      "వారా": 6308,
      "▁క్యాలెండ": 6309,
      "▁వారసత్వ": 6310,
      "▁సమాఖ్య": 6311,
      "▁రహదారులు,": 6312,
      "ాత్మా": 6313,
      "▁నాలుగు": 6314,
      "▁ఇస్లామాబా": 6315,
      "▁ఇన్ఫర్మే": 6316,
      "AAJ).": 6317,
      "ార్లమెంట": 6318,
      "▁సంకీర్ణ": 6319,
      "▁నిర్మింంచ": 6320,
      "▁నిర్వహణ": 6321,
      "▁రైళ్లను": 6322,
      "\nప్రభుత్వంం": 6323,
      "▁మార్గాాలు\n": 6324,
      "▁ప్రధానమంత్రి": 6325,
      ",NGDPD": 6326,
      "ెలవుదిన": 6327,
      "▁కార్యక్రమ": 6328,
      "▁డాలర్లు": 6329,
      "echnology": 6330,
      "▁వెబ్సైటు": 6331,
      "▁సర్వీసులు": 6332,
      "▁జంతువు\nజాతీయ": 6333,
      "[15]": 6334,
      "ources/": 6335,
      "times.indiatimes.com/business/business-": 6336,
      "ociety": 6337,
      "distribution.asp?": 6338,
      "ethno_": 6339,
      "pecially": 6340,
      "docs/distribution.asp?": 6341,
      "▁978-0-521-80904-7": 6342,
      "గష్టు": 6343,
      "లయాళ": 6344,
      "ళ్ళ": 6345,
      "ౌగోళిక": 6346,
      "▁(h\nttps://": 6347,
      "▁Spring": 6348,
      "▁ప్రారంభ": 6349,
      "▁అమెరిక": 6350,
      "క్నాలజీ": 6351,
      "▁జరుపు": 6352,
      "▁తలసరి": 6353,
      "▁బంగ్లాదేశ": 6354,
      "▁ఎన్నిక": 6355,
      "▁समर्थन": 6356,
      "e/hindirelease.aspx?relid=": 6357,
      "ethnologue.com/15/ethno_": 6358,
      "వెనుకటి": 6359,
      "▁ऑक्सफोर्ड": 6360,
      "▁క్యాలెండర్": 6361,
      "▁ఇస్లామాబాద్": 6362,
      "▁ఇన్ఫర్మేషన్": 6363,
      "times.indiatimes.com/business/business-news/": 6364,
      "ethnologue.com/15/ethno_docs/distribution.asp?": 6365,
      "\n26": 6366,
      "\nकार": 6367,
      "\nकि": 6368,
      "\n२०": 6369,
      "\",": 6370,
      "(1,": 6371,
      ",6": 6372,
      ",६": 6373,
      "-ग": 6374,
      "-asia": 6375,
      ".ed": 6376,
      "/).": 6377,
      "0).": 6378,
      "1L": 6379,
      "27.": 6380,
      "3–": 6381,
      "3).": 6382,
      "310": 6383,
      "428": 6384,
      "415": 6385,
      "526": 6386,
      "84": 6387,
      "80%": 6388,
      "960": 6389,
      "NA": 6390,
      "PO": 6391,
      "Rec": 6392,
      "St": 6393,
      "TO": 6394,
      "[16": 6395,
      "dy": 6396,
      "ele": 6397,
      "eff": 6398,
      "gi": 6399,
      "iri": 6400,
      "ians": 6401,
      "l=": 6402,
      "lad": 6403,
      "mag": 6404,
      "minister": 6405,
      "o/": 6406,
      "oti": 6407,
      "pic": 6408,
      "sia": 6409,
      "ves": 6410,
      "vol": 6411,
      "yan": 6412,
      "ंद्र": 6413,
      "अरुणाचल": 6414,
      "गालै": 6415,
      "चाल": 6416,
      "जना": 6417,
      "जोर": 6418,
      "जम्मू": 6419,
      "णे": 6420,
      "दय": 6421,
      "धन": 6422,
      "नु": 6423,
      "बहु": 6424,
      "लेश": 6425,
      "वैदिक": 6426,
      "साद": 6427,
      "ा,": 6428,
      "ाव": 6429,
      "ाधिक": 6430,
      "२३": 6431,
      "२६": 6432,
      "९.": 6433,
      "inu": 6434,
      "inanc": 6435,
      "ancy": 6436,
      "▁सार": 6437,
      "▁(4": 6438,
      "direct": 6439,
      "tian": 6440,
      "tition": 6441,
      "ानी": 6442,
      "ानगर": 6443,
      "रा,": 6444,
      "▁असम": 6445,
      "▁अत्य": 6446,
      "▁अशोक": 6447,
      "ederal": 6448,
      "र्ग": 6449,
      "▁2025.": 6450,
      "isl": 6451,
      "▁pres": 6452,
      "▁practic": 6453,
      "▁जवाहरलाल": 6454,
      "▁द्र": 6455,
      "▁दादरा": 6456,
      "▁निक": 6457,
      "▁नर्म": 6458,
      "▁नास्त": 6459,
      "▁second": 6460,
      "we\nb": 6461,
      "▁indi": 6462,
      "▁in\nthe": 6463,
      "ived": 6464,
      "▁बि": 6465,
      "▁2017.\n": 6466,
      "▁2013.\n": 6467,
      "▁Cynthia": 6468,
      "itec": 6469,
      "▁Sim": 6470,
      "▁bu": 6471,
      "▁bord": 6472,
      "▁women": 6473,
      "▁Mad": 6474,
      "▁आक्र": 6475,
      "▁air": 6476,
      "▁\"National": 6477,
      "▁ग़": 6478,
      "▁गौ": 6479,
      ")\n\"": 6480,
      "▁चर": 6481,
      "▁चो": 6482,
      "s.\"\n": 6483,
      "▁main": 6484,
      "ी\nब": 6485,
      "▁Res": 6486,
      "▁Ram": 6487,
      "ull": 6488,
      "ury,": 6489,
      "00–": 6490,
      "स्तु": 6491,
      "त्रा": 6492,
      "▁Des": 6493,
      "▁Dev": 6494,
      "▁Day": 6495,
      "▁By": 6496,
      "▁Business": 6497,
      "▁शा": 6498,
      "▁संसार": 6499,
      "illi": 6500,
      "]\n[": 6501,
      "▁2009.": 6502,
      "▁linguistic": 6503,
      "त्मा": 6504,
      "ersion": 6505,
      "event": 6506,
      "ung": 6507,
      "/http\ns://": 6508,
      ".[21": 6509,
      "▁Journal": 6510,
      "▁Nar": 6511,
      "▁(https://web.archive.": 6512,
      "▁now": 6513,
      "▁name": 6514,
      "▁nuclear": 6515,
      "235": 6516,
      "पुरा": 6517,
      "ume": 6518,
      "मेघालय": 6519,
      "▁reg": 6520,
      "▁परिव": 6521,
      "s.google.com/books?id=": 6522,
      "40-": 6523,
      "elated": 6524,
      "▁Out": 6525,
      "▁First": 6526,
      "▁Urd": 6527,
      "ately": 6528,
      "ot-": 6529,
      "otal": 6530,
      "][1][": 6531,
      "abad": 6532,
      "13.": 6533,
      "▁१२०": 6534,
      "ogram": 6535,
      "157": 6536,
      "25-": 6537,
      "show": 6538,
      "थिली\n": 6539,
      "162-": 6540,
      "▁34": 6541,
      "▁(https://web.archive.org/web/20170": 6542,
      "opular": 6543,
      "▁(https://books.google.com/books?id=3TRtDwAAQBAJ&pg=PA": 6544,
      "▁(2011": 6545,
      "▁(2018).": 6546,
      "▁(2017).": 6547,
      "indicat": 6548,
      "\nस्व": 6549,
      "द्वित": 6550,
      "▁शास्त": 6551,
      "▁शासित": 6552,
      "\nअर्थव्यवस्था": 6553,
      "▁Chand": 6554,
      "▁Chris": 6555,
      "▁Present": 6556,
      "▁dis": 6557,
      "o-d": 6558,
      "ोलका": 6559,
      "\nहैदराबाद": 6560,
      "\nको": 6561,
      "\nपश्चिम": 6562,
      "त्यक्ष": 6563,
      "▁Ved": 6564,
      "▁महाराष्ट्र": 6565,
      "रेन्द्र": 6566,
      "2\n(1,": 6567,
      "निर्माण": 6568,
      "▁Anthem": 6569,
      "▁att": 6570,
      "▁978-1-78": 6571,
      "\nआर्थिक": 6572,
      "\nउर्दू": 6573,
      "दूर": 6574,
      "o\nr": 6575,
      "प्राचीन": 6576,
      "▁2010).": 6577,
      "\nलोक": 6578,
      "ineering": 6579,
      "▁growth": 6580,
      "-population": 6581,
      "genous": 6582,
      "धीश": 6583,
      "▁(https://web.archive.org/web/20210": 6584,
      "%2C": 6585,
      "rade": 6586,
      "feat": 6587,
      "▁emerg": 6588,
      "[116]": 6589,
      "-of-": 6590,
      "▁like": 6591,
      "▁Talbot,": 6592,
      "odiversity": 6593,
      "▁plain": 6594,
      "▁न्यायाधीश": 6595,
      "Gujar": 6596,
      "▁commun": 6597,
      "india-glance/profile": 6598,
      "▁महात्मा": 6599,
      "urrent": 6600,
      "ablish": 6601,
      "▁China": 6602,
      "88290": 6603,
      "▁(1):": 6604,
      "\nfrom": 6605,
      "▁support": 6606,
      "▁Company": 6607,
      "▁ब्रह्मपुत्र": 6608,
      "भोपाल": 6609,
      "भोजपुरी,": 6610,
      "ece)": 6611,
      "▁Concise": 6612,
      "▁(http://parliamentofindia": 6613,
      "12438": 6614,
      "▁occup": 6615,
      "eenth": 6616,
      "ata_Tables/00%20": 6617,
      "emocracy": 6618,
      "▁मातरम्": 6619,
      "education": 6620,
      "50825": 6621,
      "▁Environmental": 6622,
      "▁Afric": 6623,
      "▁Org": 6624,
      "▁(https://books.google.com/books?id=ZvaGuaJIJgoC&pg=PA": 6625,
      "▁निम्न": 6626,
      "▁Sikh": 6627,
      "पियन्": 6628,
      ".org/en/": 6629,
      "existence": 6630,
      "708012438": 6631,
      "▁adopted": 6632,
      "_N_77_12": 6633,
      "illennium": 6634,
      ".edu": 6635,
      "▁नर्मदा": 6636,
      "itecture": 6637,
      "▁आक्रमण": 6638,
      "indicator": 6639,
      "▁Christian": 6640,
      "882905-": 6641,
      "\n2.": 6642,
      "\n39": 6643,
      "\"[": 6644,
      ")[": 6645,
      ",PP": 6646,
      "-gen": 6647,
      "-anthem-of-india-a-brief-on-jana-g": 6648,
      "/india-glance/national-symbols": 6649,
      "250": 6650,
      "320": 6651,
      "324": 6652,
      "317": 6653,
      "528": 6654,
      "6%": 6655,
      "69": 6656,
      "79.": 6657,
      "86": 6658,
      ";[": 6659,
      "Act": 6660,
      "A%202-": 6661,
      "Bh": 6662,
      "Eb": 6663,
      "First": 6664,
      "FHA": 6665,
      "HI": 6666,
      "MC": 6667,
      "New": 6668,
      "Pr": 6669,
      "RL": 6670,
      "RPC": 6671,
      "UCN": 6672,
      "aul": 6673,
      "aim": 6674,
      "bharat": 6675,
      "com": 6676,
      "cul": 6677,
      "cast": 6678,
      "c\nh": 6679,
      "des": 6680,
      "dna": 6681,
      "files/": 6682,
      "gu": 6683,
      "gAAQBAJ&pg=PA": 6684,
      "ij": 6685,
      "i\nn": 6686,
      "lp": 6687,
      "lam": 6688,
      "min": 6689,
      "pact": 6690,
      "rop": 6691,
      "sis": 6692,
      "sch": 6693,
      "serv": 6694,
      "search": 6695,
      "tt": 6696,
      "tary": 6697,
      "vard": 6698,
      "which": 6699,
      "ward": 6700,
      "ār": 6701,
      "ं।": 6702,
      "ंबे": 6703,
      "कों": 6704,
      "कि\n": 6705,
      "जट": 6706,
      "टन": 6707,
      "दान": 6708,
      "न,": 6709,
      "नत": 6710,
      "पूर्ण": 6711,
      "बी": 6712,
      "यत": 6713,
      "ल्त": 6714,
      "शन": 6715,
      "सून": 6716,
      "ीकरण": 6717,
      "ृष्ठ": 6718,
      "ैनिक": 6719,
      "ोली": 6720,
      "ोदी": 6721,
      "ौद्योगिक": 6722,
      "४.": 6723,
      "–1": 6724,
      "▁%": 6725,
      "▁X": 6726,
      "▁औ": 6727,
      "▁ge": 6728,
      "▁0.": 6729,
      "▁own": 6730,
      "▁टा": 6731,
      "in-": 6732,
      "ancient": 6733,
      "▁कम": 6734,
      "▁किये": 6735,
      "▁सभा": 6736,
      "ore,": 6737,
      "▁(13": 6738,
      "ar\n": 6739,
      "ences": 6740,
      "en/c": 6741,
      "▁though": 6742,
      "▁third": 6743,
      "▁पै": 6744,
      "▁मोदी": 6745,
      "रालेखित": 6746,
      "▁अस": 6747,
      "▁अल्": 6748,
      "▁अक्ट": 6749,
      ".\nThe": 6750,
      "र्ना": 6751,
      "▁2025.\n": 6752,
      "ised\n": 6753,
      "▁off": 6754,
      "▁often": 6755,
      "asing": 6756,
      "chin": 6757,
      "▁prom": 6758,
      "tion,": 6759,
      "▁वास्त": 6760,
      "▁वाली": 6761,
      "न्हें": 6762,
      "▁जीत": 6763,
      "▁जहाँ": 6764,
      "▁दू": 6765,
      "▁तट": 6766,
      "▁तो": 6767,
      "▁तीन": 6768,
      "यास": 6769,
      "▁Ag": 6770,
      "▁निय": 6771,
      "▁नृत्य": 6772,
      "▁sign": 6773,
      "well": 6774,
      "ici": 6775,
      "▁बनी": 6776,
      "▁बांग्लाा": 6777,
      "▁प्रौद्योगिक": 6778,
      "▁प्रयास": 6779,
      "ush": 6780,
      "▁2017.": 6781,
      "▁four": 6782,
      "▁Court": 6783,
      "itz": 6784,
      "▁cre": 6785,
      "▁India.\n": 6786,
      "▁India.[": 6787,
      "▁India.gov.in.": 6788,
      "ालर": 6789,
      "▁Mah": 6790,
      "▁Ter": 6791,
      "▁आई": 6792,
      "▁आय": 6793,
      "▁आदि": 6794,
      "ets": 6795,
      "▁a\n": 6796,
      "▁\"I": 6797,
      "▁\"भारत": 6798,
      "▁गए": 6799,
      "▁चल": 6800,
      "▁चार": 6801,
      "▁minor": 6802,
      "idence": 6803,
      "▁Rev": 6804,
      "▁Robb": 6805,
      "▁विमान": 6806,
      "urd": 6807,
      "url=": 6808,
      "▁इसी": 6809,
      "▁Department": 6810,
      "▁Bank": 6811,
      "▁उसके": 6812,
      "▁शक्ति\n": 6813,
      "▁1901": 6814,
      "▁संगीत": 6815,
      "ra,": 6816,
      "rati": 6817,
      "raven": 6818,
      "माजिक": 6819,
      "]\nC": 6820,
      "]\nm": 6821,
      "▁led": 6822,
      "▁local": 6823,
      "▁लिया": 6824,
      "▁कोई": 6825,
      "▁को\nपु": 6826,
      "78.": 6827,
      "▁domin": 6828,
      "▁Ex": 6829,
      "result": 6830,
      ".[22": 6831,
      "▁Nuclear": 6832,
      "▁रे": 6833,
      "▁है।\nभारत": 6834,
      "▁nation": 6835,
      "▁near": 6836,
      "2340": 6837,
      "ado": 6838,
      "govt": 6839,
      "▁early": 6840,
      "▁rec": 6841,
      "▁reach": 6842,
      "त्तरी": 6843,
      "▁Food": 6844,
      "▁Factbook": 6845,
      "2009": 6846,
      "▁भाजपा": 6847,
      "▁Lond": 6848,
      "▁Up": 6849,
      "establish": 6850,
      "▁(http://archive.org/details/": 6851,
      "hile": 6852,
      "ability": 6853,
      "▁West": 6854,
      "180": 6855,
      "▁करते": 6856,
      "▁१८": 6857,
      ".gov.": 6858,
      "onsoon": 6859,
      "▁art": 6860,
      "▁around": 6861,
      "▁Art": 6862,
      "AAM": 6863,
      "/http://p": 6864,
      "utt": 6865,
      "▁ass": 6866,
      "▁भाषाएँ": 6867,
      "▁भाषाएं": 6868,
      "▁2011,": 6869,
      "▁(https://books.google.com/books?id=kZVuDwAAQBAJ&pg=PA": 6870,
      "▁(https://books.google.com/books?id=Eb": 6871,
      "▁(2010).": 6872,
      "\nसरकार": 6873,
      ").\nP": 6874,
      "द्वीीप": 6875,
      "▁rul": 6876,
      "▁direct": 6877,
      "▁हैं।\n": 6878,
      "\nकी": 6879,
      ".gov.in/en/c": 6880,
      "▁any": 6881,
      "▁ancient": 6882,
      "▁Valle": 6883,
      "▁states": 6884,
      "uggle": 6885,
      "▁version": 6886,
      "▁सिनेमा": 6887,
      "ंत्रिक": 6888,
      "▁(2004).": 6889,
      "india/report": 6890,
      "▁था।[": 6891,
      "-muslim": 6892,
      "▁सरकारें": 6893,
      "▁डालर": 6894,
      "▁किया।": 6895,
      "▁Metcalf,": 6896,
      "2-5": 6897,
      "▁उत्तर-": 6898,
      "ंडीगढ": 6899,
      "▁गया।[": 6900,
      "4-108-": 6901,
      "▁छोड़": 6902,
      "▁छोटे": 6903,
      "▁Profile": 6904,
      "▁Hindu.": 6905,
      "▁थे": 6906,
      "▁थे।": 6907,
      "▁मानसून": 6908,
      "/countries/": 6909,
      "▁central": 6910,
      "▁centuri": 6911,
      "embers": 6912,
      "▁कार्यालय": 6913,
      "▁1965": 6914,
      "▁समाप्त": 6915,
      "ribut": 6916,
      "▁2023,": 6917,
      "▁2023.": 6918,
      "▁जिसका": 6919,
      "▁2020.\n": 6920,
      "▁पहु": 6921,
      "\nप्रति": 6922,
      "▁especially": 6923,
      "[116]\n": 6924,
      "▁composed": 6925,
      "/08/": 6926,
      "▁life": 6927,
      "▁जलवायु": 6928,
      "uropean": 6929,
      "alayal": 6930,
      ".co.uk/": 6931,
      "▁वेबै": 6932,
      "▁even": 6933,
      "▁रही": 6934,
      "/article9": 6935,
      "Chin": 6936,
      "ोोत": 6937,
      "ोोसी": 6938,
      "asp?linkid=203": 6939,
      "▁Religion": 6940,
      "▁deb": 6941,
      "▁(ht\n": 6942,
      "▁import": 6943,
      "▁coast": 6944,
      "▁गुप्त": 6945,
      "▁पार्ट": 6946,
      "▁Affairs,": 6947,
      "▁(Sanskrit": 6948,
      "▁(Sevent": 6949,
      "ece).": 6950,
      "▁बंगाल": 6951,
      "▁मिलियन": 6952,
      "bbc.co.uk/": 6953,
      "▁scri": 6954,
      "onstitutional-pr": 6955,
      "▁estimate\n•": 6956,
      "▁agric": 6957,
      "▁Bengal": 6958,
      "iteracy": 6959,
      "india.com/india/report": 6960,
      "view/": 6961,
      "074-108-": 6962,
      "▁increased": 6963,
      "▁Gujar": 6964,
      "▁(2013),": 6965,
      "▁राजनैत": 6966,
      "▁territories": 6967,
      "▁military": 6968,
      "▁Fisher,": 6969,
      "%3D": 6970,
      "oint": 6971,
      "▁पड़ोोसी": 6972,
      "▁अमेर": 6973,
      "▁Arab": 6974,
      "▁नदियाँ": 6975,
      "रीक्षण": 6976,
      "▁Ludden,": 6977,
      "▁जिनमें": 6978,
      "▁घोषणा": 6979,
      "ib.nic.in/newsite/hindirelease.aspx?relid=": 6980,
      "▁Persian": 6981,
      "▁house\n": 6982,
      "express": 6983,
      "▁control": 6984,
      "Religion": 6985,
      "▁कहते": 6986,
      "▁(https://\nbooks.google.com/books?id=": 6987,
      "▁served": 6988,
      "▁यूरोपीय": 6989,
      "▁Chinese": 6990,
      "अभिगमन": 6991,
      "▁दृष्टि": 6992,
      "▁गांधी": 6993,
      "agwat": 6994,
      "▁edition)": 6995,
      "▁known": 6996,
      "nclm.nic.in/index1.asp?linkid=203": 6997,
      "▁हिस्स": 6998,
      "y=area)": 6999,
      "hdr.undp": 7000,
      "▁978-1-78074-108-": 7001,
      "-population-": 7002,
      "[116]:": 7003,
      "708012438/http://": 7004,
      "882905-8": 7005,
      "dnaindia.com/india/report": 7006,
      "ttar": 7007,
      "ल्तनत": 7008,
      "रालेखित।": 7009,
      "▁अक्टूबर": 7010,
      "र्नाटक": 7011,
      "▁वास्तव": 7012,
      "▁को\nपुरालेखित।": 7013,
      "▁(https://books.google.com/books?id=EbFHA": 7014,
      ".gov.in/en/constitutional-pr": 7015,
      "ंडीगढ़": 7016,
      "▁वेबैक": 7017,
      "▁(Seventeenth": 7018,
      "▁राजनैतिक": 7019,
      "▁978-1-78074-108-6": 7020,
      ".gov.in/en/constitutional-provisions": 7021,
      "\n9": 7022,
      "\nom": 7023,
      "\n19": 7024,
      "\n17": 7025,
      "\nThe": 7026,
      "\nस्थान": 7027,
      "\nराजधान": 7028,
      "-7": 7029,
      "-D": 7030,
      "-the-": 7031,
      "/50": 7032,
      "/IN": 7033,
      "1_": 7034,
      "1-0": 7035,
      "14.": 7036,
      "17.": 7037,
      "270": 7038,
      "3rd": 7039,
      "430": 7040,
      "5,000": 7041,
      "89": 7042,
      "AC": 7043,
      "Assam": 7044,
      "Cambridge": 7045,
      "DI": 7046,
      "Fl": 7047,
      "Hindu": 7048,
      "Hindustan": 7049,
      "IC": 7050,
      "ID": 7051,
      "K:": 7052,
      "South": 7053,
      "_S": 7054,
      "adi": 7055,
      "ahar": 7056,
      "bu": 7057,
      "city": 7058,
      "comm": 7059,
      "comp": 7060,
      "equality": 7061,
      "fq": 7062,
      "g\n": 7063,
      "ger": 7064,
      "here": 7065,
      "i-": 7066,
      "ii": 7067,
      "ix": 7068,
      "iew": 7069,
      "kar": 7070,
      "lan": 7071,
      "look": 7072,
      "loc": 7073,
      "language": 7074,
      "map": 7075,
      "mall": 7076,
      "me.": 7077,
      "ns": 7078,
      "o,": 7079,
      "por": 7080,
      "pos": 7081,
      "paper": 7082,
      "row": 7083,
      "rban": 7084,
      "s.com/": 7085,
      "sci": 7086,
      "udi": 7087,
      "way": 7088,
      "with": 7089,
      "wart": 7090,
      "wide": 7091,
      "y;": 7092,
      "zation": 7093,
      "zberg": 7094,
      "इम्": 7095,
      "इटान": 7096,
      "कीय": 7097,
      "कम्प": 7098,
      "कवर": 7099,
      "कोलका": 7100,
      "चक्र": 7101,
      "जोल": 7102,
      "डोगर": 7103,
      "तत्": 7104,
      "तला": 7105,
      "थे": 7106,
      "दक्षिण": 7107,
      "नरेन्द्र": 7108,
      "पित": 7109,
      "पदी": 7110,
      "बन": 7111,
      "म्र": 7112,
      "मराव": 7113,
      "यित": 7114,
      "रच": 7115,
      "रीय": 7116,
      "लका": 7117,
      "वधी,": 7118,
      "शिम": 7119,
      "सत्यमेव": 7120,
      "ा\n": 7121,
      "ुक": 7122,
      "ू,": 7123,
      "ूर्य": 7124,
      "ेल": 7125,
      "ेरी": 7126,
      "ोमो": 7127,
      "ौपदी": 7128,
      "०५": 7129,
      "१\n": 7130,
      "१२": 7131,
      "१३": 7132,
      "१५": 7133,
      "३०": 7134,
      "३२": 7135,
      "३८": 7136,
      "४,": 7137,
      "५-": 7138,
      "६०": 7139,
      "८\nस": 7140,
      "९१": 7141,
      "९.८": 7142,
      "॰\nराज्य": 7143,
      "▁झ": 7144,
      "▁ent": 7145,
      "▁झारखण्ड": 7146,
      "▁establish": 7147,
      "inct": 7148,
      "in\ndia": 7149,
      "anth": 7150,
      "्रेे": 7151,
      "▁कथ": 7152,
      "▁कथा": 7153,
      "2024": 7154,
      "▁सम्": 7155,
      "ert": 7156,
      "ortion": 7157,
      "▁(ह": 7158,
      "▁(प्र": 7159,
      "▁(मह": 7160,
      "▁(१९": 7161,
      "▁(तृत": 7162,
      "araj": 7163,
      "til": 7164,
      "till": 7165,
      "ene": 7166,
      "▁these": 7167,
      "▁मंग": 7168,
      "▁मलेश": 7169,
      "राह": 7170,
      "रादू": 7171,
      "▁अस्ति\n": 7172,
      ".\norg": 7173,
      "र्मे": 7174,
      "▁2000": 7175,
      "▁भौगोलिक": 7176,
      "▁हरिया": 7177,
      "is,": 7178,
      "ising": 7179,
      "chi": 7180,
      "▁poll": 7181,
      "▁parliamentary": 7182,
      "tionary": 7183,
      "▁वन्य": 7184,
      "▁वरि": 7185,
      "▁वराह": 7186,
      "न्ना": 7187,
      "▁जीव": 7188,
      "याय": 7189,
      "ream": 7190,
      "reme": 7191,
      "lection": 7192,
      "ेश्वर": 7193,
      "▁so": 7194,
      "▁stu": 7195,
      "ivision": 7196,
      "ictionary": 7197,
      "entury": 7198,
      "▁प्रो": 7199,
      "▁प्रत्यक्ष": 7200,
      "usc": 7201,
      "▁te": 7202,
      "▁2016.": 7203,
      "▁Cl": 7204,
      "▁Cons": 7205,
      "▁Craven": 7206,
      "▁Sp": 7207,
      "▁Since": 7208,
      "▁Sharm": 7209,
      "▁com": 7210,
      "▁cook": 7211,
      "▁cast": 7212,
      "▁bl": 7213,
      "▁bir": 7214,
      "▁Ma": 7215,
      "▁Tri": 7216,
      "2010": 7217,
      "2017": 7218,
      "▁ap": 7219,
      "▁\"D": 7220,
      "▁\"Official": 7221,
      ")\nब": 7222,
      "▁चट": 7223,
      "chiv\ne": 7224,
      "▁middle": 7225,
      "▁movement": 7226,
      "▁25%": 7227,
      "ी\n28": 7228,
      "ी\nनरेन्द्र": 7229,
      "▁Row": 7230,
      "ता।": 7231,
      "liance": 7232,
      "library": 7233,
      "ages": 7234,
      "emal": 7235,
      "emic": 7236,
      "▁विधि": 7237,
      "urt": 7238,
      "olper": 7239,
      "▁Division": 7240,
      "▁Dictionary": 7241,
      "▁उन्न": 7242,
      "▁उर्दू": 7243,
      "▁उल्ले": 7244,
      "▁शक": 7245,
      "्यां": 7246,
      "▁198": 7247,
      "▁1970": 7248,
      "▁1977": 7249,
      "प्रधान": 7250,
      "opic": 7251,
      "anglad": 7252,
      "]\nThe": 7253,
      "19.\n": 7254,
      "र्वत": 7255,
      "▁कीर्त": 7256,
      "▁here": 7257,
      "▁कोरिया": 7258,
      "▁कोलका": 7259,
      ",\nस": 7260,
      ",\nand": 7261,
      "▁E.": 7262,
      "▁Em": 7263,
      "▁Earliest": 7264,
      "4%,": 7265,
      "resources/": 7266,
      ".[30": 7267,
      ".[28": 7268,
      "▁Non-": 7269,
      "▁यत्": 7270,
      "▁यमु": 7271,
      "▁Gr": 7272,
      "▁Ganges": 7273,
      "In\ndia": 7274,
      "संसद": 7275,
      "umph": 7276,
      "▁el": 7277,
      "cts": 7278,
      "ind\n": 7279,
      "▁।\nह": 7280,
      "द्घ": 7281,
      "द्भा": 7282,
      "403": 7283,
      "केन्द्र": 7284,
      "धिकरण": 7285,
      "र्मू": 7286,
      "▁US$": 7287,
      "30/https://www.": 7288,
      "ateg": 7289,
      "228": 7290,
      "गरतला": 7291,
      "4.2%": 7292,
      "ody": 7293,
      "oday": 7294,
      "ubmed": 7295,
      "वाय": 7296,
      "वाहन": 7297,
      "159/http://": 7298,
      ".ncbi.nlm.nih": 7299,
      "▁give": 7300,
      "िन्ध": 7301,
      "India-": 7302,
      "लीप": 7303,
      "▁जनवरी,": 7304,
      "apters": 7305,
      "shit": 7306,
      "▁the\noriginal": 7307,
      "द्रौपदी": 7308,
      "706": 7309,
      "905": 7310,
      "▁(2019).": 7311,
      "▁(2016).": 7312,
      "▁being": 7313,
      "\nमणि": 7314,
      "\nसर्व": 7315,
      "\nसूच": 7316,
      "\nसिख": 7317,
      "....": 7318,
      "▁·\n": 7319,
      "ritten": 7320,
      "▁rural": 7321,
      "▁978-0-19": 7322,
      "▁div": 7323,
      "ana-mana-498576.": 7324,
      "विधानसभा": 7325,
      "▁स्थल": 7326,
      "ports/": 7327,
      "▁निर्म": 7328,
      "▁2014,": 7329,
      "शासना": 7330,
      "\nपा": 7331,
      "alled": 7332,
      "▁Vedic": 7333,
      "▁(https://www.n": 7334,
      "-sub": 7335,
      "-sign": 7336,
      "▁export": 7337,
      "▁vill": 7338,
      "▁1997,": 7339,
      "▁मुम्बई,": 7340,
      "▁मुर्मू": 7341,
      "ानांतर": 7342,
      "▁(2003).": 7343,
      "▁Ancient": 7344,
      "▁State": 7345,
      "▁सर्वाधिक": 7346,
      "००-": 7347,
      "युग": 7348,
      "▁थाई": 7349,
      "\nआधार": 7350,
      "▁भूटान": 7351,
      "ikshit": 7352,
      "▁धर्मा": 7353,
      "\nबिहार": 7354,
      "▁language,": 7355,
      "▁लोकतान्त्रि\nक": 7356,
      "edia.": 7357,
      "ants": 7358,
      "cess": 7359,
      "ryan": 7360,
      "\nवर्त": 7361,
      "विधायिका": 7362,
      "ohan": 7363,
      "▁ईरान": 7364,
      "▁छत्तीसगढ": 7365,
      "▁Prospect": 7366,
      "▁India\".": 7367,
      ".php": 7368,
      "ervation": 7369,
      "▁उपराष्ट्रप": 7370,
      "/http://www.theh": 7371,
      "\nचे": 7372,
      "वनन्त": 7373,
      "वनेश्वर": 7374,
      "हिमा": 7375,
      "s.[4": 7376,
      "▁century,": 7377,
      "शिला": 7378,
      "▁1965,": 7379,
      "▁become": 7380,
      "▁use": 7381,
      "ighth": 7382,
      "▁Economy": 7383,
      "\nप्रभाव": 7384,
      "\nपुरु": 7385,
      "▁employ": 7386,
      "\nहिन्दु": 7387,
      "▁मतभेद": 7388,
      "▁अगस्त,": 7389,
      "▁languages\n": 7390,
      "\nकेरल": 7391,
      "%E0%A4%AD": 7392,
      "\n२६": 7393,
      "राठी\n२": 7394,
      "▁(https://web.archive.org/web/200709": 7395,
      "▁Minority": 7396,
      "ष्णु": 7397,
      "ी\nमराठ": 7398,
      ".htm)\n": 7399,
      "राष्ट्रपिता": 7400,
      "▁across": 7401,
      "\n१३": 7402,
      "\n१५": 7403,
      "▁महाजनप": 7404,
      "▁विविधता": 7405,
      "देहरादू": 7406,
      "value": 7407,
      "खनीय": 7408,
      "ause": 7409,
      "There": 7410,
      "▁Harle": 7411,
      "▁Schwart": 7412,
      "▁doi:10.10": 7413,
      "▁(https://web.arc\nh": 7414,
      "▁(https://web.archiv\ne": 7415,
      "ography": 7416,
      "▁Press.\n": 7417,
      "संस्कृति": 7418,
      "ountries": 7419,
      "परिष": 7420,
      "▁प्रधानमन्त्री": 7421,
      "▁ऋषभ": 7422,
      "\n\"https://": 7423,
      "भुत्व": 7424,
      "भुवनेश्वर": 7425,
      "▁पारिव": 7426,
      "religion/": 7427,
      "▁\"Population": 7428,
      "ize": 7429,
      "▁According": 7430,
      "कृष्ण": 7431,
      "दर्शन": 7432,
      "▁भोजपुरी,": 7433,
      "▁(https://web.archive.org/we\nb": 7434,
      "7936": 7435,
      "▁रूढ": 7436,
      "▁978-1-107-11": 7437,
      "▁न्यू": 7438,
      "▁गोदा": 7439,
      "ognised\n": 7440,
      "▁Plateau": 7441,
      "श्रेेण": 7442,
      "▁marri": 7443,
      "▁(https://books.google.com/books?": 7444,
      ",500": 7445,
      "लोकसभा": 7446,
      "शीर्ष": 7447,
      "▁मराठी,": 7448,
      "▁बुद्ध": 7449,
      "▁अफगानि": 7450,
      "▁websit": 7451,
      "▁(July": 7452,
      "▁caused": 7453,
      "Indo-": 7454,
      "rajbhasha.gov.in/en/constitutional-provisions": 7455,
      "\"\n(https://web.archive.org/web/201": 7456,
      "AGE": 7457,
      "bank.org/indicator": 7458,
      "▁famili": 7459,
      "▁Twent": 7460,
      "news18.com/news/india/national": 7461,
      "hattisgarh": 7462,
      "rishn": 7463,
      "▁following": 7464,
      "▁widely": 7465,
      "▁Volume": 7466,
      "ultanate": 7467,
      "www.censusindia.gov.in/2011census/PCA/A-2_Data_Tables/00%20": 7468,
      ",६६": 7469,
      "Recognised\n": 7470,
      "▁सार्व": 7471,
      "ानगरीय": 7472,
      "▁शाखा": 7473,
      "ogramme.": 7474,
      "द्वितीय": 7475,
      "▁emerged": 7476,
      "▁Organi": 7477,
      "icient": 7478,
      "]\nmedium": 7479,
      "▁London": 7480,
      "▁(Sanskrit)\n\"": 7481,
      "\nराजधानी": 7482,
      "इटानगर": 7483,
      "कवरत्त": 7484,
      "शिमला": 7485,
      "्रेेल": 7486,
      "▁(प्रथम": 7487,
      "▁(महानगरीय": 7488,
      "▁मंगोल": 7489,
      "▁मलेशिया": 7490,
      ".\norg/": 7491,
      "▁वरिष्ठ": 7492,
      "ी\n28°": 7493,
      "angladesh": 7494,
      "▁कोलकाता,": 7495,
      "▁यमुना,": 7496,
      "ubmed.ncbi.nlm.nih": 7497,
      "▁महाजनपद": 7498,
      "देहरादून": 7499,
      "▁Schwartzberg": 7500,
      "▁(https://web.arc\nhive": 7501,
      "▁978-1-107-11162-": 7502,
      "ubmed.ncbi.nlm.nih.gov/": 7503,
      "\n5": 7504,
      "\nv": 7505,
      "\nఆ": 7506,
      "\nగ": 7507,
      "\nహ": 7508,
      "\non": 7509,
      "\nని": 7510,
      "\nదేశం": 7511,
      "\ns?id=": 7512,
      "\nbooks?id=": 7513,
      "\nస్థ": 7514,
      "\n18": 7515,
      "\nవా": 7516,
      "\nనా": 7517,
      "\nవాత": 7518,
      "\nIndian": 7519,
      "\nస్థాన": 7520,
      "\nభాష": 7521,
      "\nదినోత్స": 7522,
      "\nగణతంత్ర": 7523,
      "\nఆర్ధిక": 7524,
      "&d": 7525,
      "&e": 7526,
      "&br": 7527,
      "-5": 7528,
      "-g": 7529,
      "-le": 7530,
      "-23": 7531,
      "-17": 7532,
      "-ఢిల్లీ": 7533,
      "-లా": 7534,
      "-at-": 7535,
      "-विज्ञाान": 7536,
      ".f": 7537,
      ".j": 7538,
      ".ec": 7539,
      ".&br": 7540,
      "/M": 7541,
      "/ge": 7542,
      "/28": 7543,
      "/hindi": 7544,
      "1%": 7545,
      "1/http://": 7546,
      "2F": 7547,
      "2–": 7548,
      "3/": 7549,
      "350": 7550,
      "52340": 7551,
      "65": 7552,
      "6%E0%B": 7553,
      "7/": 7554,
      "710": 7555,
      "8][": 7556,
      "98": 7557,
      "=N": 7558,
      "AR": 7559,
      "CO": 7560,
      "GQ": 7561,
      "High": 7562,
      "L.": 7563,
      "Learning": 7564,
      "MF": 7565,
      "PA": 7566,
      "[[": 7567,
      "[20": 7568,
      "[19": 7569,
      "]]": 7570,
      "_\n": 7571,
      "_and": 7572,
      "_value": 7573,
      "a.gov.in/": 7574,
      "ai,": 7575,
      "by": 7576,
      "bo\n": 7577,
      "coun": 7578,
      "come": 7579,
      "csm": 7580,
      "doi:": 7581,
      "draw": 7582,
      "d=1&s": 7583,
      "e=": 7584,
      "ez": 7585,
      "ees": 7586,
      "eas": 7587,
      "frid": 7588,
      "f.gov/": 7589,
      "factbook": 7590,
      "f/50": 7591,
      "gest": 7592,
      "han": 7593,
      "hen": 7594,
      "ha,": 7595,
      "ies,": 7596,
      "iodiversity": 7597,
      "jI": 7598,
      "josh": 7599,
      "ked": 7600,
      "lor": 7601,
      "low": 7602,
      "laws": 7603,
      "ma": 7604,
      "mjI": 7605,
      "n-": 7606,
      "no-": 7607,
      "oast": 7608,
      "r.": 7609,
      "ron": 7610,
      "s\"": 7611,
      "sar": 7612,
      "sd=1&s": 7613,
      "to-": 7614,
      "tool": 7615,
      "ui": 7616,
      "uin": 7617,
      "utical": 7618,
      "xim": 7619,
      "~p": 7620,
      "ंच": 7621,
      "एन": 7622,
      "खी": 7623,
      "गान": 7624,
      "गति": 7625,
      "ग्रह": 7626,
      "चंडीगढ़": 7627,
      "जों": 7628,
      "ण,": 7629,
      "दार": 7630,
      "नल": 7631,
      "नियों": 7632,
      "पान": 7633,
      "पंजाब": 7634,
      "बू": 7635,
      "मूल": 7636,
      "यक": 7637,
      "यें": 7638,
      "रह": 7639,
      "लना": 7640,
      "वास": 7641,
      "शाली": 7642,
      "हों": 7643,
      "िलों": 7644,
      "ीए": 7645,
      "ीति": 7646,
      "ेप": 7647,
      "े\nमें": 7648,
      "ै\n": 7649,
      "ैठ": 7650,
      "ॉकी": 7651,
      "्ट": 7652,
      "४०": 7653,
      "ం;": 7654,
      "ంఘ": 7655,
      "ందీ": 7656,
      "ంతర": 7657,
      "ంస్క": 7658,
      "అతి": 7659,
      "ఆక్రమ": 7660,
      "ఇది": 7661,
      "ఇండియా": 7662,
      "ఏర్ప": 7663,
      "ఒరిజినల్": 7664,
      "కర": 7665,
      "కళ": 7666,
      "కూ": 7667,
      "కాత": 7668,
      "క\nస": 7669,
      "గమ": 7670,
      "గల": 7671,
      "గర్": 7672,
      "చె": 7673,
      "చయిత": 7674,
      "చుకోవడ": 7675,
      "జర": 7676,
      "జల": 7677,
      "జు": 7678,
      "జ్": 7679,
      "టలు": 7680,
      "టర్": 7681,
      "టన్": 7682,
      "టులు": 7683,
      "టాన్": 7684,
      "డో": 7685,
      "డ్య": 7686,
      "డైన": 7687,
      "ఢాకా": 7688,
      "ణించ": 7689,
      "ణులు": 7690,
      "థి": 7691,
      "థ్యంం": 7692,
      "దగా": 7693,
      "దకు": 7694,
      "దవి": 7695,
      "దం\n": 7696,
      "దరా": 7697,
      "దరంగ": 7698,
      "ధార": 7699,
      "ధాని": 7700,
      "ధించిన": 7701,
      "నూ": 7702,
      "నై": 7703,
      "నవరి": 7704,
      "పంం": 7705,
      "పరి": 7706,
      "పక్ష": 7707,
      "పచ్చ": 7708,
      "పశ్చిమ": 7709,
      "పడిన": 7710,
      "బు": 7711,
      "బెంగ": 7712,
      "భవ": 7713,
      "భాతో": 7714,
      "భౌగోళిక": 7715,
      "మల": 7716,
      "మో": 7717,
      "మతం": 7718,
      "మించ": 7719,
      "యం": 7720,
      "యాలు": 7721,
      "యాత్ర": 7722,
      "యమించ": 7723,
      "రె": 7724,
      "రల్": 7725,
      "రకు": 7726,
      "రక్ష": 7727,
      "లీ": 7728,
      "లాలు,": 7729,
      "లీ,": 7730,
      "లంక": 7731,
      "లక్టో": 7732,
      "ళలు": 7733,
      "ళి,": 7734,
      "వల": 7735,
      "వై": 7736,
      "విం": 7737,
      "వత్ర": 7738,
      "వులు": 7739,
      "వైన": 7740,
      "వార్": 7741,
      "వల్ల": 7742,
      "వారి": 7743,
      "వులు,": 7744,
      "వరీ": 7745,
      "వందే": 7746,
      "శో": 7747,
      "శాన": 7748,
      "శాస్త్ర": 7749,
      "శ్వ": 7750,
      "శేష": 7751,
      "సీ": 7752,
      "స్ర": 7753,
      "హా": 7754,
      "హో": 7755,
      "హ్": 7756,
      "హల్": 7757,
      "హ్మ": 7758,
      "హారం": 7759,
      "హాస": 7760,
      "హస్ర": 7761,
      "ా)": 7762,
      "ాలో": 7763,
      "ాగా": 7764,
      "ాను": 7765,
      "ాడే": 7766,
      "ాటక": 7767,
      "ిప": 7768,
      "ియ": 7769,
      "ిళ": 7770,
      "ిలో": 7771,
      "ిల్": 7772,
      "ిత్ర": 7773,
      "ితి": 7774,
      "ిటన్": 7775,
      "ీక్ష": 7776,
      "ీదగా": 7777,
      "ుమ": 7778,
      "ుత్": 7779,
      "ూపా": 7780,
      "ూనది": 7781,
      "ృష్ట": 7782,
      "ెస్": 7783,
      "ెర్": 7784,
      "ెట్": 7785,
      "ెక్క": 7786,
      "ెట్రో": 7787,
      "ే.": 7788,
      "ేయ": 7789,
      "ేతిక": 7790,
      "ైలు": 7791,
      "ైనిక": 7792,
      "ైదరా": 7793,
      "ో,": 7794,
      "ోర": 7795,
      "ోత్తర": 7796,
      "ౌర": 7797,
      "ౌర్య": 7798,
      "్,": 7799,
      "్లో": 7800,
      "్,\n": 7801,
      "▁=": 7802,
      "▁ट": 7803,
      "▁ढ": 7804,
      "▁९": 7805,
      "▁ఓ": 7806,
      "▁థ": 7807,
      "▁ధ": 7808,
      "▁ది": 7809,
      "▁et": 7810,
      "▁6.": 7811,
      "▁times": 7812,
      "▁6,": 7813,
      "▁lim": 7814,
      "▁50th": 7815,
      "in,": 7816,
      "an_": 7817,
      "andi": 7818,
      "anion": 7819,
      "्रि\n": 7820,
      "्रां": 7821,
      "▁कै": 7822,
      "▁क्य": 7823,
      "्यता": 7824,
      "2023": 7825,
      "onk": 7826,
      "▁सभी": 7827,
      "▁सल्तनत": 7828,
      "ार्च": 7829,
      "erc": 7830,
      "eros/": 7831,
      "▁(B": 7832,
      "▁(F": 7833,
      "▁(n": 7834,
      "▁(ఆ": 7835,
      "▁(25": 7836,
      "▁(0.": 7837,
      "▁(PPP": 7838,
      "▁(వెనుకటి": 7839,
      "esti": 7840,
      "enins": 7841,
      "enced": 7842,
      "▁पास": 7843,
      "▁पां": 7844,
      "▁मिश": 7845,
      "ht\nm": 7846,
      "▁अक्त": 7847,
      ".\nభారత": 7848,
      ".\nభారతదేశం": 7849,
      "్రాన్": 7850,
      "్రప్రదేశ": 7851,
      "▁भी\n": 7852,
      "▁हाल": 7853,
      "▁हस्त": 7854,
      "▁हॉकी": 7855,
      "ారస్": 7856,
      "▁పలు": 7857,
      "▁పవి": 7858,
      "▁పంచ": 7859,
      "▁ప్ల": 7860,
      "▁పారి": 7861,
      "▁పక్షి": 7862,
      "▁పటం": 7863,
      "▁పటంలో": 7864,
      "▁పక్కన": 7865,
      "▁పూర్తి": 7866,
      "▁పంజాబ": 7867,
      "ats": 7868,
      "att": 7869,
      "atch": 7870,
      "atan.": 7871,
      "chang": 7872,
      "chitecture": 7873,
      "▁1,": 7874,
      "▁100": 7875,
      "▁185": 7876,
      "andbook": 7877,
      "▁pri": 7878,
      "▁political": 7879,
      "right": 7880,
      "▁जमा": 7881,
      "▁जाने": 7882,
      "▁दी": 7883,
      "▁After": 7884,
      "▁केवल": 7885,
      "redi": 7886,
      "reement": 7887,
      "let": 7888,
      "lect": 7889,
      "▁नम": 7890,
      "▁नर": 7891,
      "▁(https://archive.org/details/": 7892,
      "▁sur": 7893,
      "▁shar": 7894,
      "▁sector": 7895,
      "్యులు": 7896,
      "ict": 7897,
      "ently": 7898,
      "▁बडी": 7899,
      "▁बजट": 7900,
      "లో,": 7901,
      "లోక్సభ": 7902,
      "▁प्रदान": 7903,
      "uss": 7904,
      "▁tur": 7905,
      "▁2012,": 7906,
      "స్.\n": 7907,
      "స్వీ": 7908,
      "▁fact": 7909,
      "ingle": 7910,
      "ingdom": 7911,
      "▁Social": 7912,
      "▁cr": 7913,
      "▁constitution": 7914,
      "▁court": 7915,
      "▁కృ": 7916,
      "▁కలు": 7917,
      "▁కర్": 7918,
      "▁క్రి": 7919,
      "▁కన్నడ": 7920,
      "▁క్రై": 7921,
      "▁కబడ్డ": 7922,
      "▁కంపెనీ": 7923,
      "▁కిలో": 7924,
      "▁brief": 7925,
      "ది.\n": 7926,
      "▁Power": 7927,
      "▁Political": 7928,
      "▁work": 7929,
      "▁Middle": 7930,
      "ర్\n": 7931,
      "ర్శ": 7932,
      "ర్జాతీయ": 7933,
      "ర్వాత": 7934,
      "ర్దూ": 7935,
      "ర్థ్యంం": 7936,
      "ింంది.\n": 7937,
      "▁Tay": 7938,
      "▁आज": 7939,
      "నిస్తాన్": 7940,
      "నిజాలు": 7941,
      "దేశాలు": 7942,
      "▁\"S": 7943,
      "▁\"భ": 7944,
      "▁\"Report": 7945,
      ".org.": 7946,
      "ष्क": 7947,
      ")\nభారతదేశం": 7948,
      ")\n2021": 7949,
      ")\nfrom": 7950,
      "▁మాన": 7951,
      "▁మంత్ర": 7952,
      "▁మరో": 7953,
      "▁మిజ": 7954,
      "▁మలయాళ": 7955,
      "▁వు": 7956,
      "▁వర్": 7957,
      "▁వ్యవ": 7958,
      "▁వారి": 7959,
      "▁వందే": 7960,
      "▁వర్గ": 7961,
      "s.html": 7962,
      "▁సర": 7963,
      "▁సూచ": 7964,
      "▁से\n": 7965,
      "▁mid": 7966,
      "▁mig": 7967,
      "▁may": 7968,
      "▁millennium": 7969,
      "▁2,": 7970,
      "ecu": 7971,
      "▁\n•": 7972,
      "▁\nవి": 7973,
      "▁\nరాష్ట్ర": 7974,
      "▁\nదక్షిణ": 7975,
      "lief": 7976,
      "ages.": 7977,
      "agran": 7978,
      "emor": 7979,
      "्षा": 7980,
      "india.co": 7981,
      "▁विभा": 7982,
      "▁రి": 7983,
      "▁రకాలు": 7984,
      "▁రూపా": 7985,
      "ures/": 7986,
      "urther": 7987,
      "▁इसमें": 7988,
      "▁इंदि": 7989,
      "olon": 7990,
      "ాలు:": 7991,
      "ాలు,\n": 7992,
      "ాలు\nభారతదేశ": 7993,
      "▁D.;": 7994,
      "▁Dikshit": 7995,
      "▁एस": 7996,
      "▁Book": 7997,
      "▁Barb": 7998,
      "▁BJP": 7999,
      "वियत": 8000,
      "▁उसे": 8001,
      "▁उन्हें": 8002,
      "▁ప్రయో": 8003,
      "▁ప్రాచ": 8004,
      "▁ప్రాచీన": 8005,
      "्यात": 8006,
      "▁194": 8007,
      "▁1980": 8008,
      "▁1971": 8009,
      "గాన్ని": 8010,
      "▁संख्या": 8011,
      "प्रिय": 8012,
      "▁అణ": 8013,
      "▁అన్ని": 8014,
      "▁అంత": 8015,
      "▁అత్యంం": 8016,
      "▁అస్స": 8017,
      "ilar": 8018,
      "ాతం": 8019,
      "ాతి": 8020,
      "ంం,": 8021,
      "ంంద్ర": 8022,
      "ంందు": 8023,
      "ంంటు": 8024,
      "story": 8025,
      "న్నీ": 8026,
      "న్నై": 8027,
      "న్నది": 8028,
      "న్నది.": 8029,
      "1991": 8030,
      "▁2005,": 8031,
      "igin": 8032,
      "▁का\n": 8033,
      "▁histor": 8034,
      "▁చారిత్రక": 8035,
      "▁लड़ाा": 8036,
      "క్స్": 8037,
      "క్తి": 8038,
      "त्प": 8039,
      "▁Home": 8040,
      "▁Handbook": 8041,
      "▁को\nअ": 8042,
      "నుమ": 8043,
      "నుండి": 8044,
      ",\nthe": 8045,
      "ల్కాత": 8046,
      "ండమ": 8047,
      "ండ్\n": 8048,
      "ాయాలు": 8049,
      "irf.gov/": 8050,
      ".[18": 8051,
      "▁Jana": 8052,
      "▁है।\nव": 8053,
      "503": 8054,
      "కుల": 8055,
      "కుపచ్చ": 8056,
      "231": 8057,
      "▁यहाँ": 8058,
      "-05-0": 8059,
      "▁G.": 8060,
      "▁Ga": 8061,
      "▁Gree": 8062,
      "▁Global": 8063,
      "▁జో": 8064,
      "▁జంబూ": 8065,
      "ద్వీప": 8066,
      "ద్వారా": 8067,
      "काज": 8068,
      "▁తె": 8069,
      "▁తాజ": 8070,
      "▁త్రి": 8071,
      "▁తక్కువ": 8072,
      "▁తూర్పు": 8073,
      "▁తర్వాత": 8074,
      "▁ఆక్రమ": 8075,
      "▁ఆసియా": 8076,
      "▁ఆగష్టు": 8077,
      "▁ఆహారం": 8078,
      "▁ref": 8079,
      "ay-re": 8080,
      "▁Onew": 8081,
      "త్ర,": 8082,
      "త్రీలు": 8083,
      "▁నృ": 8084,
      "▁నె": 8085,
      "▁నెల": 8086,
      "▁నాయక": 8087,
      "ort=": 8088,
      "▁ఇటీ": 8089,
      "▁(http://hdr.undp": 8090,
      "3056": 8091,
      "िमण्डल": 8092,
      "ాన,": 8093,
      "ానీ": 8094,
      "hib": 8095,
      "tual": 8096,
      "విధ్య": 8097,
      "मुंब": 8098,
      "ము,": 8099,
      "ము.": 8100,
      "ముంబై": 8101,
      "ించే": 8102,
      "ably": 8103,
      "▁हैं:": 8104,
      "ियान": 8105,
      "▁Wile": 8106,
      "▁Western": 8107,
      "▁WTO": 8108,
      "▁Wolper": 8109,
      "ण्डि\n": 8110,
      "ड़िया": 8111,
      "ప్రీ": 8112,
      "ప్రధాన": 8113,
      "ప్రిల్": 8114,
      "రు,": 8115,
      "రులు": 8116,
      "రుగు": 8117,
      "రుషు": 8118,
      "28/http://": 8119,
      "ంగారు": 8120,
      "స్తులు": 8121,
      "▁करती": 8122,
      "▁१२": 8123,
      "▁१३": 8124,
      ".gov/c": 8125,
      "=PA": 8126,
      "ia/p": 8127,
      "ాజిక,": 8128,
      "▁బి": 8129,
      "▁బ్ర": 8130,
      "▁బౌద్ధ": 8131,
      "▁బంగారు": 8132,
      "हायक": 8133,
      "భాగం\n": 8134,
      "aksh": 8135,
      "India's": 8136,
      "लीवि": 8137,
      "ave-": 8138,
      "▁గత": 8139,
      "▁గీతం": 8140,
      "दिखा": 8141,
      "▁Kh": 8142,
      "htm)": 8143,
      "\nభారతదేశంలో": 8144,
      "▁the\nM": 8145,
      "పురి": 8146,
      "పుకో": 8147,
      "పుతూ": 8148,
      "పుణులు": 8149,
      "▁विशेष": 8150,
      "ంలో\nఅ": 8151,
      "▁3,": 8152,
      "▁ఒడి": 8153,
      "▁ఒలం": 8154,
      "24]": 8155,
      "▁साक्षर": 8156,
      "▁सामाजिक": 8157,
      "ండిచ్చే": 8158,
      "ూడు": 8159,
      "ార్థ": 8160,
      "/https://ww\nw": 8161,
      "▁before": 8162,
      "▁पुराण": 8163,
      "▁·\nక": 8164,
      "▁·\nమ": 8165,
      "ంటారు.": 8166,
      "60708012438/http://": 8167,
      "▁విభ": 8168,
      "▁విష": 8169,
      "▁విభిన్న": 8170,
      "▁విమాన": 8171,
      "▁విదేశీ": 8172,
      "▁rock": 8173,
      "▁within": 8174,
      "ishank": 8175,
      "ంచిన": 8176,
      "కిస్తాన్": 8177,
      "▁ఎడ": 8178,
      "▁ఎలక్టో": 8179,
      "▁సంబంధ": 8180,
      "o-pag": 8181,
      "ana.in/": 8182,
      "▁राजा": 8183,
      "▁राजभाषा": 8184,
      "▁राजवंश": 8185,
      "\nసమ": 8186,
      "\nసూచ": 8187,
      "uccess": 8188,
      "ందింది.": 8189,
      "బడింది.": 8190,
      "వాహ": 8191,
      "ustom": 8192,
      "▁हैं।\nभारत": 8193,
      "ద్రవ": 8194,
      "\nकिया": 8195,
      "नीति": 8196,
      "ం\nరాష్ట్ర": 8197,
      "▁होना": 8198,
      "్యంం,": 8199,
      "్యంంగా": 8200,
      "దుగా": 8201,
      "వుతు": 8202,
      "▁7/": 8203,
      "▁समझ": 8204,
      "▁समृद्ध": 8205,
      "రాఠ": 8206,
      "▁శ్రీ": 8207,
      "▁శాసన": 8208,
      "▁శెలవుదిన": 8209,
      "▁హాక": 8210,
      "▁హిమాలయ": 8211,
      "▁చెప్": 8212,
      "▁చెందు": 8213,
      "▁చెంందు": 8214,
      "%202012": 8215,
      "%20tw": 8216,
      "\nకో": 8217,
      "\nకేంద్ర": 8218,
      "▁ఈస్": 8219,
      "▁ఈశాన": 8220,
      "ద్ధం": 8221,
      "808": 8222,
      "▁भील": 8223,
      "-\n882905-8": 8224,
      "▁इसका": 8225,
      "▁via": 8226,
      "prof": 8227,
      "ated-at-": 8228,
      "▁లా": 8229,
      "▁లకు": 8230,
      "▁లౌక": 8231,
      "▁భావిస్త": 8232,
      "▁माध्यम": 8233,
      "ंत्रण": 8234,
      "▁फैली": 8235,
      "▁फ्रां": 8236,
      "▁मुस्लि\nम": 8237,
      "నాథ": 8238,
      "నాడు": 8239,
      "నాభాతో": 8240,
      "▁(2009).": 8241,
      "▁(2006).": 8242,
      "▁पाया": 8243,
      "పావ": 8244,
      "పాటు": 8245,
      "పాడు": 8246,
      "▁కూడి": 8247,
      "▁కూడా\n": 8248,
      "▁కూడుకొ": 8249,
      "▁History.": 8250,
      "to\n": 8251,
      "డివి": 8252,
      "డుతున్న": 8253,
      "ణాటక": 8254,
      "ణాచల్": 8255,
      "ామన్": 8256,
      "్మహల్": 8257,
      "▁లోక్": 8258,
      "▁లోక్సభ": 8259,
      "▁నిపుణులు": 8260,
      "▁నిడివి": 8261,
      "▁pro": 8262,
      "▁మొగలు": 8263,
      "▁सरकार.": 8264,
      "▁978-1-13": 8265,
      "తులతో": 8266,
      "ాన్ని": 8267,
      "▁దక్షిణాసియా": 8268,
      "▁స్థావ": 8269,
      "a\nn": 8270,
      "acter": 8271,
      "▁क्षेत्रफल": 8272,
      "national/hindi": 8273,
      "పాలిటన్": 8274,
      "ర్వోత్తర": 8275,
      "ాలు\nజాతీయ": 8276,
      "▁అధిక\n": 8277,
      "/articles/": 8278,
      "india.gov.in/india-glance/national-symbols": 8279,
      "world-f": 8280,
      "world-asia": 8281,
      "▁ముడి": 8282,
      "▁(http://www.ethnologue.com/": 8283,
      "▁(http://www.statoid": 8284,
      "ాయి.\nభారతదేశం": 8285,
      "▁प्रदेशों": 8286,
      "plate": 8287,
      "▁68–": 8288,
      "&s=N": 8289,
      "-dram": 8290,
      "-does": 8291,
      "వే.": 8292,
      "▁गया।": 8293,
      "▁लोकप्रिय": 8294,
      "▁किसी": 8295,
      "ipuri": 8296,
      "▁[...]": 8297,
      "▁बाहरी": 8298,
      "o\nn": 8299,
      "ofindia.nic.in)\n": 8300,
      "ద్దులు": 8301,
      "overty": 8302,
      "/pag": 8303,
      "▁where": 8304,
      "\nపొందిన": 8305,
      "సిద్ధి": 8306,
      "సిల్లు": 8307,
      "▁స్టా": 8308,
      "▁స్వతంత్ర": 8309,
      "▁స్త్రీలు": 8310,
      "్రమే": 8311,
      "▁देखा": 8312,
      "▁having": 8313,
      "య్యబడింది.": 8314,
      "\nఅనే": 8315,
      "ష్).": 8316,
      "ష్పంం": 8317,
      "▁భాషా": 8318,
      "▁భాషలను": 8319,
      "▁ఆర్కైవు\nచె": 8320,
      "▁धर्मों": 8321,
      "genf/50": 8322,
      "बंधीय": 8323,
      "▁उपयोग": 8324,
      "oliath": 8325,
      "engali": 8326,
      "▁माना": 8327,
      "\nవారస": 8328,
      "కోర్": 8329,
      "దాయం": 8330,
      "దాయంలో": 8331,
      "▁భిన్న": 8332,
      "▁పాటు": 8333,
      "▁కులాలు,": 8334,
      "▁लेकर": 8335,
      "any-": 8336,
      "▁कार्यकाल": 8337,
      "▁leg": 8338,
      "▁सामरिक": 8339,
      "▁तुलना": 8340,
      "-files/": 8341,
      "▁river": 8342,
      "గరం": 8343,
      "▁ఏప్రిల్": 8344,
      "▁పార్టీ,": 8345,
      "▁because": 8346,
      "▁ప్రపంచములో": 8347,
      "▁ఎన్నుకో": 8348,
      "ింది.\nమ": 8349,
      "▁ప్రాంంతీయ": 8350,
      "▁ప్రాంంతాల్లో": 8351,
      "▁2007\n13": 8352,
      "feb": 8353,
      "ँचा": 8354,
      "▁पश्चिमी": 8355,
      "\nజనవరి": 8356,
      "teen": 8357,
      "ంకణి": 8358,
      "ంకెలు": 8359,
      "ంకేతిక": 8360,
      "ంధ్రప్రదేశ": 8361,
      "▁దేశంగా": 8362,
      "amental": 8363,
      "▁ప్రజాస్వామ్య": 8364,
      "▁ప్రజాదరణ": 8365,
      "▁చేసు": 8366,
      "▁చేసే": 8367,
      "ricket": 8368,
      "-court": 8369,
      "-report": 8370,
      "es.de/": 8371,
      "\nतथा": 8372,
      "y-First": 8373,
      "4122": 8374,
      "पात": 8375,
      "हिन्दी": 8376,
      "రోపా": 8377,
      "వీటిలో": 8378,
      "▁हिल्स": 8379,
      "▁పుష్పంం": 8380,
      "గా\nవి": 8381,
      "గా\nఏర్ప": 8382,
      "▁ఉత్తరాన": 8383,
      "ించినట్లు": 8384,
      "ourt/articleshow/54": 8385,
      "210,": 8386,
      "aceutical": 8387,
      "ृद्धि\n": 8388,
      "▁नागरिक": 8389,
      "▁continu": 8390,
      "గినది.": 8391,
      "ఢిల్లీ,": 8392,
      "వ)\nGDP": 8393,
      "ుకుని": 8394,
      "ెలుచుకోవడ": 8395,
      "▁పరీక్ష": 8396,
      "▁కలిగిన": 8397,
      "▁\nప్రపంచ": 8398,
      "▁\nప్రాంంతాలు": 8399,
      "▁రెండో": 8400,
      "▁संघीय": 8401,
      "▁संघर्ष": 8402,
      "ాబ్ది": 8403,
      "▁స్థానం": 8404,
      "▁స్థానాలను": 8405,
      "ities:": 8406,
      "▁बढ़ने": 8407,
      "▁बढ़कर": 8408,
      ".co\nm": 8409,
      ".com/news/national/hindi": 8410,
      "టెడ్": 8411,
      "▁కాలే": 8412,
      "▁వాటి": 8413,
      "▁వాణిజ్య": 8414,
      "▁సంగీ": 8415,
      "▁ప్రదేశ్": 8416,
      "▁ఉంటు": 8417,
      "▁ఉంటాయి.": 8418,
      "▁ఉంటాయి.\n": 8419,
      "▁జనవరి": 8420,
      "▁జనతా": 8421,
      "▁स्थि\nति": 8422,
      "/article3056": 8423,
      "Chapters": 8424,
      "typ": 8425,
      "▁common": 8426,
      "▁well": 8427,
      "▁result": 8428,
      "▁partition": 8429,
      "harmaceutical": 8430,
      "\nयह": 8431,
      "\nవిద్య": 8432,
      "96231": 8433,
      "టీష్": 8434,
      "ట్లాడే": 8435,
      "పూర్వోత్తర": 8436,
      "యోగి": 8437,
      "రాజ్య": 8438,
      "రాజ్యంం": 8439,
      "వర్ణ": 8440,
      "వర్ష": 8441,
      "▁పాలనలో": 8442,
      "స్లిం": 8443,
      "▁\nఉంది.": 8444,
      "▁ప్రభుత్వంం": 8445,
      "▁చిత్ర": 8446,
      "▁చిరు": 8447,
      "▁చిహ్": 8448,
      "▁ఉపఖండ": 8449,
      "త్తా": 8450,
      "▁భారత్,": 8451,
      "▁elect": 8452,
      "▁ఆధీనంలో": 8453,
      "▁గుర్త": 8454,
      "▁గుజర": 8455,
      "▁మొత్తం\n": 8456,
      "▁రాష్ట్రా\nలు": 8457,
      "▁హిందూదేశం": 8458,
      "▁క్రీడా": 8459,
      "▁క్రీడలు": 8460,
      "puran_": 8461,
      "-have-": 8462,
      "B0%A": 8463,
      "▁संबंधों": 8464,
      "-with-the-": 8465,
      "▁report:": 8466,
      "\nदक्षिण": 8467,
      "-not-": 8468,
      "AL%20": 8469,
      "[105]\n": 8470,
      "pectancy": 8471,
      "పేర్లు": 8472,
      "వచ్చని": 8473,
      "▁ఐక్య": 8474,
      "▁ఐరోపా": 8475,
      "▁ద్వీప": 8476,
      "▁मैदानी": 8477,
      "▁పతాక": 8478,
      "▁పోరా": 8479,
      "ింంచే": 8480,
      "▁మనదేశం": 8481,
      "▁మహాత్మా": 8482,
      "▁మహిళ": 8483,
      "▁వ్యాస": 8484,
      "▁సామాజిక,": 8485,
      "▁సినిమాలు": 8486,
      "▁సింధూనది": 8487,
      "▁రోజు": 8488,
      "▁ప్రకారం\n": 8489,
      "▁జరిగిన": 8490,
      "▁జరిగే": 8491,
      "▁తరువాతి": 8492,
      "ographical": 8493,
      "▁విస్తర": 8494,
      "▁ఒకటిగా": 8495,
      "▁కాంగ్రెస్": 8496,
      "▁కాశ్మీర్": 8497,
      "▁పాకిస్తాన్": 8498,
      "▁కేంద్రపాలిత": 8499,
      "▁అధికారిక\nభాష": 8500,
      "ప్పటికినీ": 8501,
      "▁सूचना-विज्ञाान": 8502,
      "▁upper": 8503,
      "▁२००४": 8504,
      "country/IN": 8505,
      "च्छ": 8506,
      "▁इस्लााम": 8507,
      "▁longer": 8508,
      "िक्कि\nम": 8509,
      "s=.&br": 8510,
      "the-world-f": 8511,
      "▁extinct": 8512,
      "\nస్వతంత్ర": 8513,
      "ंटर": 8514,
      "మీటర్": 8515,
      "సాంస్కృతిక": 8516,
      "▁ఖనిజాలు": 8517,
      "▁मौर्य": 8518,
      "▁పాత్ర\nప్ర": 8519,
      "at-High": 8520,
      "▁गई।": 8521,
      "▁సమాజ": 8522,
      "▁సమరం": 8523,
      "▁రంగం": 8524,
      "▁Bengali": 8525,
      "▁ప్రతిపక్ష": 8526,
      "▁कामकाज": 8527,
      "▁చైనా,": 8528,
      "▁చైనాను": 8529,
      "త్వానికి": 8530,
      "▁జాతులు,": 8531,
      "▁నాగరికత": 8532,
      "▁గోదా": 8533,
      "▁సంవత్సర": 8534,
      "▁శతాబ్దంం\nమధ్య": 8535,
      "▁రైల్వేశాఖ": 8536,
      "▁ఏర్పడ్డ": 8537,
      "▁సాధించ": 8538,
      "▁కారణంగా,": 8539,
      "▁పట్టణాలు,": 8540,
      "▁సౌకర్యాలలో": 8541,
      "▁జాబితాలో": 8542,
      "▁జాబితా\nభారతీయ": 8543,
      "▁ఇంగ్లీష్).": 8544,
      "2012AR": 8545,
      "archive.ethnologue.com/15/ethno_docs/distribution.asp?": 8546,
      "emocratic": 8547,
      "\nप्रदेश\n": 8548,
      "ैंक": 8549,
      "▁सदस्यों": 8550,
      "▁पूरा": 8551,
      "▁majority": 8552,
      "▁लोगों": 8553,
      "▁भागीद": 8554,
      "▁राजनीतिक": 8555,
      "nt-have-": 8556,
      "▁\"Human": 8557,
      "▁desc": 8558,
      "global-muslim": 8559,
      "atistic": 8560,
      "▁(https://books.google.com/book\ns?id=": 8561,
      "\nఇతర": 8562,
      "os/in": 8563,
      "ందాయి.": 8564,
      "బాటు": 8565,
      "యితే,": 8566,
      "రేడు": 8567,
      "లేదు": 8568,
      "ీకరణ": 8569,
      "ుుపూర్వోత్తర": 8570,
      "▁యునై": 8571,
      "▁పి.": 8572,
      "▁तीसरी": 8573,
      "ర్కొంంటు": 8574,
      "▁మైథి": 8575,
      "▁మూడు": 8576,
      "▁వైవిధ్య": 8577,
      "▁\nసంస్క": 8578,
      "▁అక్షరాస్యత": 8579,
      "ాయుత": 8580,
      "కుంటూ": 8581,
      "కుంటారు.": 8582,
      "ించింది.\n1991": 8583,
      "ంటుంది.": 8584,
      "▁సంస్కృతి": 8585,
      "\nసంస్కృతి": 8586,
      "▁శాస్త్రీయ": 8587,
      "▁सिंंह": 8588,
      "▁सिंंधु": 8589,
      "www.cia.gov/": 8590,
      "www.cia.gov/c": 8591,
      "national-language-in-": 8592,
      "▁కోర్టు": 8593,
      "▁ప్రపంచంలోని": 8594,
      "▁పుట్టుుపూర్వోత్తర": 8595,
      "▁उत्पाद": 8596,
      "▁బ్రిటిష్": 8597,
      "▁బ్రిటిషు": 8598,
      "▁కాశ్మీరు": 8599,
      "▁పాకిస్థాన్,": 8600,
      "▁తెలుగు,": 8601,
      "ield": 8602,
      "ificant": 8603,
      "▁आगमन": 8604,
      "▁\"Ethnologue": 8605,
      "▁Indo-A": 8606,
      "▁विकसित": 8607,
      "sites/default/files/resources/": 8608,
      "mitt": 8609,
      "टिबंधीय": 8610,
      "▁zon": 8611,
      "▁मील)": 8612,
      "▁जिन्हें": 8613,
      "▁दर्जा": 8614,
      "▁SIL": 8615,
      "▁सेवाओं": 8616,
      "standard": 8617,
      "▁निर्भर": 8618,
      "▁of\nIndia.": 8619,
      "-Court/articleshow/54": 8620,
      "/india%202012": 8621,
      "Times-": 8622,
      "satp": 8623,
      "▁similar": 8624,
      "▁texts": 8625,
      "▁Health": 8626,
      "4695.": 8627,
      "\nబౌద్ధ": 8628,
      "\nపాకిస్తాన్": 8629,
      "\nవేగంగా": 8630,
      "Amend": 8631,
      "మూల": 8632,
      "వ్యవస్థ,": 8633,
      "▁टेलीवि": 8634,
      "▁oldest": 8635,
      "▁టెక్నాలజీ": 8636,
      "▁టైటి": 8637,
      "▁सोवियत": 8638,
      "▁मंत्रिमण्डल": 8639,
      "▁अमरीकी": 8640,
      "▁పూర్వ": 8641,
      "▁పర్యాయాలు": 8642,
      "▁పీఠభూ": 8643,
      "▁जैसे": 8644,
      "▁sources": 8645,
      "▁Sanatan.": 8646,
      "▁Studi": 8647,
      "▁below": 8648,
      "ర్చు": 8649,
      "ర్షణ": 8650,
      "▁आयात": 8651,
      "▁మాట్లాడే": 8652,
      "▁మాతరం": 8653,
      "▁మణిపురి": 8654,
      "▁వలన": 8655,
      "▁వాతావరణం": 8656,
      "▁సిద్ధ": 8657,
      "▁సార్వత్ర": 8658,
      "▁शिक्षा": 8659,
      "▁అరుణాచల్": 8660,
      "▁తిరుగు": 8661,
      "▁पर्यटन": 8662,
      "▁ఇతరులు": 8663,
      "2542-5": 8664,
      "%E0%B0%B": 8665,
      "▁సంప్రదాయాలు": 8666,
      "బడతారు.\n": 8667,
      "\nకాంగ్రె": 8668,
      "\nకూడుకుని": 8669,
      "proxim": 8670,
      "indu.com/feat": 8671,
      "పాలించారు.": 8672,
      "\nविकास": 8673,
      "▁घाटी": 8674,
      "▁సాంప్రదాయిక": 8675,
      "మేనని": 8676,
      "▁జనగణమన": 8677,
      "▁\nకేంద్రపాలిత": 8678,
      "▁ఆధారపడిన": 8679,
      "▁व्यापार": 8680,
      "▁వ్యాపార": 8681,
      "▁ఆఫ్ఘనిస్తాన్": 8682,
      "▁ప్రతిపాదనకు": 8683,
      "అధికారిక": 8684,
      "▁సమాఖ్య.": 8685,
      "ార్లమెంటరీ": 8686,
      "▁కార్యక్రమాలు": 8687,
      "▁డాలర్లు.": 8688,
      "▁ప్రారంభించ": 8689,
      "▁జరుపుకుంటారు.": 8690,
      "▁తలసరి\n": 8691,
      "▁బంగ్లాదేశ్ల": 8692,
      "▁ఎన్నికల్లో": 8693,
      "efficient": 8694,
      "▁indigenous": 8695,
      "▁Research": 8696,
      "▁(https://web.archive.or\ng/": 8697,
      "▁Outlook": 8698,
      "▁Urdu": 8699,
      "157-b": 8700,
      "Gujarat-High": 8701,
      "▁community": 8702,
      "▁अल्प": 8703,
      "▁minorities:": 8704,
      "▁(http://archive.org/details/puran_": 8705,
      "▁Valley": 8706,
      "▁उत्तर-पश्चिम": 8707,
      "/countries/india/": 8708,
      "▁पहुँच": 8709,
      "/article94695.": 8710,
      "view/religion/": 8711,
      "bueros/": 8712,
      "library.f": 8713,
      "▁978-0-19-\n882905-8": 8714,
      "▁(https://web.archiv\ne.org/web/201": 8715,
      "bank.org/indicator/S": 8716,
      "▁Organization": 8717,
      "\nవాణిజ్య": 8718,
      "\nవాతావరణం": 8719,
      "\nదినోత్సవం\n": 8720,
      "&ds=.&br": 8721,
      "&ey=": 8722,
      "-ఢిల్లీ-లా": 8723,
      "/geos/in": 8724,
      "5234047": 8725,
      "Learning-with-the-": 8726,
      "_and_": 8727,
      "bo\nok": 8728,
      "csm=1&s": 8729,
      "friday-re": 8730,
      "factbook/geos/in": 8731,
      "lawsofindia": 8732,
      "no-national-language-in-": 8733,
      "ఢాకా-ఢిల్లీ-లా": 8734,
      "బుల్": 8735,
      "మతం\n0.": 8736,
      "శోకు": 8737,
      "హస్రాబ్ది": 8738,
      "ైదరాబా": 8739,
      "▁దిగువ": 8740,
      "▁क्योंों": 8741,
      "▁मिश्र": 8742,
      "▁अक्तूबर": 8743,
      "ారస్వ": 8744,
      "▁పవిత్ర": 8745,
      "▁పూర్తిగా": 8746,
      "▁కర్ణాటక": 8747,
      "▁క్రైస్త": 8748,
      "▁కిలోమీటర్": 8749,
      "▁Taylor": 8750,
      "▁మంత్రి": 8751,
      "▁మిజో": 8752,
      "▁వందేమాత": 8753,
      "s.html)\nభారత": 8754,
      "▁సూచించినట్లు": 8755,
      "▁\nదక్షిణాన": 8756,
      "agranjosh": 8757,
      "▁రూపాంతర": 8758,
      "ures/friday-re": 8759,
      "▁इंदिरा": 8760,
      "▁Barbara": 8761,
      "▁ప్రయోజన": 8762,
      "▁అంతర్జాతీయ": 8763,
      "▁అత్యంంత": 8764,
      "ల్కాతా\n": 8765,
      "irf.gov/sites/default/files/resources/": 8766,
      "▁తాజ్మహల్": 8767,
      "▁Oneworld": 8768,
      "▁నెలకొ": 8769,
      "मुंबई": 8770,
      "▁Wolpert": 8771,
      "ప్రధానమంత్ర": 8772,
      "▁గీతం:": 8773,
      "दिखाएँ": 8774,
      "▁ఒలంపిక్": 8775,
      "ండిచ్చేరి": 8776,
      "60708012438/http://nclm.nic.in/shared/linkimages/NCLM": 8777,
      "▁ఎలక్టోరల్": 8778,
      "o-pager": 8779,
      "వుతుంది.\n": 8780,
      "▁శెలవుదినాలు": 8781,
      "▁చెప్పుకో": 8782,
      "▁చెందుతున్న": 8783,
      "▁చెంందుతున్న": 8784,
      "%20two-pager": 8785,
      "▁ఈశాన్య": 8786,
      "ated-at-157-b": 8787,
      "▁फ्रांां": 8788,
      "పాడుకుంటూ": 8789,
      "▁కూడుకొని": 8790,
      "world-asia-india-": 8791,
      "▁(http://www.statoids.com/": 8792,
      "-doesnt-have-": 8793,
      "▁స్టాక్": 8794,
      "▁ఆర్కైవు\nచెయ్యబడింది.": 8795,
      "genf/5020": 8796,
      "-files/bueros/": 8797,
      "▁ఎన్నుకోబడతారు.\n": 8798,
      "-court/article94695.": 8799,
      ".com/news/national/hindi-not-": 8800,
      "/article30568.": 8801,
      "Chapters/india%202012": 8802,
      "\nవిద్యుత్": 8803,
      "▁గుజరాత": 8804,
      "[105]\n1,": 8805,
      "▁రోజున": 8806,
      "▁ఏర్పడ్డాయి.": 8807,
      "2012ARChapters/india%202012": 8808,
      "global-muslim-population-": 8809,
      "▁యునైటెడ్": 8810,
      "▁మైథిలి": 8811,
      "▁\nసంస్కరణ": 8812,
      "www.cia.gov/cia/p": 8813,
      "-Court/articleshow/5496231": 8814,
      "▁సార్వత్రిక": 8815,
      "▁తిరుగుబాటు": 8816,
      "indu.com/features/friday-re": 8817,
      "Gujarat-High-Court/articleshow/5496231": 8818,
      "view/religion/global-muslim-population-": 8819,
      "library.fes.de/": 8820,
      "Learning-with-the-Times-": 8821,
      "ఢాకా-ఢిల్లీ-లాహో": 8822,
      "▁కిలోమీటర్లకు": 8823,
      "irf.gov/sites/default/files/resources/2012ARChapters/india%202012": 8824,
      "-doesnt-have-any-": 8825,
      "-files/bueros/genf/5020": 8826,
      ".com/news/national/hindi-not-a-": 8827,
      "indu.com/features/friday-review/religion/global-muslim-population-": 8828,
      "irf.gov/sites/default/files/resources/2012ARChapters/india%202012%20two-pager": 8829,
      "\n2": 8830,
      "\nF": 8831,
      "\n।": 8832,
      "\nIn": 8833,
      "\npr": 8834,
      "\n12": 8835,
      "\n११": 8836,
      "\nजय": 8837,
      "\nयोग": 8838,
      "\nप्रदेशः\n": 8839,
      "\nराष्ट्रप": 8840,
      "\nare": 8841,
      "\nझारखण्ड": 8842,
      "\nज्ञाानं": 8843,
      "\nदेहली\n": 8844,
      "\n0%e0%a5%80%e0%a4%af/%e0%a4%8f%e0%a4%b6%e0%a4%bf%e0%a4%af": 8845,
      "\nराय": 8846,
      "\nमेघालय": 8847,
      "\nभोजपुरी,": 8848,
      "(२०२": 8849,
      "(१३": 8850,
      ")(१३": 8851,
      "+91": 8852,
      "+९१": 8853,
      ",११": 8854,
      ",२७": 8855,
      "-3": 8856,
      "-20": 8857,
      "-रा": 8858,
      "-10": 8859,
      "-से": 8860,
      "-जन": 8861,
      "-9.\n": 8862,
      "-देशः": 8863,
      "-महा": 8864,
      "-कु": 8865,
      "-नेपाल": 8866,
      "-yy": 8867,
      "-निकोबारद्वीप": 8868,
      "-शक्त": 8869,
      "-तिरु": 8870,
      "-२७": 8871,
      "-संशोध": 8872,
      "-result": 8873,
      "-कृष्ण": 8874,
      ".U": 8875,
      ".९": 8876,
      ".economic": 8877,
      ".aspx?": 8878,
      "/कि": 8879,
      "/world": 8880,
      "/news/": 8881,
      "/मै": 8882,
      "/C-01/DDW00C-01%20MDDS.XLS": 8883,
      "/documents/": 8884,
      "1\n": 8885,
      "1st": 8886,
      "130": 8887,
      "2),": 8888,
      "32": 8889,
      "300": 8890,
      "39.": 8891,
      "33.": 8892,
      "400": 8893,
      "4\nग": 8894,
      "52221": 8895,
      "5\n8": 8896,
      "6][": 8897,
      "65%": 8898,
      "7j": 8899,
      "7][": 8900,
      "7%e0%a5%87%e0%a4%a4%e0%a5%8d%e0%a4%b": 8901,
      "8F": 8902,
      "9%": 8903,
      "9/": 8904,
      "92": 8905,
      "9][": 8906,
      ":30": 8907,
      ":\nउ": 8908,
      ":\nव": 8909,
      ":\nल": 8910,
      ":३०": 8911,
      ":\nहिन्दु": 8912,
      "?\"": 8913,
      "Ash": 8914,
      "Alig": 8915,
      "C&pg": 8916,
      "Date": 8917,
      "Dyson": 8918,
      "EX": 8919,
      "European": 8920,
      "HM": 8921,
      "H1L": 8922,
      "Ludd": 8923,
      "O_E": 8924,
      "Q\n": 8925,
      "RC": 8926,
      "TI": 8927,
      "VH1L": 8928,
      "Y7j": 8929,
      "[d": 8930,
      "[e": 8931,
      "[२": 8932,
      "[४": 8933,
      "[...]": 8934,
      "[१]": 8935,
      "_34": 8936,
      "_des": 8937,
      "a).": 8938,
      "aith": 8939,
      "bl": 8940,
      "bat": 8941,
      "be/%e0%a4%ad%e0%a4%be%e0%a4%b": 8942,
      "de": 8943,
      "der": 8944,
      "ded": 8945,
      "duc": 8946,
      "d-m": 8947,
      "ek": 8948,
      "east": 8949,
      "eated": 8950,
      "fi": 8951,
      "fal": 8952,
      "gf": 8953,
      "jan": 8954,
      "k,": 8955,
      "lar": 8956,
      "mc": 8957,
      "mission": 8958,
      "man,": 8959,
      "m-yy": 8960,
      "niversity": 8961,
      "pB": 8962,
      "pire": 8963,
      "params=": 8964,
      "q9": 8965,
      "ras": 8966,
      "rown": 8967,
      "rofile": 8968,
      "s.\n": 8969,
      "s).": 8970,
      "t\n": 8971,
      "tes": 8972,
      "uth": 8973,
      "ue,": 8974,
      "uture": 8975,
      "vent": 8976,
      "wh": 8977,
      "war": 8978,
      "west": 8979,
      "work": 8980,
      "yl": 8981,
      "ya,": 8982,
      "yY7j": 8983,
      "~mag": 8984,
      "ار": 8985,
      "بھ": 8986,
      "ت.\n": 8987,
      "ँन": 8988,
      "ःः,": 8989,
      "अन्त": 8990,
      "अस्ति": 8991,
      "अशोक": 8992,
      "अजर्": 8993,
      "अण्डमाननिकोबारद्वीपसमूह": 8994,
      "अमराव": 8995,
      "आसीत्": 8996,
      "आन्ध्र": 8997,
      "इत्य": 8998,
      "इतर": 8999,
      "इत्ये": 9000,
      "ऊदी": 9001,
      "ऊँन": 9002,
      "एताः": 9003,
      "एशिया": 9004,
      "ऐर्शिकविःः": 9005,
      "ऐजोल": 9006,
      "ओम्": 9007,
      "ओडिया": 9008,
      "कः": 9009,
      "कम": 9010,
      "कव": 9011,
      "कम्": 9012,
      "कवि": 9013,
      "कानि": 9014,
      "कपि": 9015,
      "कर्ण": 9016,
      "कस्थाान": 9017,
      "कोर": 9018,
      "कासा": 9019,
      "कमिनि": 9020,
      "क\nक्र": 9021,
      "खाः": 9022,
      "खसि": 9023,
      "खड\n": 9024,
      "गद": 9025,
      "गदेश": 9026,
      "गान्": 9027,
      "गङ्गा": 9028,
      "ग्रन्": 9029,
      "गङ्गान": 9030,
      "गधी,": 9031,
      "गराणि": 9032,
      "ङगा": 9033,
      "ङगदेश": 9034,
      "चय": 9035,
      "चर": 9036,
      "चत्व": 9037,
      "चिह": 9038,
      "च्यते": 9039,
      "च्यन्ते।": 9040,
      "चंद्र": 9041,
      "छनम्\n": 9042,
      "जल": 9043,
      "जै": 9044,
      "जान": 9045,
      "जिया": 9046,
      "जभाषा": 9047,
      "जैन": 9048,
      "जम्ब": 9049,
      "जबे": 9050,
      "जवाहरलाल": 9051,
      "जी\nकोङ्कण": 9052,
      "जकर्ण": 9053,
      "जगद": 9054,
      "टः": 9055,
      "टव": 9056,
      "टिम": 9057,
      "टोक": 9058,
      "टान्त": 9059,
      "डन": 9060,
      "ड्": 9061,
      "ड्व": 9062,
      "डला": 9063,
      "डी,": 9064,
      "ढव": 9065,
      "ण्व": 9066,
      "णि\n": 9067,
      "णाद": 9068,
      "णेन": 9069,
      "णाराज्य": 9070,
      "णीस": 9071,
      "णाराज्यम्": 9072,
      "ण\nई": 9073,
      "णः\nभारतस्य": 9074,
      "णजी\nकोङ्कण": 9075,
      "तृ": 9076,
      "तया": 9077,
      "तराज्य": 9078,
      "तानि": 9079,
      "ततः": 9080,
      "तनी": 9081,
      "तैव": 9082,
      "तयः,": 9083,
      "थः,": 9084,
      "थनिरपेक्ष": 9085,
      "दं": 9086,
      "दृ": 9087,
      "दया": 9088,
      "दण्ड": 9089,
      "दस्ति": 9090,
      "दर्थ": 9091,
      "दृष्ट": 9092,
      "दोत्": 9093,
      "धश्च": 9094,
      "धाम": 9095,
      "धीी": 9096,
      "धर्मे": 9097,
      "नद्य": 9098,
      "नभारतस्य": 9099,
      "नविध": 9100,
      "नः\nव": 9101,
      "नदर्श": 9102,
      "न\nस्थान": 9103,
      "नखड\n": 9104,
      "नगराणि": 9105,
      "पति": 9106,
      "पान्": 9107,
      "पञ्जााब": 9108,
      "प्न": 9109,
      "पमहाद्वीपे": 9110,
      "पर्वत": 9111,
      "फला,": 9112,
      "फिन": 9113,
      "फलेन": 9114,
      "बङ्ग": 9115,
      "बले": 9116,
      "बौद्ध": 9117,
      "बर्मा": 9118,
      "भत": 9119,
      "भव": 9120,
      "भौ": 9121,
      "भन्ते": 9122,
      "भटः": 9123,
      "मः": 9124,
      "मन्": 9125,
      "मेश": 9126,
      "मन्द": 9127,
      "म्या": 9128,
      "मराज्यम्": 9129,
      "मपि": 9130,
      "मन्त्र": 9131,
      "मस्थान": 9132,
      "मम्)\n": 9133,
      "मदनप": 9134,
      "मये": 9135,
      "ममहाराज्य": 9136,
      "मज्ञाानं": 9137,
      "यर्": 9138,
      "यवि": 9139,
      "यते": 9140,
      "यन्त्र": 9141,
      "यानां": 9142,
      "यताः": 9143,
      "यमस्ति": 9144,
      "यतमः": 9145,
      "यमपि": 9146,
      "रस्य": 9147,
      "रम्\n": 9148,
      "रः,": 9149,
      "र\nव": 9150,
      "रैन": 9151,
      "रळम्\n": 9152,
      "रगि": 9153,
      "रथः,": 9154,
      "लम्\n": 9155,
      "लयः": 9156,
      "लयाः": 9157,
      "लब्ध": 9158,
      "लभत": 9159,
      "ळु": 9160,
      "ळूरु": 9161,
      "ळैः": 9162,
      "वति": 9163,
      "वङ्ग": 9164,
      "वेद": 9165,
      "वाराज्यम्": 9166,
      "वहरलाल": 9167,
      "वैत": 9168,
      "व\nन": 9169,
      "वूरु": 9170,
      "वङगदेश": 9171,
      "शान": 9172,
      "शि\n": 9173,
      "शानि": 9174,
      "शशत": 9175,
      "शताब्": 9176,
      "शाला": 9177,
      "श्याम": 9178,
      "शदधिकनवदशशत": 9179,
      "शताधिकाः": 9180,
      "शक\nक्र": 9181,
      "षस्": 9182,
      "षये": 9183,
      "सृ": 9184,
      "स्र": 9185,
      "सर्": 9186,
      "सति": 9187,
      "समु": 9188,
      "सवा": 9189,
      "सन्ति": 9190,
      "सदि": 9191,
      "सरव": 9192,
      "सदे": 9193,
      "सङ्के": 9194,
      "सपुरम्\n": 9195,
      "सिन्धु": 9196,
      "सम्प्रदा": 9197,
      "सवेश": 9198,
      "सवः\n": 9199,
      "सान्ताल": 9200,
      "सौहार्देन": 9201,
      "स॰\nराज्य": 9202,
      "ह्र": 9203,
      "हत्य": 9204,
      "ह\nलदाख": 9205,
      "ऽथ": 9206,
      "ास्य": 9207,
      "ाः,": 9208,
      "ााने": 9209,
      "ाङ्क": 9210,
      "ाविंशतिःः": 9211,
      "ाधिराज्य": 9212,
      "ा\nवर्त": 9213,
      "ाशदधिकनवदशशत": 9214,
      "िः": 9215,
      "िनी": 9216,
      "िस्थाान": 9217,
      "िराण": 9218,
      "िभर": 9219,
      "िमाचल": 9220,
      "िषस्": 9221,
      "ीराज": 9222,
      "ीत्": 9223,
      "ीीत": 9224,
      "ीर्ष": 9225,
      "ीकु": 9226,
      "ीकृ": 9227,
      "ीशाखा": 9228,
      "ुं": 9229,
      "ुमा": 9230,
      "ुष्ट्र": 9231,
      "ुद्वीप": 9232,
      "ुधर्मः,": 9233,
      "ु\nयोग": 9234,
      "ुखसि": 9235,
      "ुच्यते": 9236,
      "ूना": 9237,
      "ूहा": 9238,
      "ृृ": 9239,
      "ृता": 9240,
      "ेेश": 9241,
      "ेन्द्र": 9242,
      "े\nस": 9243,
      "ेङ्गली": 9244,
      "ैस्त": 9245,
      "ैकानि": 9246,
      "ोः": 9247,
      "ोति": 9248,
      "ोल्": 9249,
      "ोवा": 9250,
      "ोन्न": 9251,
      "ोोष": 9252,
      "ोदयः": 9253,
      "ोभन्ते": 9254,
      "ौ\nअ": 9255,
      "ौराण": 9256,
      "्मे": 9257,
      "्शासन": 9258,
      "्नम्\n": 9259,
      "्\nतेलुगु": 9260,
      "्\nए": 9261,
      "्गि": 9262,
      "्\nनेपाली\n": 9263,
      "।\nअ": 9264,
      "०२०": 9265,
      "०.६": 9266,
      "१)\n": 9267,
      "१२,": 9268,
      "१.६": 9269,
      "१२८": 9270,
      "१[३]": 9271,
      "२)\n": 9272,
      "२२,": 9273,
      "२\nओ": 9274,
      "२१,०": 9275,
      "२[३]": 9276,
      "३\nते": 9277,
      "३तमेन": 9278,
      "३२,८": 9279,
      "४४": 9280,
      "४\nग": 9281,
      "४०००": 9282,
      "४तमेन": 9283,
      "४२,८": 9284,
      "५५": 9285,
      "५६": 9286,
      "५\nक": 9287,
      "५००": 9288,
      "५१६": 9289,
      "५\nद": 9290,
      "५\nराज": 9291,
      "६,२७": 9292,
      "७\nपु": 9293,
      "७\nके": 9294,
      "७,५": 9295,
      "७९.८": 9296,
      "७\nबिहार": 9297,
      "८\nअ": 9298,
      "८तम": 9299,
      "८,५": 9300,
      "९०": 9301,
      "९\nअ": 9302,
      "९७७": 9303,
      "९८तम": 9304,
      "॰स": 9305,
      "॰मा": 9306,
      "॰\nप्रदेशः\n": 9307,
      "ত\n.": 9308,
      "ভা": 9309,
      "রত\n.": 9310,
      "ਤ\n.": 9311,
      "ਭਾ": 9312,
      "ਰਤ\n.": 9313,
      "ત\n.": 9314,
      "ભા": 9315,
      "રત\n.": 9316,
      "ତ\n.": 9317,
      "ଭା": 9318,
      "ରତ\n.": 9319,
      "இந": 9320,
      "தி": 9321,
      "யா": 9322,
      "்தி": 9323,
      "–19": 9324,
      "’इति": 9325,
      "′50": 9326,
      "′30": 9327,
      "−1": 9328,
      "▁0": 9329,
      "▁x": 9330,
      "▁78": 9331,
      "▁80": 9332,
      "▁eng": 9333,
      "▁0:00": 9334,
      "▁eds.": 9335,
      "▁−1": 9336,
      "ines,": 9337,
      "▁कश्च": 9338,
      "▁किम": 9339,
      "▁कानि": 9340,
      "▁कजा": 9341,
      "▁कनि": 9342,
      "▁कतार": 9343,
      "▁कलि": 9344,
      "▁कर्णाटक": 9345,
      "▁कणाद": 9346,
      "्यः\n": 9347,
      "्यक्": 9348,
      "्यनु": 9349,
      "्ययन्त्र": 9350,
      "th\nc": 9351,
      "third": 9352,
      "2050": 9353,
      "▁सस्य": 9354,
      "▁सान्": 9355,
      "▁सुज": 9356,
      "▁सभ्य": 9357,
      "▁सानु": 9358,
      "▁सत्यमेव": 9359,
      "▁सिक्किम": 9360,
      "▁सौहार्देन": 9361,
      "▁सूर्य": 9362,
      "▁सिन्ध": 9363,
      "ारः": 9364,
      "ारिका": 9365,
      "ारिश": 9366,
      "ers.": 9367,
      "ores": 9368,
      "▁(6": 9369,
      "▁(7": 9370,
      "▁(I": 9371,
      "▁(ति": 9372,
      "▁(15": 9373,
      "▁(भारतस्य": 9374,
      "▁(नगर": 9375,
      "▁(१४": 9376,
      "▁(२०२": 9377,
      "▁(सप्त": 9378,
      "▁(UTC+": 9379,
      "▁(द्वितीय": 9380,
      "▁(१२८": 9381,
      "▁(९८तम": 9382,
      "arles": 9383,
      "arah": 9384,
      "div": 9385,
      "tiv": 9386,
      "alp": 9387,
      "aly": 9388,
      "alect": 9389,
      "ened": 9390,
      "▁three": 9391,
      "▁those": 9392,
      "▁पन्": 9393,
      "▁पङ्": 9394,
      "▁पपु": 9395,
      "▁पद्ध": 9396,
      "▁पञ्जााब": 9397,
      "▁पोष": 9398,
      "▁पौराण": 9399,
      "▁मन्त्र": 9400,
      "▁मलयाळम्\n": 9401,
      "▁मोद": 9402,
      "▁मण्डल": 9403,
      "▁मगधी,": 9404,
      "ानस्थाान": 9405,
      "ानम्\nव": 9406,
      "राम्\n": 9407,
      "राः,": 9408,
      "राक्": 9409,
      "राँच": 9410,
      "रादयः": 9411,
      "▁अथा": 9412,
      "▁अङ्ग": 9413,
      "▁असीत्": 9414,
      "▁अधु": 9415,
      "▁अधी": 9416,
      "▁अयं": 9417,
      "▁अस्ती": 9418,
      "▁अतः\n": 9419,
      "▁अण्डमान": 9420,
      "▁अध्यक्ष": 9421,
      "▁अण्व": 9422,
      "▁अधश्च": 9423,
      "▁अयमपि": 9424,
      "म्हा": 9425,
      "म्पर": 9426,
      "म्[२": 9427,
      ".\n4.": 9428,
      ".\n2.": 9429,
      ".\n3.": 9430,
      ".\ngov.in/": 9431,
      "र्वि": 9432,
      "र्जीव": 9433,
      "omes": 9434,
      "ominal": 9435,
      "▁भवति": 9436,
      "ारतं": 9437,
      "atal": 9438,
      "atak": 9439,
      "chec": 9440,
      "▁126": 9441,
      "▁Introduction": 9442,
      "▁partic": 9443,
      "▁pain": 9444,
      "▁वन्द": 9445,
      "▁वङ्ग": 9446,
      "▁वयं": 9447,
      "▁वन्दे": 9448,
      "▁वसाम": 9449,
      "▁।भारत": 9450,
      "न्ध्य": 9451,
      "िकन्द": 9452,
      "िकाः": 9453,
      "▁ज्ये": 9454,
      "▁जलेन": 9455,
[...]
