{
  "version": "1.0",
  "truncation": null,
  "padding": null,
  "added_tokens": [
    {
      "id": 0,
      "content": "[UNK]",
      "single_word": false,
      "lstrip": false,
      "rstrip": false,
      "normalized": false,
      "special": true
    }
  ],
  "normalizer": {
    "type": "NFC"
  },
  "pre_tokenizer": {
    "type": "WhitespaceSplit"
  },
  "post_processor": null,
  "decoder": null,
  "model": {
    "type": "BPE",
    "dropout": null,
    "unk_token": "[UNK]",
    "continuing_subword_prefix": null,
    "end_of_word_suffix": null,
    "fuse_unk": false,
    "byte_fallback": false,
    "ignore_merges": false,
    "vocab": {
      "[UNK]": 0,
      "\"": 1,
      "$": 2,
      "%": 3,
      "&": 4,
      "'": 5,
      "(": 6,
      ")": 7,
      "*": 8,
      "+": 9,
      ",": 10,
      "-": 11,
      ".": 12,
      "/": 13,
      "0": 14,
      "1": 15,
      "2": 16,
      "3": 17,
      "4": 18,
      "5": 19,
      "6": 20,
      "7": 21,
      "8": 22,
      "9": 23,
      ":": 24,
      ";": 25,
      "=": 26,
      "?": 27,
      "A": 28,
      "B": 29,
      "C": 30,
      "D": 31,
      "E": 32,
      "F": 33,
      "G": 34,
      "H": 35,
      "I": 36,
      "J": 37,
      "K": 38,
      "L": 39,
      "M": 40,
      "N": 41,
      "O": 42,
      "P": 43,
      "Q": 44,
      "R": 45,
      "S": 46,
      "T": 47,
      "U": 48,
      "V": 49,
      "W": 50,
      "X": 51,
      "Y": 52,
      "Z": 53,
      "[": 54,
      "]": 55,
      "_": 56,
      "a": 57,
      "b": 58,
      "c": 59,
      "d": 60,
      "e": 61,
      "f": 62,
      "g": 63,
      "h": 64,
      "i": 65,
      "j": 66,
      "k": 67,
      "l": 68,
      "m": 69,
      "n": 70,
      "o": 71,
      "p": 72,
      "q": 73,
      "r": 74,
      "s": 75,
      "t": 76,
      "u": 77,
      "v": 78,
      "w": 79,
      "x": 80,
      "y": 81,
      "z": 82,
      "{": 83,
      "|": 84,
      "}": 85,
      "~": 86,
      "°": 87,
      "·": 88,
      "Ö": 89,
      "á": 90,
      "â": 91,
      "í": 92,
      "ā": 93,
      "ī": 94,
      "Ś": 95,
      "ū": 96,
      "ə": 97,
      "ɦ": 98,
      "ɪ": 99,
      "ɾ": 100,
      "ʊ": 101,
      "ʱ": 102,
      "ˈ": 103,
      "ː": 104,
      "ί": 105,
      "α": 106,
      "δ": 107,
      "ν": 108,
      "ς": 109,
      "ό": 110,
      "ا": 111,
      "ب": 112,
      "ت": 113,
      "ر": 114,
      "ھ": 115,
      "ँ": 116,
      "ं": 117,
      "ः": 118,
      "अ": 119,
      "आ": 120,
      "इ": 121,
      "ई": 122,
      "उ": 123,
      "ऊ": 124,
      "ऋ": 125,
      "ए": 126,
      "ऐ": 127,
      "ऑ": 128,
      "ओ": 129,
      "औ": 130,
      "क": 131,
      "ख": 132,
      "ग": 133,
      "घ": 134,
      "ङ": 135,
      "च": 136,
      "छ": 137,
      "ज": 138,
      "झ": 139,
      "ञ": 140,
      "ट": 141,
      "ठ": 142,
      "ड": 143,
      "ढ": 144,
      "ण": 145,
      "त": 146,
      "थ": 147,
      "द": 148,
      "ध": 149,
      "न": 150,
      "प": 151,
      "फ": 152,
      "ब": 153,
      "भ": 154,
      "म": 155,
      "य": 156,
      "र": 157,
      "ल": 158,
      "ळ": 159,
      "व": 160,
      "श": 161,
      "ष": 162,
      "स": 163,
      "ह": 164,
      "़": 165,
      "ऽ": 166,
      "ा": 167,
      "ि": 168,
      "ी": 169,
      "ु": 170,
      "ू": 171,
      "ृ": 172,
      "े": 173,
      "ै": 174,
      "ॉ": 175,
      "ो": 176,
      "ौ": 177,
      "्": 178,
      "।": 179,
      "॥": 180,
      "०": 181,
      "१": 182,
      "२": 183,
      "३": 184,
      "४": 185,
      "५": 186,
      "६": 187,
      "७": 188,
      "८": 189,
      "९": 190,
      "॰": 191,
      "ত": 192,
      "ভ": 193,
      "র": 194,
      "া": 195,
      "ਤ": 196,
      "ਭ": 197,
      "ਰ": 198,
      "ਾ": 199,
      "ત": 200,
      "ભ": 201,
      "ર": 202,
      "ા": 203,
      "ତ": 204,
      "ଭ": 205,
      "ର": 206,
      "ା": 207,
      "இ": 208,
      "த": 209,
      "ந": 210,
      "ய": 211,
      "ா": 212,
      "ி": 213,
      "்": 214,
      "ం": 215,
      "ః": 216,
      "అ": 217,
      "ఆ": 218,
      "ఇ": 219,
      "ఈ": 220,
      "ఉ": 221,
      "ఋ": 222,
      "ఎ": 223,
      "ఏ": 224,
      "ఐ": 225,
      "ఒ": 226,
      "ఓ": 227,
      "ఔ": 228,
      "క": 229,
      "ఖ": 230,
      "గ": 231,
      "ఘ": 232,
      "చ": 233,
      "ఛ": 234,
      "జ": 235,
      "ఞ": 236,
      "ట": 237,
      "ఠ": 238,
      "డ": 239,
      "ఢ": 240,
      "ణ": 241,
      "త": 242,
      "థ": 243,
      "ద": 244,
      "ధ": 245,
      "న": 246,
      "ప": 247,
      "ఫ": 248,
      "బ": 249,
      "భ": 250,
      "మ": 251,
      "య": 252,
      "ర": 253,
      "ల": 254,
      "ళ": 255,
      "వ": 256,
      "శ": 257,
      "ష": 258,
      "స": 259,
      "హ": 260,
      "ా": 261,
      "ి": 262,
      "ీ": 263,
      "ు": 264,
      "ూ": 265,
      "ృ": 266,
      "ె": 267,
      "ే": 268,
      "ై": 269,
      "ొ": 270,
      "ో": 271,
      "ౌ": 272,
      "్": 273,
      "ṅ": 274,
      "ṇ": 275,
      "ṣ": 276,
      "ṭ": 277,
      "Ἰ": 278,
      "‌": 279,
      "‍": 280,
      "–": 281,
      "—": 282,
      "‘": 283,
      "’": 284,
      "†": 285,
      "•": 286,
      "′": 287,
      "″": 288,
      "₹": 289,
      "ⓘ": 290,
      "th": 291,
      "an": 292,
      "in": 293,
      "the": 294,
      "er": 295,
      "on": 296,
      "al": 297,
      "ar": 298,
      "en": 299,
      "es": 300,
      "at": 301,
      "di": 302,
      "ed": 303,
      "or": 304,
      "and": 305,
      "In": 306,
      "as": 307,
      "of": 308,
      "is": 309,
      "ion": 310,
      "Indi": 311,
      "it": 312,
      "ic": 313,
      "re": 314,
      "ing": 315,
      "्र": 316,
      "्य": 317,
      "to": 318,
      "ent": 319,
      "India": 320,
      "om": 321,
      "ur": 322,
      "ार": 323,
      "st": 324,
      "le": 325,
      "ou": 326,
      "am": 327,
      "ly": 328,
      "ec": 329,
      "il": 330,
      "్ర": 331,
      "्त": 332,
      "ान": 333,
      "Th": 334,
      "ad": 335,
      "ter": 336,
      "ol": 337,
      "ri": 338,
      "रा": 339,
      "ార": 340,
      "ch": 341,
      "र्": 342,
      "em": 343,
      "ation": 344,
      "के": 345,
      "म्": 346,
      "The": 347,
      "19": 348,
      "ul": 349,
      "ver": 350,
      "li": 351,
      "20": 352,
      "भार": 353,
      "भारत": 354,
      "లు": 355,
      "मे": 356,
      "ra": 357,
      "ro": 358,
      "ce": 359,
      "ag": 360,
      "for": 361,
      "प्र": 362,
      "ut": 363,
      "be": 364,
      "ve": 365,
      "est": 366,
      "us": 367,
      "का": 368,
      "by": 369,
      "Indian": 370,
      "s,": 371,
      "lo": 372,
      "ang": 373,
      "se": 374,
      "con": 375,
      "स्": 376,
      "में": 377,
      "un": 378,
      "वि": 379,
      "im": 380,
      "de": 381,
      "wi": 382,
      "या": 383,
      "ate": 384,
      "లో": 385,
      "్య": 386,
      "न्": 387,
      "'s": 388,
      "ir": 389,
      "gh": 390,
      "दे": 391,
      "ast": 392,
      "ist": 393,
      "స్": 394,
      "है": 395,
      "ct": 396,
      "wh": 397,
      "with": 398,
      "su": 399,
      "s.": 400,
      "was": 401,
      "దే": 402,
      "00": 403,
      "ex": 404,
      "ab": 405,
      "ది": 406,
      "rom": 407,
      "du": 408,
      "ना": 409,
      "న్": 410,
      "ప్ర": 411,
      "ిం": 412,
      "దేశ": 413,
      "देश": 414,
      "op": 415,
      "ong": 416,
      "िक": 417,
      "si": 418,
      "ain": 419,
      "et": 420,
      "ర్": 421,
      "ies": 422,
      "res": 423,
      "स्य": 424,
      "ాల": 425,
      "ak": 426,
      "ని": 427,
      "art": 428,
      "राज": 429,
      "um": 430,
      "ay": 431,
      "सं": 432,
      "der": 433,
      "ical": 434,
      "ीय": 435,
      "मा": 436,
      "భార": 437,
      "wer": 438,
      "over": 439,
      "are": 440,
      "భారత": 441,
      "ill": 442,
      "ों": 443,
      "from": 444,
      "has": 445,
      "ment": 446,
      "ति": 447,
      "ial": 448,
      "ता": 449,
      "से": 450,
      "mo": 451,
      "ich": 452,
      "co": 453,
      "rit": 454,
      "ने": 455,
      "भा": 456,
      "com": 457,
      "el": 458,
      "sh": 459,
      "्व": 460,
      "ity": 461,
      "ear": 462,
      "sp": 463,
      "क्": 464,
      "which": 465,
      "की": 466,
      "ap": 467,
      "India's": 468,
      "ष्": 469,
      "और": 470,
      "a,": 471,
      "ాలు": 472,
      "ther": 473,
      "so": 474,
      "cent": 475,
      "id": 476,
      "न्त": 477,
      "ac": 478,
      "per": 479,
      "cl": 480,
      "me": 481,
      "स्त": 482,
      "ిక": 483,
      "ult": 484,
      "cont": 485,
      "hi": 486,
      "ot": 487,
      "क्ष": 488,
      "wor": 489,
      "ాత": 490,
      "त्र": 491,
      "सा": 492,
      "గా": 493,
      "oun": 494,
      "201": 495,
      "lar": 496,
      "ant": 497,
      "న్న": 498,
      "ary": 499,
      "its": 500,
      "ది.": 501,
      "ig": 502,
      "ure": 503,
      "राज्य": 504,
      "ाल": 505,
      "Hin": 506,
      "ive": 507,
      "ld": 508,
      "pro": 509,
      "ance": 510,
      "न्द": 511,
      "ort": 512,
      "ish": 513,
      "pl": 514,
      "ud": 515,
      "हि": 516,
      "Ch": 517,
      "uag": 518,
      "anguag": 519,
      "క్": 520,
      "end": 521,
      "gion": 522,
      "కు": 523,
      "వి": 524,
      "था": 525,
      "ru": 526,
      "्या": 527,
      "tern": 528,
      "form": 529,
      "ङ्": 530,
      "0%": 531,
      "िया": 532,
      "ans": 533,
      "larg": 534,
      "af": 535,
      "ित": 536,
      "ष्ट": 537,
      "ాయ": 538,
      "econ": 539,
      "were": 540,
      "1,": 541,
      "ते": 542,
      "ber": 543,
      "पर": 544,
      "es,": 545,
      "ism": 546,
      "we": 547,
      "languag": 548,
      "రా": 549,
      "है।": 550,
      "ated": 551,
      "od": 552,
      "्च": 553,
      "ha": 554,
      "पु": 555,
      "aj": 556,
      "gen": 557,
      "outh": 558,
      "దేశం": 559,
      "iv": 560,
      "ను": 561,
      "ీయ": 562,
      "all": 563,
      "र्व": 564,
      "e,": 565,
      "i,": 566,
      "ass": 567,
      "ame": 568,
      "mar": 569,
      "po": 570,
      "pt": 571,
      "ండ": 572,
      "CE": 573,
      "min": 574,
      "part": 575,
      "port": 576,
      "ry": 577,
      "ంత": 578,
      "ల్": 579,
      "ిన": 580,
      "uring": 581,
      "low": 582,
      "త్": 583,
      "ము": 584,
      "त्": 585,
      "ational": 586,
      "मि": 587,
      "్ట": 588,
      "illion": 589,
      "शा": 590,
      "ough": 591,
      "वा": 592,
      "ष्ट्र": 593,
      "ला": 594,
      "को": 595,
      "cre": 596,
      "ద్": 597,
      "any": 598,
      "ous": 599,
      "ect": 600,
      "overn": 601,
      "centur": 602,
      "हा": 603,
      "200": 604,
      "India,": 605,
      "stit": 606,
      "bec": 607,
      "मु": 608,
      "రి": 609,
      "ution": 610,
      "कर": 611,
      "av": 612,
      "जा": 613,
      "eral": 614,
      "econom": 615,
      "सि": 616,
      "og": 617,
      "षा": 618,
      "nor": 619,
      "y,": 620,
      "ction": 621,
      "Hindu": 622,
      "स्थ": 623,
      "कि": 624,
      "भारतीय": 625,
      "fir": 626,
      "ow": 627,
      "कार": 628,
      "into": 629,
      "overnment": 630,
      "1.": 631,
      "कृ": 632,
      "री": 633,
      "जन": 634,
      "Ind": 635,
      "26": 636,
      "lat": 637,
      "pop": 638,
      "राष्ट्र": 639,
      "ించ": 640,
      "4%": 641,
      "dit": 642,
      "world": 643,
      "दि": 644,
      "50": 645,
      "region": 646,
      "but": 647,
      "oc": 648,
      "uc": 649,
      "धान": 650,
      "द्": 651,
      "ally": 652,
      "sub": 653,
      "ली": 654,
      "during": 655,
      "up": 656,
      "year": 657,
      "తి": 658,
      "స్త": 659,
      "first": 660,
      "popul": 661,
      "ates": 662,
      "qu": 663,
      "స్థ": 664,
      "हैं": 665,
      "ंग": 666,
      "ine": 667,
      "atic": 668,
      "भाषा": 669,
      "Asi": 670,
      "land": 671,
      "वर्": 672,
      "ాన": 673,
      "ence": 674,
      "pe": 675,
      "त्त": 676,
      "government": 677,
      "pri": 678,
      "ress": 679,
      "नि": 680,
      "हिन्द": 681,
      "dh": 682,
      "dec": 683,
      "fe": 684,
      "har": 685,
      "sy": 686,
      "ంగ": 687,
      "incl": 688,
      "ister": 689,
      "reli": 690,
      "India.": 691,
      "after": 692,
      "bl": 693,
      "पा": 694,
      "పు": 695,
      "eng": 696,
      "stitution": 697,
      "हु": 698,
      "South": 699,
      "bo": 700,
      "ci": 701,
      "ple": 702,
      "ric": 703,
      "ड़": 704,
      "రు": 705,
      "ore": 706,
      "मान": 707,
      "प्रदेश": 708,
      "ङ्ग": 709,
      "gan": 710,
      "ved": 711,
      "them": 712,
      "ext": 713,
      "dition": 714,
      "par": 715,
      "ण्": 716,
      "ele": 717,
      "ire": 718,
      "rad": 719,
      "tra": 720,
      "es.": 721,
      "ght": 722,
      "ింది.": 723,
      "భారతదేశం": 724,
      "largest": 725,
      "शास": 726,
      "ew": 727,
      "द्व": 728,
      "श्च": 729,
      "ంలో": 730,
      "ులు": 731,
      "सम": 732,
      "An": 733,
      "her": 734,
      "had": 735,
      "ok": 736,
      "vi": 737,
      "ి.": 738,
      "row": 739,
      "dern": 740,
      "ound": 741,
      "र्म": 742,
      "ep": 743,
      "196": 744,
      "संस्": 745,
      "गी": 746,
      "सी": 747,
      "0.": 748,
      "7,": 749,
      "mer": 750,
      "ः,": 751,
      "It": 752,
      "dance": 753,
      "fic": 754,
      "long": 755,
      "num": 756,
      "pol": 757,
      "tw": 758,
      "భా": 759,
      "సం": 760,
      "also": 761,
      "estern": 762,
      "ome": 763,
      "stem": 764,
      "age": 765,
      "bet": 766,
      "been": 767,
      "used": 768,
      "ajor": 769,
      "became": 770,
      "system": 771,
      "ती": 772,
      "बा": 773,
      "ले": 774,
      "स्थान": 775,
      "),": 776,
      "धिक": 777,
      "ces": 778,
      "cor": 779,
      "mon": 780,
      "sc": 781,
      "ser": 782,
      "त्य": 783,
      "ంట": 784,
      "జాత": 785,
      "ased": 786,
      "have": 787,
      "18": 788,
      "ral": 789,
      "ानि": 790,
      "202": 791,
      "cial": 792,
      "fl": 793,
      "mus": 794,
      "million": 795,
      "more": 796,
      "ni": 797,
      "pire": 798,
      "war": 799,
      "वर": 800,
      "amil": 801,
      "199": 802,
      "imal": 803,
      "thern": 804,
      "contin": 805,
      "minister": 806,
      "ian": 807,
      "o-": 808,
      "पू": 809,
      "प्रा": 810,
      "संस्कृ": 811,
      "ach": 812,
      "ल्": 813,
      "१९": 814,
      "Cong": 815,
      "వా": 816,
      "ount": 817,
      "ss": 818,
      "गर": 819,
      "2.": 820,
      "ण्ड": 821,
      "17": 822,
      "Bud": 823,
      "ban": 824,
      "cast": 825,
      "major": 826,
      "not": 827,
      "y.": 828,
      "ంగా": 829,
      "ైన": 830,
      "incre": 831,
      "ural": 832,
      "lim": 833,
      "such": 834,
      "most": 835,
      "music": 836,
      "हिन्दी": 837,
      "ced": 838,
      "our": 839,
      "other": 840,
      "their": 841,
      "ens": 842,
      "out": 843,
      "ాయి.": 844,
      "Congress": 845,
      "a.": 846,
      "अन": 847,
      "नी": 848,
      "ां": 849,
      "िण": 850,
      "भारतस्य": 851,
      "BCE": 852,
      "Un": 853,
      "ff": 854,
      "gre": 855,
      "grow": 856,
      "hm": 857,
      "kh": 858,
      "ma": 859,
      "main": 860,
      "pr": 861,
      "ची": 862,
      "ధిక": 863,
      "సా": 864,
      "ూడ": 865,
      "that": 866,
      "ani": 867,
      "lear": 868,
      "ార్": 869,
      "194": 870,
      "modern": 871,
      "class": 872,
      "క్ష": 873,
      "ween": 874,
      "years": 875,
      "population": 876,
      "prime": 877,
      "tradition": 878,
      "number": 879,
      "two": 880,
      "జాతీయ": 881,
      "Con": 882,
      "दी": 883,
      "न्ति": 884,
      "4.": 885,
      "धर्म": 886,
      "लि": 887,
      "ath": 888,
      "ubl": 889,
      "तथा": 890,
      "ध्य": 891,
      "यः": 892,
      "ంది.": 893,
      "ఉన్న": 894,
      "ిత": 895,
      "ublic": 896,
      "द्र": 897,
      "िका": 898,
      "1950": 899,
      "5.": 900,
      "भू": 901,
      "गीत": 902,
      "Af": 903,
      "Al": 904,
      "Em": 905,
      "Eur": 906,
      "krit": 907,
      "led": 908,
      "pre": 909,
      "టి": 910,
      "్చ": 911,
      "one": 912,
      "ition": 913,
      "ार्": 914,
      "ament": 915,
      "who": 916,
      "000": 917,
      "ulture": 918,
      "large": 919,
      "రాజ": 920,
      "both": 921,
      "ph": 922,
      "एक": 923,
      "दा": 924,
      "स्ति": 925,
      "3,": 926,
      "tt": 927,
      "ारा": 928,
      "द्ध": 929,
      "2,": 930,
      "Gu": 931,
      "हो": 932,
      "isation": 933,
      "ారు": 934,
      "जि": 935,
      "e0%": 936,
      "भी": 937,
      "विश": 938,
      "राज्यम्": 939,
      "e0%a": 940,
      "30": 941,
      "Sans": 942,
      "aw": 943,
      "rough": 944,
      "పా": 945,
      "though": 946,
      "ince": 947,
      "arn": 948,
      "esh": 949,
      "diver": 950,
      "urban": 951,
      "anges": 952,
      "under": 953,
      "istan": 954,
      "exp": 955,
      "language": 956,
      "languages": 957,
      "world's": 958,
      "वर्ष": 959,
      "includ": 960,
      "between": 961,
      "Buddh": 962,
      "Sanskrit": 963,
      "National": 964,
      "तः": 965,
      "28": 966,
      "हैं।": 967,
      "ाः": 968,
      "मुख": 969,
      "count": 970,
      "కి": 971,
      "ited": 972,
      "omin": 973,
      "ప్రా": 974,
      "रू": 975,
      "ft": 976,
      "lish": 977,
      "लो": 978,
      "Brit": 979,
      "Ma": 980,
      "Mo": 981,
      "ca": 982,
      "fol": 983,
      "gar": 984,
      "lit": 985,
      "many": 986,
      "western": 987,
      "पि": 988,
      "ద్ర": 989,
      "పం": 990,
      "ష్ట": 991,
      "this": 992,
      "on-": 993,
      "ree": 994,
      "leg": 995,
      "ement": 996,
      "began": 997,
      "sup": 998,
      "able": 999,
      "rule": 1000,
      "economic": 1001,
      "uclear": 1002,
      "election": 1003,
      "continent": 1004,
      "Empire": 1005,
      "British": 1006,
      "3.": 1007,
      "क्त": 1008,
      "दक्ष": 1009,
      "न्द्र": 1010,
      "दक्षिण": 1011,
      ").": 1012,
      "ीप": 1013,
      "ान्": 1014,
      "विधान": 1015,
      "Beng": 1016,
      "St": 1017,
      "ding": 1018,
      "tr": 1019,
      "क्र": 1020,
      "मी": 1021,
      "रु": 1022,
      "కా": 1023,
      "తం": 1024,
      "నే": 1025,
      "పే": 1026,
      "ere": 1027,
      "ari": 1028,
      "olog": 1029,
      "ంత్ర": 1030,
      "own": 1031,
      "Bengal": 1032,
      "ेण": 1033,
      "5,": 1034,
      "En": 1035,
      "late": 1036,
      "ust": 1037,
      "6%": 1038,
      "Com": 1039,
      "Del": 1040,
      "Pun": 1041,
      "Pak": 1042,
      "Si": 1043,
      "Tamil": 1044,
      "bal": 1045,
      "he": 1046,
      "ket": 1047,
      "mil": 1048,
      "rate": 1049,
      "south": 1050,
      "tim": 1051,
      "కో": 1052,
      "చ్చ": 1053,
      "ana": 1054,
      "infl": 1055,
      "erg": 1056,
      "ised": 1057,
      "urt": 1058,
      "ures": 1059,
      "among": 1060,
      "ly,": 1061,
      "ade": 1062,
      "river": 1063,
      "ular": 1064,
      "velo": 1065,
      "ghal": 1066,
      "cted": 1067,
      "ially": 1068,
      "peri": 1069,
      "work": 1070,
      "2011": 1071,
      "ism,": 1072,
      "general": 1073,
      "lowing": 1074,
      "north": 1075,
      "northern": 1076,
      "later": 1077,
      "caste": 1078,
      "Pakistan": 1079,
      "influ": 1080,
      "शासन": 1081,
      "पूर्व": 1082,
      "उत्त": 1083,
      "सर्व": 1084,
      "देशः": 1085,
      "यु": 1086,
      "-d": 1087,
      "ef": 1088,
      "ped": 1089,
      "२०": 1090,
      "క్ర": 1091,
      "జన": 1092,
      "మొ": 1093,
      "వ్య": 1094,
      "197": 1095,
      "ople": 1096,
      "ritor": 1097,
      "पाल": 1098,
      "10": 1099,
      "7%": 1100,
      "द्य": 1101,
      "महा": 1102,
      "ी,": 1103,
      "न्त्र": 1104,
      "Indo-": 1105,
      "सन्ति": 1106,
      "क्षे": 1107,
      "Is": 1108,
      "Mu": 1109,
      "ai": 1110,
      "ev": 1111,
      "jab": 1112,
      "pur": 1113,
      "ris": 1114,
      "since": 1115,
      "te": 1116,
      "ట్ట": 1117,
      "దు": 1118,
      "పాల": 1119,
      "మా": 1120,
      "old": 1121,
      "life": 1122,
      "liament": 1123,
      "develo": 1124,
      "istor": 1125,
      "ies,": 1126,
      "spec": 1127,
      "high": 1128,
      "Chin": 1129,
      "power": 1130,
      "ండి": 1131,
      "ద్ధ": 1132,
      "century": 1133,
      "classical": 1134,
      "Europ": 1135,
      "Delhi": 1136,
      "Punjab": 1137,
      "Mughal": 1138,
      "इस": 1139,
      "जी": 1140,
      "रे": 1141,
      "0:": 1142,
      "15": 1143,
      "gr": 1144,
      "ving": 1145,
      "गण": 1146,
      "కూడ": 1147,
      "చె": 1148,
      "సి": 1149,
      "than": 1150,
      "orig": 1151,
      "ations": 1152,
      "భారతీయ": 1153,
      "Hindi": 1154,
      "pos": 1155,
      "e0%a4%": 1156,
      "0:00": 1157,
      "origin": 1158,
      "विश्व": 1159,
      "क्षेत्र": 1160,
      "9.": 1161,
      "गु": 1162,
      "तक": 1163,
      "मह": 1164,
      "यो": 1165,
      "वी": 1166,
      "द्वीप": 1167,
      "इति": 1168,
      "By": 1169,
      "Himal": 1170,
      "Mus": 1171,
      "hum": 1172,
      "histor": 1173,
      "mid": 1174,
      "o,": 1175,
      "os": 1176,
      "pany": 1177,
      "red": 1178,
      "rol": 1179,
      "sur": 1180,
      "ten": 1181,
      "west": 1182,
      "ya": 1183,
      "ం,": 1184,
      "గు": 1185,
      "చే": 1186,
      "లి": 1187,
      "వాత": 1188,
      "్ల": 1189,
      "there": 1190,
      "ers": 1191,
      "ing,": 1192,
      "sty": 1193,
      "ech": 1194,
      "right": 1195,
      "constitution": 1196,
      "ately": 1197,
      "ies.": 1198,
      "ically": 1199,
      "భారతదేశ": 1200,
      "social": 1201,
      "ultan": 1202,
      "ign": 1203,
      "subcontinent": 1204,
      "people": 1205,
      "parliament": 1206,
      "increased": 1207,
      "After": 1208,
      "including": 1209,
      "liter": 1210,
      "period": 1211,
      "Europe": 1212,
      "Himalay": 1213,
      "सद": 1214,
      "12": 1215,
      "5%": 1216,
      "cal": 1217,
      "no": 1218,
      "rat": 1219,
      "अस्ति": 1220,
      "ज्य": 1221,
      "प्त": 1222,
      "తర": 1223,
      "బడ": 1224,
      "యా": 1225,
      "వే": 1226,
      "offic": 1227,
      "ite": 1228,
      "produ": 1229,
      "गो": 1230,
      "सिन्": 1231,
      "ंत्र": 1232,
      "णा": 1233,
      "तिः": 1234,
      "ack": 1235,
      "Eng": 1236,
      "्रे": 1237,
      "पुर": 1238,
      "East": 1239,
      "Jain": 1240,
      "S$": 1241,
      "US$": 1242,
      "ble": 1243,
      "billion": 1244,
      "ck": 1245,
      "ded": 1246,
      "man": 1247,
      "mill": 1248,
      "ned": 1249,
      "new": 1250,
      "nuclear": 1251,
      "pres": 1252,
      "public": 1253,
      "ren": 1254,
      "sch": 1255,
      "sity": 1256,
      "ually": 1257,
      "vement": 1258,
      "कु": 1259,
      "ब्": 1260,
      "ये": 1261,
      "కే": 1262,
      "రై": 1263,
      "theast": 1264,
      "enni": 1265,
      "ese": 1266,
      "ess": 1267,
      "as,": 1268,
      "itary": 1269,
      "state": 1270,
      "lead": 1271,
      "్రా": 1272,
      "emp": 1273,
      "ation,": 1274,
      "fore": 1275,
      "wide": 1276,
      "ird": 1277,
      "ident": 1278,
      "medi": 1279,
      "ల్ల": 1280,
      "త్వ": 1281,
      "Indus": 1282,
      "occ": 1283,
      "religion": 1284,
      "cient": 1285,
      "ారు.": 1286,
      "millenni": 1287,
      "millennium": 1288,
      "णि": 1289,
      "व्य": 1290,
      "सर": 1291,
      "national": 1292,
      "जो": 1293,
      "मध्य": 1294,
      "198": 1295,
      "षु": 1296,
      "याः": 1297,
      "3%": 1298,
      "DP": 1299,
      "GDP": 1300,
      "ds": 1301,
      "fin": 1302,
      "ge": 1303,
      "mi": 1304,
      "ob": 1305,
      "किया": 1306,
      "ज़": 1307,
      "ఖ్య": 1308,
      "డు": 1309,
      "ణా": 1310,
      "తో": 1311,
      "వు": 1312,
      "ript": 1313,
      "ember": 1314,
      "ింద": 1315,
      "రాష్ట": 1316,
      "served": 1317,
      "Guj": 1318,
      "country": 1319,
      "रूप": 1320,
      "मन": 1321,
      "हर": 1322,
      "संविधान": 1323,
      "2%": 1324,
      "Plate": 1325,
      "left": 1326,
      "ंग्रे": 1327,
      "English": 1328,
      "Cent": 1329,
      "वे": 1330,
      "संस्कृत": 1331,
      "चीन": 1332,
      "उत्तर": 1333,
      "-largest": 1334,
      "6.": 1335,
      "7.": 1336,
      "Gand": 1337,
      "Ganges": 1338,
      "Per": 1339,
      "Prad": 1340,
      "cy": 1341,
      "col": 1342,
      "cap": 1343,
      "eas": 1344,
      "far": 1345,
      "ga": 1346,
      "gi": 1347,
      "ke": 1348,
      "king": 1349,
      "ne": 1350,
      "non-": 1351,
      "ood": 1352,
      "prom": 1353,
      "ron": 1354,
      "tal": 1355,
      "tri": 1356,
      "ude": 1357,
      "కొ": 1358,
      "ధ్య": 1359,
      "మైన": 1360,
      "వచ్చ": 1361,
      "through": 1362,
      "ann": 1363,
      "int": 1364,
      "arch": 1365,
      "esp": 1366,
      "asing": 1367,
      "omen": 1368,
      "str": 1369,
      "aman": 1370,
      "ild": 1371,
      "र्थ": 1372,
      "emerg": 1373,
      "agric": 1374,
      "forest": 1375,
      "cons": 1376,
      "स्व": 1377,
      "court": 1378,
      "ell": 1379,
      "early": 1380,
      "spe": 1381,
      "app": 1382,
      "contri": 1383,
      "control": 1384,
      "play": 1385,
      "ivil": 1386,
      "Asia": 1387,
      "polit": 1388,
      "majority": 1389,
      "diversity": 1390,
      "caused": 1391,
      "Company": 1392,
      "Sikh": 1393,
      "influen": 1394,
      "Muslim": 1395,
      "European": 1396,
      "Gandhi": 1397,
      "Pradesh": 1398,
      "िय": 1399,
      "स्था": 1400,
      "नाम": 1401,
      "श्र": 1402,
      "ही": 1403,
      "भाग": 1404,
      "वर्त": 1405,
      "न्या": 1406,
      "लोक": 1407,
      "1%": 1408,
      "Bh": 1409,
      "Dem": 1410,
      "c.": 1411,
      "can": 1412,
      "some": 1413,
      "सब": 1414,
      "అధిక": 1415,
      "డి": 1416,
      "ాబ": 1417,
      "arat": 1418,
      "disp": 1419,
      "ions": 1420,
      "territor": 1421,
      "estim": 1422,
      "న్ని": 1423,
      "ాలు,": 1424,
      "cording": 1425,
      "ensus": 1426,
      "United": 1427,
      "Constitution": 1428,
      "सरकार": 1429,
      "Gujarat": 1430,
      "बे": 1431,
      "बहु": 1432,
      "13": 1433,
      "Am": 1434,
      "Ass": 1435,
      "Sh": 1436,
      "तु": 1437,
      "तन्त्र": 1438,
      "यह": 1439,
      "साथ": 1440,
      "सबसे": 1441,
      "ंड": 1442,
      "दू": 1443,
      "पश्च": 1444,
      "पश्चि": 1445,
      "Dance": 1446,
      "Jan": 1447,
      "Kas": 1448,
      "au": 1449,
      "ace": 1450,
      "bu": 1451,
      "culture": 1452,
      "dom": 1453,
      "eh": 1454,
      "east": 1455,
      "fi": 1456,
      "found": 1457,
      "last": 1458,
      "ose": 1459,
      "owe": 1460,
      "pan": 1461,
      "pend": 1462,
      "ram": 1463,
      "rural": 1464,
      "secon": 1465,
      "ंध": 1466,
      "ఆర్": 1467,
      "కార": 1468,
      "కాల": 1469,
      "త్య": 1470,
      "మార్": 1471,
      "వస్థ": 1472,
      "హింద": 1473,
      "ాని": 1474,
      "third": 1475,
      "ank": 1476,
      "ins": 1477,
      "ers,": 1478,
      "att": 1479,
      "dire": 1480,
      "am,": 1481,
      "ver,": 1482,
      "raph": 1483,
      "loy": 1484,
      "lower": 1485,
      "దిన": 1486,
      "dust": 1487,
      "sig": 1488,
      "aint": 1489,
      "ర్వ": 1490,
      "cook": 1491,
      "soci": 1492,
      "religi": 1493,
      "భాష": 1494,
      "बाद": 1495,
      "mathem": 1496,
      "Buddhist": 1497,
      "ప్రాంత": 1498,
      "పంచ": 1499,
      "military": 1500,
      "ultanate": 1501,
      "Kashm": 1502,
      "owever,": 1503,
      "second": 1504,
      "एव": 1505,
      "च्च": 1506,
      "धी": 1507,
      "ब्र": 1508,
      "सम्": 1509,
      "धिकार": 1510,
      "भूमि": 1511,
      "%e0%a4%": 1512,
      "4,": 1513,
      "ty": 1514,
      "जय": 1515,
      "००": 1516,
      "und": 1517,
      "न्न": 1518,
      "हिमा": 1519,
      "8.": 1520,
      "Ac": 1521,
      "Se": 1522,
      "air": 1523,
      "census": 1524,
      "ip": 1525,
      "vis": 1526,
      "ओं": 1527,
      "ढ़": 1528,
      "ంబ": 1529,
      "తు": 1530,
      "పె": 1531,
      "పార": 1532,
      "ీ,": 1533,
      "indi": 1534,
      "ater": 1535,
      "use": 1536,
      "దేశాల": 1537,
      "माण": 1538,
      "భారతదేశంలో": 1539,
      "ఉన్నాయి.": 1540,
      "రాజ్య": 1541,
      "వ్యవస్థ": 1542,
      "समा": 1543,
      "ाय": 1544,
      "Ar": 1545,
      "तमे": 1546,
      "सार": 1547,
      "विध": 1548,
      "सीत्": 1549,
      "9,": 1550,
      "Bra": 1551,
      "Nor": 1552,
      "Neh": 1553,
      "Raj": 1554,
      "Tem": 1555,
      "Wor": 1556,
      "bi": 1557,
      "bre": 1558,
      "car": 1559,
      "cit": 1560,
      "dle": 1561,
      "daman": 1562,
      "fer": 1563,
      "hou": 1564,
      "ight": 1565,
      "men": 1566,
      "made": 1567,
      "member": 1568,
      "paint": 1569,
      "sing": 1570,
      "ta": 1571,
      "tur": 1572,
      "tech": 1573,
      "uch": 1574,
      "vent": 1575,
      "women": 1576,
      "yan": 1577,
      "ख्या": 1578,
      "तर": 1579,
      "मत": 1580,
      "मू": 1581,
      "ఉంది.": 1582,
      "దా": 1583,
      "ధాన": 1584,
      "మీ": 1585,
      "మే": 1586,
      "మధ్య": 1587,
      "రో": 1588,
      "శా": 1589,
      "సభ": 1590,
      "indust": 1591,
      "they": 1592,
      "ered": 1593,
      "ali": 1594,
      "als": 1595,
      "alle": 1596,
      "ar,": 1597,
      "arm": 1598,
      "dis": 1599,
      "diff": 1600,
      "ice": 1601,
      "ics": 1602,
      "reat": 1603,
      "ings": 1604,
      "omet": 1605,
      "ecially": 1606,
      "chang": 1607,
      "very": 1608,
      "rop": 1609,
      "rock": 1610,
      "depend": 1611,
      "ప్రపంచ": 1612,
      "movement": 1613,
      "coal": 1614,
      "coast": 1615,
      "common": 1616,
      "central": 1617,
      "plain": 1618,
      "party": 1619,
      "ద్ద": 1620,
      "century,": 1621,
      "economy": 1622,
      "lands": 1623,
      "feat": 1624,
      "include": 1625,
      "Andaman": 1626,
      "growth": 1627,
      "जिस": 1628,
      "following": 1629,
      "support": 1630,
      "trans": 1631,
      "-dram": 1632,
      "develop": 1633,
      "human": 1634,
      "parliamentary": 1635,
      "literac": 1636,
      "employ": 1637,
      "Central": 1638,
      "eastern": 1639,
      "especially": 1640,
      "emerged": 1641,
      "speak": 1642,
      "political": 1643,
      "religious": 1644,
      "Nehru": 1645,
      "World": 1646,
      "चल": 1647,
      "दश": 1648,
      "दो": 1649,
      "सू": 1650,
      "केन्द्र": 1651,
      "निक": 1652,
      "मुख्य": 1653,
      "खा": 1654,
      "शिया": 1655,
      "सभा": 1656,
      "ेन": 1657,
      "साम": 1658,
      "अन्य": 1659,
      "9%": 1660,
      "Re": 1661,
      "bor": 1662,
      "based": 1663,
      "fig": 1664,
      "nolog": 1665,
      "गया": 1666,
      "त्व": 1667,
      "पञ": 1668,
      "शि": 1669,
      "ంద్ర": 1670,
      "ఒక": 1671,
      "కృ": 1672,
      "చి": 1673,
      "టు": 1674,
      "త్ర": 1675,
      "ప్": 1676,
      "పరి": 1677,
      "మి": 1678,
      "ెండ": 1679,
      "్‌": 1680,
      "ality": 1681,
      "amp": 1682,
      "ानां": 1683,
      "There": 1684,
      "term": 1685,
      "र्ण": 1686,
      "काल": 1687,
      "local": 1688,
      "union": 1689,
      "ists": 1690,
      "ప్రధాన": 1691,
      "compos": 1692,
      "నుండి": 1693,
      "regional": 1694,
      "ులు,": 1695,
      "official": 1696,
      "మార్గ": 1697,
      "..": 1698,
      "अनु": 1699,
      "अधिक": 1700,
      "हे": 1701,
      "2026": 1702,
      "प्रमुख": 1703,
      "है,": 1704,
      "राष्ट्रप": 1705,
      "महारा": 1706,
      "ंद्र": 1707,
      "14": 1708,
      "25": 1709,
      "400": 1710,
      "Ara": 1711,
      "BJ": 1712,
      "Bang": 1713,
      "Bhar": 1714,
      "Carn": 1715,
      "Keral": 1716,
      "Min": 1717,
      "Mani": 1718,
      "Nad": 1719,
      "bir": 1720,
      "bod": 1721,
      "cur": 1722,
      "cult": 1723,
      "cru": 1724,
      "den": 1725,
      "dra": 1726,
      "day": 1727,
      "e.": 1728,
      "eth": 1729,
      "fed": 1730,
      "gu": 1731,
      "hat": 1732,
      "iz": 1733,
      "ide": 1734,
      "kn": 1735,
      "line": 1736,
      "now": 1737,
      "ool": 1738,
      "pen": 1739,
      "rul": 1740,
      "sit": 1741,
      "sou": 1742,
      "sultanate": 1743,
      "t,": 1744,
      "ual": 1745,
      "ven": 1746,
      "vast": 1747,
      "vill": 1748,
      "अव": 1749,
      "अंग्रे": 1750,
      "तमि": 1751,
      "मै": 1752,
      "దీ": 1753,
      "నా": 1754,
      "ర్య": 1755,
      "వార": 1756,
      "వర్": 1757,
      "ances": 1758,
      "animal": 1759,
      "ancient": 1760,
      "inv": 1761,
      "er,": 1762,
      "ale": 1763,
      "ative": 1764,
      "dish": 1765,
      "as.": 1766,
      "ash": 1767,
      "ions,": 1768,
      "ic,": 1769,
      "remain": 1770,
      "republic": 1771,
      "total": 1772,
      "ste": 1773,
      "stat": 1774,
      "states": 1775,
      "oup": 1776,
      "amm": 1777,
      "ecut": 1778,
      "These": 1779,
      "195": 1780,
      "ulpt": 1781,
      "ra,": 1782,
      "set": 1783,
      "sett": 1784,
      "sum": 1785,
      "export": 1786,
      "sive": 1787,
      "resident": 1788,
      "aksh": 1789,
      "comm": 1790,
      "formed": 1791,
      "ives": 1792,
      "marri": 1793,
      "market": 1794,
      "Hindust": 1795,
      "viol": 1796,
      "Its": 1797,
      "sculpt": 1798,
      "grew": 1799,
      "1947,": 1800,
      "క్షి": 1801,
      "whose": 1802,
      "పేరు": 1803,
      "మొద": 1804,
      "Isl": 1805,
      "occup": 1806,
      "mi)": 1807,
      "రాష్ట్ర": 1808,
      "Persi": 1809,
      "direct": 1810,
      "Brahm": 1811,
      "Temple": 1812,
      "house": 1813,
      "BJP": 1814,
      "Bharat": 1815,
      "Carnatic": 1816,
      "Kerala": 1817,
      "Nadu": 1818,
      "body": 1819,
      "penins": 1820,
      "अस्य": 1821,
      "आसीत्": 1822,
      "धु": 1823,
      "लु": 1824,
      "्यः": 1825,
      "ताः": 1826,
      "नेपाल": 1827,
      "वर्षे": 1828,
      "II": 1829,
      "PP": 1830,
      "बंध": 1831,
      "मो": 1832,
      "प्रति": 1833,
      "काश": 1834,
      "जाब": 1835,
      "पाकि": 1836,
      "व्यव": 1837,
      "edi": 1838,
      "अग": 1839,
      "चार": 1840,
      "थम": 1841,
      "राष्ट्रीय": 1842,
      "16": 1843,
      "6,": 1844,
      "77": 1845,
      "Rep": 1846,
      "act": 1847,
      "hel": 1848,
      "igh": 1849,
      "ted": 1850,
      "पर्व": 1851,
      "बो": 1852,
      "े।": 1853,
      "११": 1854,
      "ఉత్": 1855,
      "ఎన్న": 1856,
      "దాయ": 1857,
      "మత": 1858,
      "రణ": 1859,
      "లా": 1860,
      "సు": 1861,
      "ి,": 1862,
      "along": 1863,
      "ion,": 1864,
      "లు,": 1865,
      "defin": 1866,
      "ప్రజ": 1867,
      "ాత్ర": 1868,
      "స్థాన": 1869,
      "शासित": 1870,
      "All": 1871,
      "క్రీ": 1872,
      "జనా": 1873,
      "కూడా": 1874,
      "రైలు": 1875,
      "widely": 1876,
      "అధికార": 1877,
      "ానికి": 1878,
      "According": 1879,
      "Republic": 1880,
      "टी": 1881,
      "त्या": 1882,
      "दु": 1883,
      "नगर": 1884,
      "यां": 1885,
      "जाता": 1886,
      "ल्ली": 1887,
      "पश्चिम": 1888,
      "अप": 1889,
      "इत्य": 1890,
      "तस्य": 1891,
      "दयः": 1892,
      "न्य": 1893,
      "बड़": 1894,
      "inter": 1895,
      "ाना": 1896,
      "भारतं": 1897,
      "भारतम्": 1898,
      "प्रधान": 1899,
      "कासिन्": 1900,
      "ितः": 1901,
      "तेन": 1902,
      "लेख": 1903,
      "प्राचीन": 1904,
      "व्यवस्था": 1905,
      "कासिन्स": 1906,
      "गढ": 1907,
      "जरा": 1908,
      "नव": 1909,
      "ील": 1910,
      "्रा": 1911,
      "ष्ठ": 1912,
      "(1,": 1913,
      ",000": 1914,
      "42": 1915,
      "Act": 1916,
      "During": 1917,
      "Par": 1918,
      "West": 1919,
      "Western": 1920,
      "ail": 1921,
      "dem": 1922,
      "fam": 1923,
      "fast": 1924,
      "five": 1925,
      "famil": 1926,
      "grad": 1927,
      "i-": 1928,
      "ia": 1929,
      "k,": 1930,
      "ked": 1931,
      "ling": 1932,
      "lay": 1933,
      "les,": 1934,
      "mak": 1935,
      "oor": 1936,
      "rang": 1937,
      "rates": 1938,
      "sm": 1939,
      "ti": 1940,
      "til": 1941,
      "tect": 1942,
      "ub": 1943,
      "uary": 1944,
      "won": 1945,
      "way": 1946,
      "well": 1947,
      "अभ": 1948,
      "उप": 1949,
      "ठा": 1950,
      "लय": 1951,
      "అయ": 1952,
      "గణ": 1953,
      "గర": 1954,
      "ట్": 1955,
      "డ్": 1956,
      "తా": 1957,
      "తంత్ర": 1958,
      "దక్షి": 1959,
      "పూ": 1960,
      "బా": 1961,
      "బె": 1962,
      "భి": 1963,
      "మహ": 1964,
      "లం": 1965,
      "లే": 1966,
      "ష్": 1967,
      "ాన్": 1968,
      "ిల్ల": 1969,
      "three": 1970,
      "inf": 1971,
      "inn": 1972,
      "ond": 1973,
      "alth": 1974,
      "ara": 1975,
      "ard": 1976,
      "ating": 1977,
      "div": 1978,
      "educ": 1979,
      "often": 1980,
      "ise": 1981,
      "tom": 1982,
      "ents": 1983,
      "ently": 1984,
      "urther": 1985,
      "ould": 1986,
      "राग": 1987,
      "ched": 1988,
      "ages": 1989,
      "utes": 1990,
      "Indians": 1991,
      "sever": 1992,
      "sequ": 1993,
      "ung": 1994,
      "లోని": 1995,
      "istic": 1996,
      "within": 1997,
      "execut": 1998,
      "ments": 1999,
      "commer": 2000,
      "earli": 2001,
      "contain": 2002,
      "ants": 2003,
      "క్కు": 2004,
      "endem": 2005,
      "gener": 2006,
      "alled": 2007,
      "minist": 2008,
      "created": 2009,
      "centuries": 2010,
      "become": 2011,
      "करो": 2012,
      "ograph": 2013,
      "ించింది.": 2014,
      "స్తు": 2015,
      "popular": 2016,
      "here": 2017,
      "ficant": 2018,
      "longer": 2019,
      "cess": 2020,
      "serv": 2021,
      "nificant": 2022,
      "growing": 2023,
      "సాం": 2024,
      "1947": 2025,
      "traditional": 2026,
      "diverse": 2027,
      "Sanskrit,": 2028,
      "head": 2029,
      "rise": 2030,
      "China": 2031,
      "చెం": 2032,
      "mid-": 2033,
      "style": 2034,
      "కేంద్ర": 2035,
      "capit": 2036,
      "agriculture": 2037,
      "contribut": 2038,
      "influenced": 2039,
      "Among": 2040,
      "January": 2041,
      "buil": 2042,
      "fied": 2043,
      "హిందూ": 2044,
      "mathematic": 2045,
      "పెద్ద": 2046,
      "పార్ట": 2047,
      "technolog": 2048,
      "industry": 2049,
      "differ": 2050,
      "development": 2051,
      "literacy": 2052,
      "employed": 2053,
      "speakers": 2054,
      "Manipur": 2055,
      "federal": 2056,
      "southern": 2057,
      "Persian": 2058,
      "peninsular": 2059,
      "ैव": 2060,
      "85": 2061,
      "city": 2062,
      "ज्": 2063,
      "तृ": 2064,
      "्मी": 2065,
      "केंद्र": 2066,
      "विस्त": 2067,
      "soon": 2068,
      "सागर": 2069,
      "back": 2070,
      "अत्र": 2071,
      "खण्ड": 2072,
      "चित": 2073,
      "नम्": 2074,
      "सङ्": 2075,
      "ोग": 2076,
      "राज्यानि": 2077,
      "बाङ्ग": 2078,
      "धर्मः,": 2079,
      "गुजरा": 2080,
      "1st": 2081,
      "36": 2082,
      "a-": 2083,
      "bri": 2084,
      "ily": 2085,
      "ject": 2086,
      "ze": 2087,
      "चु": 2088,
      "तत्": 2089,
      "थी": 2090,
      "दिया": 2091,
      "मंत्र": 2092,
      "लग": 2093,
      "वरी": 2094,
      "ह्": 2095,
      "ం.": 2096,
      "ంధ": 2097,
      "ణి": 2098,
      "తరు": 2099,
      "పో": 2100,
      "రెండ": 2101,
      "వీ": 2102,
      "శ్ర": 2103,
      "సిం": 2104,
      "an,": 2105,
      "ind": 2106,
      "organ": 2107,
      "2019": 2108,
      "్యం": 2109,
      "స్కృ": 2110,
      "ders": 2111,
      "విస్త": 2112,
      "0%B": 2113,
      "पुरा": 2114,
      "ముఖ్య": 2115,
      "ించిన": 2116,
      "quality": 2117,
      "script": 2118,
      "time": 2119,
      "composed": 2120,
      "पर्वत": 2121,
      "జనాభా": 2122,
      "ज्ञ": 2123,
      "दान": 2124,
      "मुद्र": 2125,
      "निर्": 2126,
      "द्वारा": 2127,
      "40": 2128,
      "80": 2129,
      "wa": 2130,
      "yy": 2131,
      "कर्": 2132,
      "र्य": 2133,
      "emb": 2134,
      "विद्य": 2135,
      "नाथ": 2136,
      "हुआ": 2137,
      "Constit": 2138,
      "इतिहा": 2139,
      ".in": 2140,
      "टे": 2141,
      "तिक": 2142,
      "यू": 2143,
      "शो": 2144,
      "ाने": 2145,
      "प्रथम": 2146,
      "नाग": 2147,
      "स्थि": 2148,
      "दिल्ली": 2149,
      "न्याया": 2150,
      "300": 2151,
      "8%": 2152,
      "8,": 2153,
      "Ary": 2154,
      "Bi": 2155,
      "Civil": 2156,
      "Dal": 2157,
      "Dra": 2158,
      "Mal": 2159,
      "Mar": 2160,
      "Mad": 2161,
      "Mum": 2162,
      "Nic": 2163,
      "Nep": 2164,
      "Sou": 2165,
      "Ti": 2166,
      "Ter": 2167,
      "Tel": 2168,
      "Utt": 2169,
      "Valle": 2170,
      "ah": 2171,
      "adi": 2172,
      "aver": 2173,
      "ai,": 2174,
      "bian": 2175,
      "cut": 2176,
      "clo": 2177,
      "ces,": 2178,
      "cript": 2179,
      "civil": 2180,
      "domin": 2181,
      "every": 2182,
      "four": 2183,
      "fact": 2184,
      "further": 2185,
      "glo": 2186,
      "get": 2187,
      "hen": 2188,
      "his": 2189,
      "however,": 2190,
      "ile": 2191,
      "ians": 2192,
      "kk": 2193,
      "lin": 2194,
      "les": 2195,
      "lad": 2196,
      "ms": 2197,
      "mult": 2198,
      "mary": 2199,
      "nat": 2200,
      "pay": 2201,
      "pass": 2202,
      "ration": 2203,
      "rich": 2204,
      "rish": 2205,
      "ratic": 2206,
      "round": 2207,
      "sar": 2208,
      "sec": 2209,
      "tem": 2210,
      "text": 2211,
      "trad": 2212,
      "vot": 2213,
      "vari": 2214,
      "wild": 2215,
      "xim": 2216,
      "ः)": 2217,
      "एष": 2218,
      "एशिया": 2219,
      "रवी": 2220,
      "वान्": 2221,
      "అతి": 2222,
      "అత్య": 2223,
      "ఇది": 2224,
      "ఇతర": 2225,
      "కలి": 2226,
      "గి": 2227,
      "గో": 2228,
      "గ్": 2229,
      "జాబ": 2230,
      "తే": 2231,
      "పర": 2232,
      "భు": 2233,
      "మన": 2234,
      "లకు": 2235,
      "సరి": 2236,
      "th)": 2237,
      "independ": 2238,
      "ert": 2239,
      "alli": 2240,
      "als,": 2241,
      "around": 2242,
      "atak": 2243,
      "dian": 2244,
      "dist": 2245,
      "ed,": 2246,
      "oro": 2247,
      "ors": 2248,
      "and,": 2249,
      "off": 2250,
      "iss": 2251,
      "ising": 2252,
      "islat": 2253,
      "ion.": 2254,
      "reg": 2255,
      "rel": 2256,
      "read": 2257,
      "reform": 2258,
      "recor": 2259,
      "leve": 2260,
      "amic": 2261,
      "ility": 2262,
      "్రి": 2263,
      "This": 2264,
      "administ": 2265,
      "olved": 2266,
      "empire": 2267,
      "emble": 2268,
      "liber": 2269,
      "ross": 2270,
      "cept": 2271,
      "again": 2272,
      "estab": 2273,
      "angered": 2274,
      "condu": 2275,
      "consi": 2276,
      "until": 2277,
      "import": 2278,
      "astri": 2279,
      "when": 2280,
      "where": 2281,
      "ప్రదేశ": 2282,
      "ప్రభు": 2283,
      "देशस्य": 2284,
      "oper": 2285,
      "ained": 2286,
      "ety": 2287,
      "etic": 2288,
      "resp": 2289,
      "ాల్": 2290,
      "art,": 2291,
      "राजधान": 2292,
      "comple": 2293,
      "spread": 2294,
      "aput": 2295,
      "appro": 2296,
      "otal": 2297,
      "worn": 2298,
      "anted": 2299,
      "ure,": 2300,
      "राज्यों": 2301,
      "plate": 2302,
      "place": 2303,
      "Chol": 2304,
      "క్క": 2305,
      "endangered": 2306,
      "ternal": 2307,
      "aff": 2308,
      "परि": 2309,
      "ism.": 2310,
      "point": 2311,
      "CE,": 2312,
      "partition": 2313,
      "Hinduism": 2314,
      "कारण": 2315,
      "regions": 2316,
      "ocratic": 2317,
      "subsequ": 2318,
      "upper": 2319,
      "స్త్ర": 2320,
      "Asian": 2321,
      "ength": 2322,
      "ricket": 2323,
      "समय": 2324,
      "vidian": 2325,
      "polic": 2326,
      "system,": 2327,
      "वर्य": 2328,
      "continu": 2329,
      "increasing": 2330,
      "गीतं": 2331,
      "गीतस्य": 2332,
      "Although": 2333,
      "Gupt": 2334,
      "Buddhism": 2335,
      "supp": 2336,
      "rule.": 2337,
      "election,": 2338,
      "times": 2339,
      "oldest": 2340,
      "developed": 2341,
      "species,": 2342,
      "group": 2343,
      "original": 2344,
      "middle": 2345,
      "surv": 2346,
      "constitutional": 2347,
      "produc": 2348,
      "present": 2349,
      "school": 2350,
      "leading": 2351,
      "religions": 2352,
      "Plateau": 2353,
      "kingdom": 2354,
      "వచ్చింది.": 2355,
      "भागे": 2356,
      "Assam": 2357,
      "significant": 2358,
      "cooked": 2359,
      "Kashmir": 2360,
      "coalition": 2361,
      "birth": 2362,
      "known": 2363,
      "village": 2364,
      "Hindustani": 2365,
      "Brahmaput": 2366,
      "held": 2367,
      "families": 2368,
      "small": 2369,
      "education": 2370,
      "executive": 2371,
      "earliest": 2372,
      "క్కువ": 2373,
      "capita": 2374,
      "పార్టీ": 2375,
      "Dravidian": 2376,
      "Mumb": 2377,
      "Nicob": 2378,
      "Southeast": 2379,
      "Uttar": 2380,
      "rishn": 2381,
      "ximately": 2382,
      "एषः": 2383,
      "रवीन्द्र": 2384,
      "level": 2385,
      "establish": 2386,
      "consider": 2387,
      "approximately": 2388,
      "आग": 2389,
      "आधिकार": 2390,
      "चि": 2391,
      "थि": 2392,
      "दन": 2393,
      "भर": 2394,
      "शता": 2395,
      "मूल": 2396,
      "आधिकारिक": 2397,
      "100": 2398,
      "14.": 2399,
      "23": 2400,
      "अन्त": 2401,
      "चे": 2402,
      "पार्": 2403,
      "बना": 2404,
      "यों": 2405,
      "वाल": 2406,
      "व्या": 2407,
      "हुई": 2408,
      "ज़ी": 2409,
      "हीं": 2410,
      "IN": 2411,
      "ं,": 2412,
      "जै": 2413,
      "ध्व": 2414,
      "मं": 2415,
      "ृह": 2416,
      "स्तान": 2417,
      "था।": 2418,
      "ived": 2419,
      "ला,": 2420,
      "कार्य": 2421,
      "क्ति": 2422,
      "इतिहास": 2423,
      "Government": 2424,
      "Languag": 2425,
      "New": 2426,
      "Pro": 2427,
      "km": 2428,
      "nomin": 2429,
      "ran": 2430,
      "sq": 2431,
      "उत्": 2432,
      "तीय": 2433,
      "रो": 2434,
      "लया": 2435,
      "१५": 2436,
      "ఉప": 2437,
      "ఉంట": 2438,
      "గల": 2439,
      "గిన": 2440,
      "జీ": 2441,
      "జరి": 2442,
      "ఢిల్ల": 2443,
      "నాలు": 2444,
      "పట": 2445,
      "పట్ట": 2446,
      "మంత్ర": 2447,
      "రం": 2448,
      "వ)": 2449,
      "వంట": 2450,
      "శ్": 2451,
      "ిమ": 2452,
      "ీన": 2453,
      "ుకు": 2454,
      "ana,": 2455,
      "inct": 2456,
      "్రె": 2457,
      "ान्त": 2458,
      "addition": 2459,
      "uted": 2460,
      "सेना": 2461,
      "విధ": 2462,
      "जाति": 2463,
      "inequality": 2464,
      "ంగ్ల": 2465,
      "వాణా": 2466,
      "others": 2467,
      "States": 2468,
      "ద్ధి": 2469,
      "territories": 2470,
      "estimate": 2471,
      "ఆర్ధిక": 2472,
      "మార్గాలు": 2473,
      "క్రీడ": 2474,
      "అయిన": 2475,
      "different": 2476,
      "తరువాత": 2477,
      "km2": 2478,
      "आङ्ग": 2479,
      "तम": 2480,
      "बन": 2481,
      "बि": 2482,
      "मरा": 2483,
      "सु": 2484,
      "हार": 2485,
      "्ल": 2486,
      "त्रि": 2487,
      "पुरी": 2488,
      "गीतम्": 2489,
      "सर्वकार": 2490,
      "ज्यम्": 2491,
      "पुरम्": 2492,
      "भूमिः": 2493,
      "राजधानी": 2494,
      "वर्येण": 2495,
      "(2": 2496,
      ");": 2497,
      "94": 2498,
      "uent": 2499,
      "असम": 2500,
      "टि": 2501,
      "डु": 2502,
      "फ़": 2503,
      "बार": 2504,
      "भो": 2505,
      "शत": 2506,
      "शु": 2507,
      "नाव": 2508,
      "संघ": 2509,
      "संसद": 2510,
      "हैं,": 2511,
      "वर्ण": 2512,
      "प्राप्त": 2513,
      "लिए": 2514,
      "Assemb": 2515,
      "ब्रह्": 2516,
      "अंग्रेज़ी": 2517,
      "Constituent": 2518,
      "Assembly": 2519,
      "21": 2520,
      "ंश": 2521,
      "अने": 2522,
      "धि": 2523,
      "पे": 2524,
      "बौ": 2525,
      "भि": 2526,
      "वन": 2527,
      "वै": 2528,
      "ini": 2529,
      "प्रसि": 2530,
      "स्ट": 2531,
      "భారత్": 2532,
      "ternational": 2533,
      "योग": 2534,
      "गोल": 2535,
      "बौद्ध": 2536,
      "1200": 2537,
      "35": 2538,
      "500": 2539,
      "Ak": 2540,
      "As": 2541,
      "Cap": 2542,
      "Des": 2543,
      "Dec": 2544,
      "For": 2545,
      "Gree": 2546,
      "Ghat": 2547,
      "Gond": 2548,
      "HO": 2549,
      "However,": 2550,
      "Kath": 2551,
      "Karn": 2552,
      "Krishn": 2553,
      "Many": 2554,
      "Nar": 2555,
      "Non-": 2556,
      "Nuclear": 2557,
      "President": 2558,
      "Ram": 2559,
      "Sat": 2560,
      "Sing": 2561,
      "Sri": 2562,
      "Sab": 2563,
      "Ur": 2564,
      "Va": 2565,
      "WHO": 2566,
      "acted": 2567,
      "band": 2568,
      "bas": 2569,
      "bro": 2570,
      "bution": 2571,
      "cin": 2572,
      "cy,": 2573,
      "called": 2574,
      "do": 2575,
      "dar": 2576,
      "des": 2577,
      "down": 2578,
      "dances": 2579,
      "ez": 2580,
      "eet": 2581,
      "equ": 2582,
      "eign": 2583,
      "eight": 2584,
      "fem": 2585,
      "fest": 2586,
      "flo": 2587,
      "fish": 2588,
      "fund": 2589,
      "gra": 2590,
      "hy": 2591,
      "hal": 2592,
      "hab": 2593,
      "ith": 2594,
      "iri": 2595,
      "jur": 2596,
      "just": 2597,
      "kame": 2598,
      "ll": 2599,
      "mit": 2600,
      "nd": 2601,
      "ns": 2602,
      "nation": 2603,
      "near": 2604,
      "name": 2605,
      "o.": 2606,
      "pil": 2607,
      "pra": 2608,
      "put": 2609,
      "pet": 2610,
      "phar": 2611,
      "rest": 2612,
      "sim": 2613,
      "saf": 2614,
      "sect": 2615,
      "sari": 2616,
      "tic": 2617,
      "tre": 2618,
      "test": 2619,
      "trop": 2620,
      "ug": 2621,
      "va": 2622,
      "went": 2623,
      "writ": 2624,
      "wear": 2625,
      "ya,": 2626,
      "अर": 2627,
      "तंत्र": 2628,
      "धार": 2629,
      "पार": 2630,
      "बढ़": 2631,
      "सै": 2632,
      "ृत्य": 2633,
      "ोल": 2634,
      "అనే": 2635,
      "ఎక్కువ": 2636,
      "ఏర్": 2637,
      "కీయ": 2638,
      "టె": 2639,
      "తె": 2640,
      "నగర": 2641,
      "పై": 2642,
      "పతి": 2643,
      "బహ": 2644,
      "మె": 2645,
      "మై": 2646,
      "మ్": 2647,
      "రంగ": 2648,
      "రవాణా": 2649,
      "లలో": 2650,
      "వం": 2651,
      "వల": 2652,
      "వృ": 2653,
      "షు": 2654,
      "సము": 2655,
      "సంగ": 2656,
      "ావ": 2657,
      "ౌక": 2658,
      "anat": 2659,
      "these": 2660,
      "ons": 2661,
      "ones": 2662,
      "alwar": 2663,
      "ar.": 2664,
      "ened": 2665,
      "ensive": 2666,
      "enacted": 2667,
      "ata": 2668,
      "ati": 2669,
      "atical": 2670,
      "edul": 2671,
      "ory": 2672,
      "orter": 2673,
      "anding": 2674,
      "asi": 2675,
      "associ": 2676,
      "Indira": 2677,
      "ital": 2678,
      "itect": 2679,
      "ict": 2680,
      "reco": 2681,
      "reach": 2682,
      "top": 2683,
      "tour": 2684,
      "took": 2685,
      "touch": 2686,
      "stru": 2687,
      "Thar": 2688,
      "adv": 2689,
      "ades": 2690,
      "olid": 2691,
      "char": 2692,
      "changes": 2693,
      "Their": 2694,
      "lies": 2695,
      "role": 2696,
      "rodu": 2697,
      "ceut": 2698,
      "ago.": 2699,
      "force": 2700,
      "being": 2701,
      "below": 2702,
      "before": 2703,
      "veget": 2704,
      "est-": 2705,
      "uscript": 2706,
      "विविध": 2707,
      "del": 2708,
      "देह": 2709,
      "స్వ": 2710,
      "స్వాత": 2711,
      "exchang": 2712,
      "external": 2713,
      "ably": 2714,
      "abad": 2715,
      "about": 2716,
      "ability": 2717,
      "due": 2718,
      "ప్రదాయ": 2719,
      "देशों": 2720,
      "six": 2721,
      "side": 2722,
      "etwork": 2723,
      "result": 2724,
      "akh": 2725,
      "संख्या": 2726,
      "overeign": 2727,
      "areas.": 2728,
      "compan": 2729,
      "elit": 2730,
      "shar": 2731,
      "show": 2732,
      "ity,": 2733,
      "spic": 2734,
      "sport": 2735,
      "centre": 2736,
      "meat": 2737,
      "ultural": 2738,
      "hi,": 2739,
      "2013": 2740,
      "prov": 2741,
      "protect": 2742,
      "weap": 2743,
      "genous": 2744,
      "ival": 2745,
      "ండు": 2746,
      "portion": 2747,
      "త్స": 2748,
      "త్తం": 2749,
      "2001": 2750,
      "avour": 2751,
      "economy.": 2752,
      "ctions": 2753,
      "Hinduism,": 2754,
      "दिना": 2755,
      "uced": 2756,
      "ineer": 2757,
      "भाषाओं": 2758,
      "Asia,": 2759,
      "declar": 2760,
      "decades": 2761,
      "ంగ్రె": 2762,
      "relief": 2763,
      "bodi": 2764,
      "rica": 2765,
      "extant": 2766,
      "elected": 2767,
      "Ancient": 2768,
      "1965,": 2769,
      "dance-dram": 2770,
      "సంస్కృ": 2771,
      "185": 2772,
      "1991": 2773,
      "minister.": 2774,
      "BCE,": 2775,
      "BCE.": 2776,
      "great": 2777,
      "greater": 2778,
      "maceut": 2779,
      "pred": 2780,
      "సాధ": 2781,
      "traditionally": 2782,
      "ిత్ర": 2783,
      "1950,": 2784,
      "Africa": 2785,
      "amental": 2786,
      "రాజకీయ": 2787,
      "awa": 2788,
      "thought": 2789,
      "express": 2790,
      "Sanskrit)": 2791,
      "Maur": 2792,
      "Modi": 2793,
      "garh": 2794,
      "legislat": 2795,
      "State": 2796,
      "क्रि": 2797,
      "కాంగ్రె": 2798,
      "Sikk": 2799,
      "south-": 2800,
      "ergy": 2801,
      "Pakistan.": 2802,
      "influence": 2803,
      "మొత్తం": 2804,
      "ritory": 2805,
      "10,": 2806,
      "Indo-European": 2807,
      "species": 2808,
      "highest": 2809,
      "Punjab,": 2810,
      "reduced": 2811,
      "west,": 2812,
      "rights": 2813,
      "renew": 2814,
      "schedul": 2815,
      "foreign": 2816,
      "mediately": 2817,
      "colleg": 2818,
      "introdu": 2819,
      "architect": 2820,
      "agricultural": 2821,
      "consolid": 2822,
      "appear": 2823,
      "contribution": 2824,
      "estimated": 2825,
      "Dance-dram": 2826,
      "culture.": 2827,
      "కాలంలో": 2828,
      "third-largest": 2829,
      "cooking": 2830,
      "భాషలు": 2831,
      "ప్రాంతాలు": 2832,
      "Kashmiri": 2833,
      "తున్న": 2834,
      "North": 2835,
      "Northeast": 2836,
      "cities": 2837,
      "painting,": 2838,
      "single": 2839,
      "tax": 2840,
      "turned": 2841,
      "commonly": 2842,
      "features": 2843,
      "Banglad": 2844,
      "crust": 2845,
      "summer": 2846,
      "violence": 2847,
      "sculpture": 2848,
      "మొదటి": 2849,
      "directly": 2850,
      "ఎన్నో": 2851,
      "family": 2852,
      "makes": 2853,
      "దక్షిణ": 2854,
      "బెంగ": 2855,
      "commercial": 2856,
      "करोड़": 2857,
      "built": 2858,
      "technology": 2859,
      "waist": 2860,
      "Aryan": 2861,
      "Malay": 2862,
      "Marath": 2863,
      "Nepal": 2864,
      "Tibet": 2865,
      "Territory": 2866,
      "Valley": 2867,
      "global": 2868,
      "secular": 2869,
      "అత్యధిక": 2870,
      "ission": 2871,
      "recorded": 2872,
      "conducted": 2873,
      "important": 2874,
      "ప్రదేశ్": 2875,
      "ప్రభుత్వ": 2876,
      "operation": 2877,
      "continued": 2878,
      "Gupta": 2879,
      "kingdoms": 2880,
      "Brahmaputra": 2881,
      "Nicobar": 2882,
      "established": 2883,
      "Greek": 2884,
      "Kathak": 2885,
      "Karnatak": 2886,
      "Singh": 2887,
      "Urdu": 2888,
      "fundamental": 2889,
      "kameez": 2890,
      "pract": 2891,
      "pharmaceut": 2892,
      "sector": 2893,
      "tropical": 2894,
      "స్వాతంత్ర": 2895,
      "resulting": 2896,
      "dance-dramas": 2897,
      "Sikkim": 2898,
      "scheduled": 2899,
      "Dance-drama": 2900,
      "Bangladesh": 2901,
      "pharmaceutical": 2902,
      "ग्र": 2903,
      "१९४": 2904,
      "लिख": 2905,
      "श्रील": 2906,
      "43": 2907,
      "44": 2908,
      "49": 2909,
      "70%": 2910,
      "go": 2911,
      "अस्": 2912,
      "अपि": 2913,
      "अर्थ": 2914,
      "कई": 2915,
      "कॉ": 2916,
      "गति": 2917,
      "नहीं": 2918,
      "पं": 2919,
      "परा": 2920,
      "बृह": 2921,
      "भ्यः": 2922,
      "रहा": 2923,
      "सप्त": 2924,
      "ोष": 2925,
      "्जाब": 2926,
      "स्त्र": 2927,
      "2010": 2928,
      "ङ्के": 2929,
      "करने": 2930,
      "सिख": 2931,
      "दिशि": 2932,
      "भाषाः": 2933,
      "त्ती": 2934,
      "हुए": 2935,
      "ड़ा": 2936,
      "प्रदेशः": 2937,
      "2023": 2938,
      "1950.": 2939,
      "होता": 2940,
      "युक्त": 2941,
      "इसके": 2942,
      "विश्वे": 2943,
      "गोर": 2944,
      "बेङ्ग": 2945,
      "एवं": 2946,
      "पञ्च": 2947,
      "पञ्जाब": 2948,
      "ठागोर": 2949,
      "चुनाव": 2950,
      "मंत्री": 2951,
      "नाथठागोर": 2952,
      "दिनाङ्के": 2953,
      "22": 2954,
      "आर्थ": 2955,
      "ईसा": 2956,
      "उर्": 2957,
      "कं": 2958,
      "कम्": 2959,
      "डा": 2960,
      "दरा": 2961,
      "फल": 2962,
      "ृद्ध": 2963,
      "र्ष": 2964,
      "पालिका": 2965,
      "सिन्धु": 2966,
      "पाकिस्तान": 2967,
      "्मीर": 2968,
      "शताब्": 2969,
      "आर्थिक": 2970,
      "उर्दू": 2971,
      "\".": 2972,
      "12.": 2973,
      "E0%B": 2974,
      "PA": 2975,
      "Pe": 2976,
      "Tri": 2977,
      "gl": 2978,
      "rist": 2979,
      "ues": 2980,
      "ārat": 2981,
      "इन": 2982,
      "जल": 2983,
      "जम्": 2984,
      "बी": 2985,
      "मणि": 2986,
      "सभ": 2987,
      "१४": 2988,
      "२८": 2989,
      "ంది": 2990,
      "ఆధ": 2991,
      "ఒరి": 2992,
      "కల్": 2993,
      "గంగా": 2994,
      "చూ": 2995,
      "జ్య": 2996,
      "జిన": 2997,
      "టీ": 2998,
      "ట్ల": 2999,
      "తమి": 3000,
      "దం": 3001,
      "దార": 3002,
      "పించ": 3003,
      "బ్రి": 3004,
      "యు": 3005,
      "యో": 3006,
      "య్య": 3007,
      "రూ": 3008,
      "రే": 3009,
      "లతో": 3010,
      "ా,": 3011,
      "ీతం": 3012,
      "ుకో": 3013,
      "ెల": 3014,
      "anag": 3015,
      "adop": 3016,
      "र्श": 3017,
      "ligion": 3018,
      "une": 3019,
      "imes": 3020,
      "न्ध": 3021,
      "ప్రము": 3022,
      "ప్రతి": 3023,
      "ప్రస్తు": 3024,
      "िक्": 3025,
      "ాలలో": 3026,
      "ship": 3027,
      "ిక్": 3028,
      "क्षा": 3029,
      "ाली": 3030,
      "Christ": 3031,
      "ాయి": 3032,
      "तेलु": 3033,
      "ంతో": 3034,
      "2004": 3035,
      "निर": 3036,
      "हिन्दु": 3037,
      "1960": 3038,
      "0.6": 3039,
      "ితా": 3040,
      "పాకి": 3041,
      "language\"": 3042,
      "ప్రాచ": 3043,
      "trillion": 3044,
      "క్రమ": 3045,
      "द्योग": 3046,
      "సిని": 3047,
      "సియా": 3048,
      "originally": 3049,
      "वीं": 3050,
      "బడింది.": 3051,
      "రాష్ట్రా": 3052,
      "स्वतंत्र": 3053,
      "ాబ్": 3054,
      "हिमालय": 3055,
      "శాస్త్ర": 3056,
      "साम्रा": 3057,
      "Religion": 3058,
      "చిన్న": 3059,
      "अनुसार": 3060,
      "महाराष्ट्र": 3061,
      "రాష్ట్రపతి": 3062,
      "लेख:": 3063,
      "గణతంత్ర": 3064,
      "brief": 3065,
      "సింధ": 3066,
      "organisation": 3067,
      "జాబితా": 3068,
      "nominal": 3069,
      "ఢిల్లీ": 3070,
      "మంత్రి": 3071,
      "मराठ": 3072,
      "తమిళ": 3073,
      "ప్రముఖ": 3074,
      "Christian": 3075,
      "साम्राज्य": 3076,
      "(PP": 3077,
      "णी": 3078,
      "प्": 3079,
      "भौ": 3080,
      "मन्त्र": 3081,
      "१०": 3082,
      "२,": 3083,
      "२४": 3084,
      "विभि": 3085,
      "राजस्थान": 3086,
      "ितम्": 3087,
      "परं": 3088,
      "समू": 3089,
      "संस्कृति": 3090,
      "२००": 3091,
      "सदन": 3092,
      "समाज": 3093,
      "ज्ञान": 3094,
      "निर्माण": 3095,
      "गोलिक": 3096,
      "(PPP": 3097,
      "24": 3098,
      "60": 3099,
      "Aust": 3100,
      "ost": 3101,
      "एँ": 3102,
      "ओड": 3103,
      "गठ": 3104,
      "गान": 3105,
      "चर": 3106,
      "पह": 3107,
      "मलया": 3108,
      "हाल": 3109,
      "ाँ": 3110,
      "१,": 3111,
      "प्रभा": 3112,
      "विका": 3113,
      "संबंध": 3114,
      "ता,": 3115,
      "2014": 3116,
      "वाद": 3117,
      "1.1": 3118,
      "जनसंख्या": 3119,
      "7,26": 3120,
      "18.": 3121,
      "ंग्रेस": 3122,
      "न्याय": 3123,
      "केन्द्रशासित": 3124,
      "तमिल": 3125,
      "मैदान": 3126,
      "मुद्रा": 3127,
      "प्रसिद्ध": 3128,
      "अर्थव्यवस्था": 3129,
      "चुनावों": 3130,
      "क्य": 3131,
      "कवि": 3132,
      "गङ्ग": 3133,
      "चण्ड": 3134,
      "तत्त": 3135,
      "दर": 3136,
      "बंग": 3137,
      "ळम्": 3138,
      "वार": 3139,
      "सस्य": 3140,
      "ीगढ": 3141,
      "ृत": 3142,
      "म्,": 3143,
      "प्रत्य": 3144,
      "नाम्": 3145,
      "नाडु": 3146,
      "राजनी": 3147,
      "संयो": 3148,
      "न्तः": 3149,
      "स्तः": 3150,
      "क्षः": 3151,
      "ालय": 3152,
      "ङ्का": 3153,
      "राष्ट्रिय": 3154,
      "प्रदेशराज्यम्": 3155,
      "सीमा": 3156,
      "स्थाने": 3157,
      "संस्कृतिः": 3158,
      "ार्थ": 3159,
      "ाराज्यम्": 3160,
      "शासनम्": 3161,
      "स्थाप": 3162,
      "%e0%a4%b": 3163,
      "राष्ट्रपतिः": 3164,
      "तमिळ": 3165,
      "पाकिस्थान": 3166,
      "अभव": 3167,
      "बाङ्गला": 3168,
      "आङ्ग्ल": 3169,
      "अरब": 3170,
      "देहली": 3171,
      "श्रीलङ्का": 3172,
      "चण्डीगढ": 3173,
      "तत्त्व": 3174,
      "(\"": 3175,
      "(i": 3176,
      "(c.": 3177,
      "(Sanskrit)": 3178,
      "-body": 3179,
      "79.": 3180,
      "80%": 3181,
      "Aj": 3182,
      "Ash": 3183,
      "Aug": 3184,
      "Bay": 3185,
      "Cl": 3186,
      "Cav": 3187,
      "DA": 3188,
      "De": 3189,
      "Dog": 3190,
      "Ear": 3191,
      "Eigh": 3192,
      "Fron": 3193,
      "Gar": 3194,
      "Im": 3195,
      "Jhar": 3196,
      "Jamm": 3197,
      "Jawa": 3198,
      "Ko": 3199,
      "Kon": 3200,
      "Kann": 3201,
      "L.": 3202,
      "LD": 3203,
      "Lank": 3204,
      "Laksh": 3205,
      "Man": 3206,
      "Mid": 3207,
      "Myan": 3208,
      "Nag": 3209,
      "NDA": 3210,
      "Oly": 3211,
      "Old": 3212,
      "Odish": 3213,
      "P.": 3214,
      "Pu": 3215,
      "Pri": 3216,
      "Part": 3217,
      "Pall": 3218,
      "Sang": 3219,
      "Shi": 3220,
      "Sant": 3221,
      "She": 3222,
      "Sub": 3223,
      "Sched": 3224,
      "Sind": 3225,
      "Treat": 3226,
      "Total": 3227,
      "TLD": 3228,
      "UPA": 3229,
      "Vi": 3230,
      "Yaksh": 3231,
      "Zoro": 3232,
      "aic": 3233,
      "aim": 3234,
      "action": 3235,
      "bon": 3236,
      "bes": 3237,
      "bul": 3238,
      "bot": 3239,
      "bron": 3240,
      "cu": 3241,
      "cul": 3242,
      "cro": 3243,
      "crit": 3244,
      "came": 3245,
      "cav": 3246,
      "cy.": 3247,
      "clim": 3248,
      "catt": 3249,
      "could": 3250,
      "cricket": 3251,
      "dr": 3252,
      "din": 3253,
      "dri": 3254,
      "dha": 3255,
      "eat": 3256,
      "ely": 3257,
      "eff": 3258,
      "fo": 3259,
      "fle": 3260,
      "fall": 3261,
      "fe,": 3262,
      "flow": 3263,
      "fash": 3264,
      "gn": 3265,
      "gas": 3266,
      "gri": 3267,
      "god": 3268,
      "gold": 3269,
      "good": 3270,
      "graph": 3271,
      "hol": 3272,
      "hub": 3273,
      "iver": 3274,
      "ither": 3275,
      "ifer": 3276,
      "jo-": 3277,
      "ka": 3278,
      "ken": 3279,
      "kil": 3280,
      "kill": 3281,
      "lf": 3282,
      "lal": 3283,
      "law": 3284,
      "less": 3285,
      "mp": 3286,
      "mal": 3287,
      "mig": 3288,
      "mbal": 3289,
      "much": 3290,
      "mamm": 3291,
      "ner": 3292,
      "ove": 3293,
      "odiversity": 3294,
      "pa": 3295,
      "pat": 3296,
      "pul": 3297,
      "past": 3298,
      "pover": 3299,
      "s;": 3300,
      "sal": 3301,
      "sil": 3302,
      "sol": 3303,
      "slow": 3304,
      "somet": 3305,
      "sovereign": 3306,
      "tu": 3307,
      "tand": 3308,
      "tak": 3309,
      "ty,": 3310,
      "u,": 3311,
      "ule": 3312,
      "ugu": 3313,
      "varn": 3314,
      "vara": 3315,
      "vict": 3316,
      "win": 3317,
      "wel": 3318,
      "would": 3319,
      "yn": 3320,
      "अफ": 3321,
      "इत्या": 3322,
      "ई।": 3323,
      "दृ": 3324,
      "धिका": 3325,
      "बर": 3326,
      "यं": 3327,
      "लों": 3328,
      "श्व": 3329,
      "అను": 3330,
      "అభి": 3331,
      "కం": 3332,
      "కై": 3333,
      "క్య": 3334,
      "కాలు": 3335,
      "ఖండ": 3336,
      "గే": 3337,
      "చరి": 3338,
      "టా": 3339,
      "తల": 3340,
      "తూ": 3341,
      "తిక": 3342,
      "తాబ్": 3343,
      "నడి": 3344,
      "పండు": 3345,
      "మూ": 3346,
      "మాన": 3347,
      "మూడ": 3348,
      "మాత్ర": 3349,
      "రహ": 3350,
      "రీ": 3351,
      "లను": 3352,
      "వె": 3353,
      "వై": 3354,
      "వరి": 3355,
      "శతాబ్": 3356,
      "సిన": 3357,
      "సింది.": 3358,
      "సమా": 3359,
      "సౌక": 3360,
      "ీర్": 3361,
      "thor": 3362,
      "th-largest": 3363,
      "those": 3364,
      "threat": 3365,
      "andi": 3366,
      "anced": 3367,
      "another": 3368,
      "in,": 3369,
      "in.": 3370,
      "init": 3371,
      "incom": 3372,
      "ines,": 3373,
      "ine,": 3374,
      "institution": 3375,
      "then": 3376,
      "thes": 3377,
      "era": 3378,
      "erry": 3379,
      "onial": 3380,
      "arl": 3381,
      "aries": 3382,
      "araj": 3383,
      "arian": 3384,
      "energy": 3385,
      "es;": 3386,
      "ese,": 3387,
      "disc": 3388,
      "oral": 3389,
      "orally": 3390,
      "ands": 3391,
      "ase": 3392,
      "is,": 3393,
      "is.": 3394,
      "isol": 3395,
      "itat": 3396,
      "itated": 3397,
      "recent": 3398,
      "report": 3399,
      "relat": 3400,
      "refer": 3401,
      "reven": 3402,
      "ing.": 3403,
      "tow": 3404,
      "today": 3405,
      "enter": 3406,
      "omy": 3407,
      "oming": 3408,
      "ured": 3409,
      "urid": 3410,
      "urred": 3411,
      "oul": 3412,
      "ample": 3413,
      "ecog": 3414,
      "ilar": 3415,
      "ilway": 3416,
      "adwe": 3417,
      "adher": 3418,
      "added": 3419,
      "olving": 3420,
      "rial": 3421,
      "ries": 3422,
      "rimin": 3423,
      "riya,": 3424,
      "cha": 3425,
      "chain": 3426,
      "chos": 3427,
      "child": 3428,
      "cherry": 3429,
      "churid": 3430,
      "emper": 3431,
      "193": 3432,
      "19th": 3433,
      "lig": 3434,
      "lied": 3435,
      "lief": 3436,
      "like": 3437,
      "life,": 3438,
      "20th": 3439,
      "లు.": 3440,
      "rap": 3441,
      "rather": 3442,
      "railway": 3443,
      "ago,": 3444,
      "प्रकाश": 3445,
      "ute": 3446,
      "belong": 3447,
      "bell": 3448,
      "belief": 3449,
      "estic": 3450,
      "ush": 3451,
      "loss": 3452,
      "loose": 3453,
      "separ": 3454,
      "self": 3455,
      "में,": 3456,
      "untouch": 3457,
      "impro": 3458,
      "immediately": 3459,
      "devot": 3460,
      "లోక్": 3461,
      "స్వా": 3462,
      "ctive": 3463,
      "example": 3464,
      "ables,": 3465,
      "above": 3466,
      "ducherry": 3467,
      "ప్రకార": 3468,
      "oppos": 3469,
      "ett": 3470,
      "reser": 3471,
      "ాలయ": 3472,
      "ాలను": 3473,
      "artic": 3474,
      "area": 3475,
      "areas": 3476,
      "ोंों": 3477,
      "moist": 3478,
      "co-": 3479,
      "codi": 3480,
      "cott": 3481,
      "नेतृ": 3482,
      "compr": 3483,
      "comprom": 3484,
      "share": 3485,
      "shalwar": 3486,
      "ष्ण": 3487,
      "centage": 3488,
      "ided": 3489,
      "aced": 3490,
      "acter": 3491,
      "accom": 3492,
      "across": 3493,
      "pers": 3494,
      "claim": 3495,
      "सां": 3496,
      "2011,": 3497,
      "anta": 3498,
      "ary,": 3499,
      "ure.": 3500,
      "ively": 3501,
      "process": 3502,
      "ples": 3503,
      "Chand": 3504,
      "endra": 3505,
      "వివిధ": 3506,
      "forms": 3507,
      "formal": 3508,
      "1,000": 3509,
      "wealth": 3510,
      "languages,": 3511,
      "language,": 3512,
      "having": 3513,
      "gency,": 3514,
      "దేశంలో": 3515,
      "దేశంలోని": 3516,
      "ivity": 3517,
      "assical": 3518,
      "assert": 3519,
      "marg": 3520,
      "marked": 3521,
      "parts": 3522,
      "partic": 3523,
      "portal": 3524,
      "ముంబ": 3525,
      "century.": 3526,
      "centuries,": 3527,
      "becoming": 3528,
      "जाती": 3529,
      "जनजाति": 3530,
      "Indones": 3531,
      "26%": 3532,
      "26.": 3533,
      "latter": 3534,
      "world.": 3535,
      "region.": 3536,
      "regions.": 3537,
      "ocal": 3538,
      "ocra": 3539,
      "year.": 3540,
      "populous": 3541,
      "Asia.": 3542,
      "government,": 3543,
      "governments": 3544,
      "primary": 3545,
      "decade": 3546,
      "harlal": 3547,
      "black": 3548,
      "engineer": 3549,
      "them.": 3550,
      "extensive": 3551,
      "oka": 3552,
      "epic": 3553,
      "merch": 3554,
      "poll": 3555,
      "age.": 3556,
      "system.": 3557,
      "coral": 3558,
      "2022": 3559,
      "ward": 3560,
      "1991,": 3561,
      "ministers.": 3562,
      "achal": 3563,
      "17th": 3564,
      "Buddha": 3565,
      "Union": 3566,
      "maint": 3567,
      "సామ": 3568,
      "numbers": 3569,
      "1950s,": 3570,
      "Euras": 3571,
      "itions": 3572,
      "rought": 3573,
      "urbanisation": 3574,
      "expans": 3575,
      "expect": 3576,
      "Modern": 3577,
      "Mohen": 3578,
      "cause": 3579,
      "follow": 3580,
      "garl": 3581,
      "garment": 3582,
      "elections": 3583,
      "Empire.": 3584,
      "Stat": 3585,
      "పేర్": 3586,
      "time,": 3587,
      "later,": 3588,
      "युग": 3589,
      "10th": 3590,
      "महाद्वीप": 3591,
      "महासागर": 3592,
      "Indo-Aryan": 3593,
      "Island": 3594,
      "Islands": 3595,
      "eval": 3596,
      "pura": 3597,
      "tea": 3598,
      "పాలన": 3599,
      "పాలిత": 3600,
      "China,": 3601,
      "classical,": 3602,
      "Delhi,": 3603,
      "गणराज्य": 3604,
      "చెయ్య": 3605,
      "क्षेत्रीय": 3606,
      "historical": 3607,
      "surround": 3608,
      "చేయ": 3609,
      "styles": 3610,
      "right.": 3611,
      "భారతదేశపు": 3612,
      "భారతదేశానికి": 3613,
      "subcontinent,": 3614,
      "parliament.": 3615,
      "Himalayan": 3616,
      "Himalayas.": 3617,
      "బడిన": 3618,
      "వేగంగా": 3619,
      "office": 3620,
      "Jainism": 3621,
      "manuscript": 3622,
      "president": 3623,
      "कुल": 3624,
      "leader,": 3625,
      "GDP,": 3626,
      "2%.": 3627,
      "cymbal": 3628,
      "colonial": 3629,
      "gave": 3630,
      "key": 3631,
      "promin": 3632,
      "tribal": 3633,
      "strong": 3634,
      "strength": 3635,
      "consists": 3636,
      "स्वतन्त्र": 3637,
      "controlled": 3638,
      "player": 3639,
      "played": 3640,
      "influences": 3641,
      "Democratic": 3642,
      "disputes": 3643,
      "बहुत": 3644,
      "13th": 3645,
      "Shank": 3646,
      "Janata": 3647,
      "east.": 3648,
      "signed": 3649,
      "societ": 3650,
      "mathematical": 3651,
      "second-largest": 3652,
      "census,": 3653,
      "indigenous": 3654,
      "bread": 3655,
      "breath": 3656,
      "turn": 3657,
      "vention": 3658,
      "armies": 3659,
      "ometres": 3660,
      "ప్రపంచంలో": 3661,
      "supported": 3662,
      "transmit": 3663,
      "दशक": 3664,
      "figures": 3665,
      "ప్పట": 3666,
      "Arabian": 3667,
      "Bangal": 3668,
      "Minister": 3669,
      "curren": 3670,
      "cultural": 3671,
      "cultures": 3672,
      "crucial": 3673,
      "drain": 3674,
      "ethical": 3675,
      "guard": 3676,
      "వారస": 3677,
      "remaining": 3678,
      "status": 3679,
      "1951,": 3680,
      "setting": 3681,
      "marriages": 3682,
      "మొదల": 3683,
      "Islamic": 3684,
      "ఉత్తర": 3685,
      "ప్రజా": 3686,
      "प्रधानमंत्री": 3687,
      "Park,": 3688,
      "gradually": 3689,
      "భిన్న": 3690,
      "contains": 3691,
      "heredit": 3692,
      "కేంద్రపాలిత": 3693,
      "mathematics": 3694,
      "गुजरात": 3695,
      "थी।": 3696,
      "రెండు": 3697,
      "Bihar": 3698,
      "Civilisation": 3699,
      "Dalit": 3700,
      "Telugu": 3701,
      "natal": 3702,
      "passing": 3703,
      "trade": 3704,
      "తేదీ": 3705,
      "సరిహ": 3706,
      "independence": 3707,
      "relations": 3708,
      "liberal": 3709,
      "against": 3710,
      "astrian": 3711,
      "respon": 3712,
      "ాల్లో": 3713,
      "Chola": 3714,
      "subsequent": 3715,
      "increasingly": 3716,
      "producer": 3717,
      "Mumbai,": 3718,
      "పట్టణ": 3719,
      "Akb": 3720,
      "Capital": 3721,
      "Deccan": 3722,
      "Krishna": 3723,
      "Narendra": 3724,
      "broad": 3725,
      "daro,": 3726,
      "festival": 3727,
      "habitat": 3728,
      "similar": 3729,
      "safe": 3730,
      "written": 3731,
      "ఏర్ప": 3732,
      "బహు": 3733,
      "వృద్ధి": 3734,
      "సముద్ర": 3735,
      "recogn": 3736,
      "reached": 3737,
      "character": 3738,
      "vegetarian": 3739,
      "exchange": 3740,
      "protected": 3741,
      "declared": 3742,
      "predomin": 3743,
      "Maurya": 3744,
      "colleges": 3745,
      "introduced": 3746,
      "contributions": 3747,
      "Malayal": 3748,
      "Karnataka": 3749,
      "practic": 3750,
      "कॉंग्रेस": 3751,
      "पंजाब": 3752,
      "शताब्दी": 3753,
      "ఒరిజిన": 3754,
      "तेलुगु": 3755,
      "Ashoka": 3756,
      "August": 3757,
      "Classical": 3758,
      "Dogri": 3759,
      "Early": 3760,
      "Eighth": 3761,
      "Jharkh": 3762,
      "Jammu": 3763,
      "Jawaharlal": 3764,
      "Konk": 3765,
      "Kannad": 3766,
      "Lakshadwe": 3767,
      "Middle": 3768,
      "Myanmar": 3769,
      "Olymp": 3770,
      "Odisha": 3771,
      "Puducherry": 3772,
      "Pallav": 3773,
      "Shiva": 3774,
      "Schedule": 3775,
      "Zoroastrian": 3776,
      "bottom": 3777,
      "cattle": 3778,
      "eaten": 3779,
      "effect": 3780,
      "jo-daro,": 3781,
      "kilometres": 3782,
      "laws": 3783,
      "sometimes": 3784,
      "tandoor": 3785,
      "చరిత్ర": 3786,
      "సౌకర్య": 3787,
      "ీర్ణ": 3788,
      "araja": 3789,
      "discrimin": 3790,
      "relative": 3791,
      "revenues": 3792,
      "chosen": 3793,
      "churidar": 3794,
      "emperor": 3795,
      "bellion": 3796,
      "comprising": 3797,
      "compromise": 3798,
      "engineering": 3799,
      "Mohenjo-daro,": 3800,
      "president,": 3801,
      "transmitted": 3802,
      "ప్పటిక": 3803,
      "ఒరిజినల్": 3804,
      "Lakshadweep": 3805,
      "छत्ती": 3806,
      "शक्ति": 3807,
      "ेष": 3808,
      "१६": 3809,
      "१८": 3810,
      "२.": 3811,
      "विक": 3812,
      "नेह": 3813,
      "पूर्ण": 3814,
      "लोकसभा": 3815,
      "०००": 3816,
      "सूची": 3817,
      "अनेक": 3818,
      "जम्मू": 3819,
      "छत्तीस": 3820,
      "05": 3821,
      "16.": 3822,
      "21.": 3823,
      "210,": 3824,
      "IS": 3825,
      "dd": 3826,
      "v.in": 3827,
      "आधार": 3828,
      "उन": 3829,
      "उल्": 3830,
      "ओर": 3831,
      "चा": 3832,
      "जब": 3833,
      "ड्": 3834,
      "णां": 3835,
      "तं": 3836,
      "नों": 3837,
      "पत्र": 3838,
      "बई": 3839,
      "ोबार": 3840,
      "्ला": 3841,
      "१३": 3842,
      "्रि": 3843,
      "्यन्त": 3844,
      "India\"": 3845,
      "मेव": 3846,
      "न्तु": 3847,
      "1,210,": 3848,
      "परमाण": 3849,
      "पुण": 3850,
      "1.7%": 3851,
      "269,": 3852,
      "ंगा": 3853,
      "0.4%": 3854,
      "0.7%": 3855,
      "तीस": 3856,
      "१९५": 3857,
      "2.3%": 3858,
      "लिये": 3859,
      "3,28": 3860,
      "किया।": 3861,
      "निकोबार": 3862,
      "(1,269,": 3863,
      "14.2%": 3864,
      "सैन्य": 3865,
      "gov.in": 3866,
      "भौगोलिक": 3867,
      "समूह": 3868,
      "प्रभाव": 3869,
      "विकास": 3870,
      "7,263": 3871,
      "79.8%": 3872,
      "परमाणु": 3873,
      "(1,269,2": 3874,
      "आधु": 3875,
      "गि": 3876,
      "घोष": 3877,
      "चना": 3878,
      "टक": 3879,
      "टान": 3880,
      "लाल": 3881,
      "सह": 3882,
      "ोने": 3883,
      "्यता": 3884,
      "प्रभ": 3885,
      "संयुक्त": 3886,
      "स्ता": 3887,
      "द्वि": 3888,
      "भाषा(": 3889,
      "विशाल": 3890,
      "गुजराती": 3891,
      "पुरी,": 3892,
      "१९४७": 3893,
      "न्यायपालिका": 3894,
      "आधुनिक": 3895,
      "/%e0%a4%": 3896,
      "14%": 3897,
      "15.": 3898,
      "13.": 3899,
      "23%": 3900,
      "34": 3901,
      "4/": 3902,
      "48": 3903,
      "40%": 3904,
      "700": 3905,
      "Apr": 3906,
      "Cour": 3907,
      "Dev": 3908,
      "Fl": 3909,
      "June": 3910,
      "ause": 3911,
      "bol": 3912,
      "gest": 3913,
      "give": 3914,
      "han,": 3915,
      "iff": 3916,
      "mbol": 3917,
      "yam": 3918,
      "zone": 3919,
      "ंह": 3920,
      "अष्ट": 3921,
      "आह": 3922,
      "आन्ध": 3923,
      "उच्च": 3924,
      "एत": 3925,
      "छो": 3926,
      "झार": 3927,
      "ञ्च": 3928,
      "तम्": 3929,
      "तवान्": 3930,
      "थमे": 3931,
      "दम": 3932,
      "दार": 3933,
      "द्या": 3934,
      "नः": 3935,
      "नै": 3936,
      "नद्य": 3937,
      "पङ्": 3938,
      "बै": 3939,
      "मौ": 3940,
      "मस्ति": 3941,
      "मदन": 3942,
      "यश्च": 3943,
      "यदा": 3944,
      "रः": 3945,
      "रिक": 3946,
      "रचित": 3947,
      "रक्षा": 3948,
      "श्या": 3949,
      "स,": 3950,
      "ें": 3951,
      "ेरी": 3952,
      "ेषु": 3953,
      "्नाथठागोर": 3954,
      "९.": 3955,
      "ఇండి": 3956,
      "కళ": 3957,
      "కర్": 3958,
      "గం": 3959,
      "గలు": 3960,
      "చైన": 3961,
      "చిత్ర": 3962,
      "జి": 3963,
      "జన్": 3964,
      "డే": 3965,
      "ణంగా": 3966,
      "తన": 3967,
      "తరా": 3968,
      "ధి": 3969,
      "నీ": 3970,
      "న్య": 3971,
      "పత": 3972,
      "పద": 3973,
      "పశ": 3974,
      "పొ": 3975,
      "పద్ధ": 3976,
      "పాత్ర": 3977,
      "బి": 3978,
      "బౌ": 3979,
      "భూ": 3980,
      "మల": 3981,
      "మ్య": 3982,
      "మాత": 3983,
      "మించ": 3984,
      "లక్ష": 3985,
      "ళ్ల": 3986,
      "వడ": 3987,
      "వహ": 3988,
      "వత్స": 3989,
      "సమ": 3990,
      "సూ": 3991,
      "స్య": 3992,
      "సర్వ": 3993,
      "హ్": 3994,
      "హార": 3995,
      "ీ;": 3996,
      "ు.": 3997,
      "ుల": 3998,
      "ుంది.": 3999,
      "ony": 4000,
      "es)": 4001,
      "ore,": 4002,
      "to:": 4003,
      "्तु": 4004,
      "ानु": 4005,
      "म्)": 4006,
      "living": 4007,
      "भारते": 4008,
      "లుగు": 4009,
      "ime": 4010,
      "न्हे": 4011,
      "స్లా": 4012,
      "న్‌": 4013,
      "देशौ": 4014,
      "size": 4015,
      "ాలతో": 4016,
      "నిక": 4017,
      "నిర్": 4018,
      "నిర్వ": 4019,
      "मासस्य": 4020,
      "code": 4021,
      "भाज": 4022,
      "sour": 4023,
      "न्ते": 4024,
      "स्तर": 4025,
      "ిక,": 4026,
      "ాత్": 4027,
      "గా,": 4028,
      "గాంధ": 4029,
      "న్నాయి.": 4030,
      "కుల": 4031,
      "0%A": 4032,
      "तेषु": 4033,
      "నుక": 4034,
      "alling": 4035,
      "ల్వే": 4036,
      "త్వా": 4037,
      "मिल": 4038,
      "लाद्वीप": 4039,
      "ద్దు": 4040,
      "ద్వీ": 4041,
      "2009": 4042,
      "because": 4043,
      "किम": 4044,
      "जनसङ्": 4045,
      "స్తాన్": 4046,
      "స్థాన్": 4047,
      "పుట్ట": 4048,
      "ड़ी": 4049,
      "प्रदेशाः": 4050,
      "extinct": 4051,
      "ण्ट": 4052,
      "1965": 4053,
      "సంఖ్య": 4054,
      "సంవత్స": 4055,
      "monsoon": 4056,
      "प्राचार": 4057,
      "१९९": 4058,
      "్చిమ": 4059,
      "e0%a5%": 4060,
      "लोग": 4061,
      "दक्षिणे": 4062,
      "ान्,": 4063,
      "కాశ్": 4064,
      "పేజీ": 4065,
      "కోర్": 4066,
      "ana-": 4067,
      "सर्वे": 4068,
      "ped.": 4069,
      "వ్యా": 4070,
      "కూడిన": 4071,
      "వాతావ": 4072,
      "produced": 4073,
      "రైల్వే": 4074,
      "मध्ये": 4075,
      "1980": 4076,
      "country's": 4077,
      "रूपेण": 4078,
      "श्रेण": 4079,
      "वर्ते।": 4080,
      "Bhārat": 4081,
      "disputed": 4082,
      "ఆర్కై": 4083,
      "కార్య": 4084,
      "धीरे": 4085,
      "typ": 4086,
      "visions": 4087,
      "india-": 4088,
      "దేశాలలో": 4089,
      "जिसमें": 4090,
      "borders": 4091,
      "figur": 4092,
      "ఒకటి": 4093,
      "పరిశ్ర": 4094,
      "र्णम्": 4095,
      "ప్రధానమంత్రి": 4096,
      "अधिकृत्य": 4097,
      "महाराज्य": 4098,
      "अगाय": 4099,
      "ఉత్తరా": 4100,
      "రణం": 4101,
      "defined": 4102,
      "అధికారిక": 4103,
      "नगरम्": 4104,
      "इत्ये": 4105,
      "तेनैव": 4106,
      "कासिन्सः": 4107,
      "పూ.": 4108,
      "रागेण": 4109,
      "1st)": 4110,
      "పరంగా": 4111,
      "रवीन्द्र्नाथठागोर": 4112,
      "जैन": 4113,
      "Language": 4114,
      "జరిగిన": 4115,
      "వంటి": 4116,
      "additional": 4117,
      "అనేక": 4118,
      "ఎక్కువగా": 4119,
      "పైగా": 4120,
      "స్వతంత్ర": 4121,
      "కాంగ్రెసు": 4122,
      "బెంగాల": 4123,
      "స్వాతంత్ర్య": 4124,
      "बृहत्त": 4125,
      "बेङ्गली": 4126,
      "చూసిన": 4127,
      "దారులు,": 4128,
      "adopted": 4129,
      "निरपे": 4130,
      "ప్రాచీన": 4131,
      "स्वतंत्रता": 4132,
      "मलयाळम्": 4133,
      "तमिळ्": 4134,
      "अभवत्": 4135,
      "నడిపించ": 4136,
      "ప్రకారం": 4137,
      "नेतृत्व": 4138,
      "ముంబై": 4139,
      "చెయ్యబడింది.": 4140,
      "తేదీ:": 4141,
      "సరిహద్దు": 4142,
      "पत्रिका": 4143,
      "April": 4144,
      "Court": 4145,
      "आन्ध्र": 4146,
      "नद्यः": 4147,
      "मदनप": 4148,
      "ఇండియా": 4149,
      "పశ్చిమ": 4150,
      "బౌద్ధ": 4151,
      "నిర్వహ": 4152,
      "గాంధీ": 4153,
      "जनसङ्ख्या": 4154,
      "కాశ్మీ": 4155,
      "పేజీని": 4156,
      "వాతావరణం": 4157,
      "ఆర్కైవు": 4158,
      "పరిశ్రమ": 4159,
      "रवीन्द्र्नाथठागोरवर्येण": 4160,
      "%)": 4161,
      "(₹": 4162,
      "(IN": 4163,
      "(%)": 4164,
      "C+": 4165,
      "R)": 4166,
      "TC+": 4167,
      "UTC+": 4168,
      "अशो": 4169,
      "आर्य": 4170,
      "ऊँ": 4171,
      "नदी": 4172,
      "पद": 4173,
      "पहा": 4174,
      "लम्": 4175,
      "लक्ष": 4176,
      "सत्य": 4177,
      "हन": 4178,
      "ोच्च": 4179,
      "ams": 4180,
      "स्वर": 4181,
      "पुत्र": 4182,
      "वादी": 4183,
      "मुम्": 4184,
      "वर्ग": 4185,
      "28°": 4186,
      "क्री": 4187,
      "सर्वोच्च": 4188,
      "हरलाल": 4189,
      "ायिका": 4190,
      "विधायिका": 4191,
      "77°": 4192,
      "ब्रह्म": 4193,
      "मराठी": 4194,
      "(PPP)": 4195,
      "छत्तीसगढ": 4196,
      "(₹)": 4197,
      "(INR)": 4198,
      "(7": 4199,
      "11": 4200,
      "12,": 4201,
      "55": 4202,
      "55,": 4203,
      "63": 4204,
      "64%": 4205,
      "vol": 4206,
      "अरु": 4207,
      "इस्": 4208,
      "इंड": 4209,
      "कन्न": 4210,
      "गंगा": 4211,
      "च्": 4212,
      "तार": 4213,
      "दर्श": 4214,
      "पी": 4215,
      "रि": 4216,
      "लिया": 4217,
      "शहर": 4218,
      "सक": 4219,
      "सौ": 4220,
      "ोर्": 4221,
      "२६": 4222,
      "–201": 4223,
      "ional": 4224,
      "केर": 4225,
      "1930": 4226,
      "प्रार": 4227,
      "काम": 4228,
      "देख": 4229,
      "साल": 4230,
      "राज्यसभा": 4231,
      "तेल": 4232,
      "पुरु": 4233,
      "हाँ": 4234,
      "सिंह": 4235,
      "जनगण": 4236,
      "निभा": 4237,
      "पाद": 4238,
      "समृद्ध": 4239,
      "2.8": 4240,
      "17.": 4241,
      "दीव": 4242,
      "3,0": 4243,
      "जिन": 4244,
      "वर्षों": 4245,
      "युद्ध": 4246,
      "सदस्य": 4247,
      "geo": 4248,
      "गया।": 4249,
      "अंग्रेजी": 4250,
      "बंधन": 4251,
      "बड़ा": 4252,
      "हुआ।": 4253,
      "न्यायालय": 4254,
      "बिहार": 4255,
      "बीच": 4256,
      "Austral": 4257,
      "१९५०": 4258,
      "3,287,263": 4259,
      "(1,269,219": 4260,
      "55,000": 4261,
      "इस्ला": 4262,
      "Gini": 4263,
      "आन्द": 4264,
      "उद्": 4265,
      "ऋष": 4266,
      "कम": 4267,
      "जग": 4268,
      "डो": 4269,
      "धर्": 4270,
      "पत्": 4271,
      "बु": 4272,
      "मार": 4273,
      "रिया": 4274,
      "वन्": 4275,
      "ेय": 4276,
      "२७": 4277,
      "International": 4278,
      "म्भ": 4279,
      "प्रदा": 4280,
      "स्‍": 4281,
      "स्वा": 4282,
      "भाष": 4283,
      "पर्य": 4284,
      "पुन": 4285,
      "शाखा": 4286,
      "वाक्य": 4287,
      "जनवरी": 4288,
      "atics": 4289,
      "ल्ल": 4290,
      "ध्येय": 4291,
      "वेद": 4292,
      "ब्रि": 4293,
      "जयते": 4294,
      "अवध": 4295,
      "प्रधानमन्त्र": 4296,
      "ध्वज": 4297,
      "लिखित": 4298,
      "विभिन्न": 4299,
      "दृष्ट": 4300,
      "द्वितीय": 4301,
      "सत्यमेव": 4302,
      "आन्दोल": 4303,
      "\")": 4304,
      "\",": 4305,
      "(3": 4306,
      "(Ἰ": 4307,
      "(including": 4308,
      "(Ar": 4309,
      "-year": 4310,
      "-sc": 4311,
      "-ga": 4312,
      "-majority": 4313,
      "10.": 4314,
      "21,": 4315,
      "2nd": 4316,
      "39%": 4317,
      "46%": 4318,
      "43%": 4319,
      "5th": 4320,
      "55.": 4321,
      "62": 4322,
      "67": 4323,
      "6th": 4324,
      "70": 4325,
      "7th": 4326,
      "8–": 4327,
      "8th": 4328,
      "Ab": 4329,
      "Ahm": 4330,
      "Acha": 4331,
      "Alig": 4332,
      "Ba": 4333,
      "Bal": 4334,
      "Bet": 4335,
      "Can": 4336,
      "Cal": 4337,
      "Cup": 4338,
      "Clim": 4339,
      "Cricket": 4340,
      "Dis": 4341,
      "Dom": 4342,
      "Date": 4343,
      "Domin": 4344,
      "Ex": 4345,
      "Eas": 4346,
      "Ele": 4347,
      "Econ": 4348,
      "Emer": 4349,
      "Eight": 4350,
      "Fed": 4351,
      "Fol": 4352,
      "Fem": 4353,
      "From": 4354,
      "Gang": 4355,
      "Gate": 4356,
      "Gana": 4357,
      "Gold": 4358,
      "Ha": 4359,
      "He": 4360,
      "Him": 4361,
      "Iran": 4362,
      "Jud": 4363,
      "Jana": 4364,
      "Kal": 4365,
      "King": 4366,
      "Kad": 4367,
      "Kol": 4368,
      "Kaver": 4369,
      "Le": 4370,
      "Lar": 4371,
      "Lor": 4372,
      "Lok": 4373,
      "Mag": 4374,
      "Major": 4375,
      "Miz": 4376,
      "Medi": 4377,
      "Ni": 4378,
      "Nat": 4379,
      "Nand": 4380,
      "Num": 4381,
      "Network": 4382,
      "Oc": 4383,
      "On": 4384,
      "Or": 4385,
      "Oce": 4386,
      "Out": 4387,
      "Oriya,": 4388,
      "Pl": 4389,
      "Pal": 4390,
      "Pol": 4391,
      "Prol": 4392,
      "Rai": 4393,
      "River": 4394,
      "Recog": 4395,
      "So": 4396,
      "San": 4397,
      "Ser": 4398,
      "Sal": 4399,
      "Sim": 4400,
      "Soc": 4401,
      "Some": 4402,
      "Sarn": 4403,
      "Sultanate": 4404,
      "Sund": 4405,
      "To": 4406,
      "Tam": 4407,
      "V.": 4408,
      "Var": 4409,
      "Vis": 4410,
      "Vaj": 4411,
      "Vedi": 4412,
      "War": 4413,
      "Women": 4414,
      "Yarl": 4415,
      "aː": 4416,
      "a—": 4417,
      "aud": 4418,
      "aism,": 4419,
      "ba": 4420,
      "bar": 4421,
      "bed": 4422,
      "bur": 4423,
      "bra": 4424,
      "blo": 4425,
      "bans": 4426,
      "buc": 4427,
      "bird": 4428,
      "bably": 4429,
      "brought": 4430,
      "cing": 4431,
      "cil": 4432,
      "cation": 4433,
      "cus": 4434,
      "cak": 4435,
      "cover": 4436,
      "coun": 4437,
      "clear": 4438,
      "cere": 4439,
      "cris": 4440,
      "crop": 4441,
      "dan": 4442,
      "dre": 4443,
      "dent": 4444,
      "dest": 4445,
      "dus": 4446,
      "dry": 4447,
      "dates": 4448,
      "drop": 4449,
      "dyn": 4450,
      "e;": 4451,
      "eous": 4452,
      "each": 4453,
      "eograph": 4454,
      "either": 4455,
      "fr": 4456,
      "fil": 4457,
      "ful": 4458,
      "fare": 4459,
      "fac": 4460,
      "free": 4461,
      "food": 4462,
      "flower": 4463,
      "favour": 4464,
      "gon": 4465,
      "gro": 4466,
      "gir": 4467,
      "gig": 4468,
      "govern": 4469,
      "gation,": 4470,
      "ginn": 4471,
      "gained": 4472,
      "hon": 4473,
      "hor": 4474,
      "ham": 4475,
      "hun": 4476,
      "ha,": 4477,
      "hot": 4478,
      "hous": 4479,
      "hoc": 4480,
      "hya": 4481,
      "hood": 4482,
      "hind": 4483,
      "host": 4484,
      "i)": 4485,
      "iat": 4486,
      "ior": 4487,
      "idu": 4488,
      "ia.": 4489,
      "io,": 4490,
      "ified": 4491,
      "jo": 4492,
      "jay": 4493,
      "jac": 4494,
      "ks": 4495,
      "kat": 4496,
      "kurt": 4497,
      "l.": 4498,
      "ls": 4499,
      "list": 4500,
      "lab": 4501,
      "la,": 4502,
      "lav": 4503,
      "length": 4504,
      "my": 4505,
      "mand": 4506,
      "mas": 4507,
      "met": 4508,
      "may": 4509,
      "mort": 4510,
      "mount": 4511,
      "mater": 4512,
      "mns": 4513,
      "nin": 4514,
      "non": 4515,
      "nar": 4516,
      "nic": 4517,
      "ning": 4518,
      "next": 4519,
      "nised": 4520,
      "nearly": 4521,
      "network": 4522,
      "oth": 4523,
      "och": 4524,
      "osp": 4525,
      "pap": 4526,
      "pot": 4527,
      "piv": 4528,
      "pani": 4529,
      "push": 4530,
      "ring": 4531,
      "rent": 4532,
      "run": 4533,
      "rast": 4534,
      "rical": 4535,
      "ranges": 4536,
      "ration,": 4537,
      "roup": 4538,
      "sto": 4539,
      "sli": 4540,
      "smo": 4541,
      "sac": 4542,
      "sine": 4543,
      "sci": 4544,
      "saw": 4545,
      "semble": 4546,
      "savour": 4547,
      "sine,": 4548,
      "tun": 4549,
      "ta,": 4550,
      "tig": 4551,
      "ti,": 4552,
      "ty.": 4553,
      "tree": 4554,
      "table": 4555,
      "tell": 4556,
      "treat": 4557,
      "uj": 4558,
      "udi": 4559,
      "ufact": 4560,
      "vul": 4561,
      "vary": 4562,
      "valle": 4563,
      "vocal": 4564,
      "wan": 4565,
      "wal": 4566,
      "wet": 4567,
      "wood": 4568,
      "winn": 4569,
      "wanted": 4570,
      "wana,": 4571,
      "xed": 4572,
      "zes": 4573,
      "zed": 4574,
      "νδ": 4575,
      "ंट": 4576,
      "अम": 4577,
      "अमे": 4578,
      "अहि": 4579,
      "अलग": 4580,
      "आर": 4581,
      "आस": 4582,
      "इसी": 4583,
      "एं": 4584,
      "कश": 4585,
      "कों": 4586,
      "गां": 4587,
      "गढ़": 4588,
      "जन्": 4589,
      "जपुरी,": 4590,
      "डॉ": 4591,
      "थिय": 4592,
      "दल": 4593,
      "धार्": 4594,
      "नौ": 4595,
      "पै": 4596,
      "बह": 4597,
      "बनी": 4598,
      "भग": 4599,
      "यन": 4600,
      "लका": 4601,
      "शी": 4602,
      "शील": 4603,
      "सिक्": 4604,
      "हरी": 4605,
      "हार्": 4606,
      "हवे": 4607,
      "हथिय": 4608,
      "ूदू": 4609,
      "ेक": 4610,
      "२३": 4611,
      "ం:": 4612,
      "ందిన": 4613,
      "ంచి": 4614,
      "అని": 4615,
      "అక్ష": 4616,
      "ఆగ": 4617,
      "ఇవ": 4618,
      "ఇంగ్ల": 4619,
      "ఇస్లా": 4620,
      "ఇన్‌": 4621,
      "కల": 4622,
      "కన్న": 4623,
      "కరణ": 4624,
      "గ్ర": 4625,
      "జో": 4626,
      "జంత": 4627,
      "టో": 4628,
      "డాల": 4629,
      "దన": 4630,
      "ద్య": 4631,
      "నది": 4632,
      "నాయ": 4633,
      "పి": 4634,
      "పార్": 4635,
      "బంధ": 4636,
      "మతం": 4637,
      "రాలు": 4638,
      "రకాల": 4639,
      "వలం": 4640,
      "శెల": 4641,
      "షన్": 4642,
      "సే": 4643,
      "సార": 4644,
      "సార్": 4645,
      "సిక్": 4646,
      "హా": 4647,
      "హిమ": 4648,
      "ిల్": 4649,
      "ువు": 4650,
      "్,": 4651,
      "‌సభ": 4652,
      "th,": 4653,
      "th.": 4654,
      "aning": 4655,
      "ancy": 4656,
      "ining": 4657,
      "ins.": 4658,
      "inated": 4659,
      "indh": 4660,
      "inno": 4661,
      "instr": 4662,
      "international": 4663,
      "theor": 4664,
      "erc": 4665,
      "erly": 4666,
      "ert,": 4667,
      "on,": 4668,
      "onic": 4669,
      "only": 4670,
      "onset": 4671,
      "ales": 4672,
      "aled": 4673,
      "aris": 4674,
      "arter": 4675,
      "ards": 4676,
      "ardis": 4677,
      "arbans": 4678,
      "ene": 4679,
      "enn": 4680,
      "enab": 4681,
      "enhouse": 4682,
      "es:": 4683,
      "ats": 4684,
      "ator": 4685,
      "ati,": 4686,
      "attra": 4687,
      "ativity": 4688,
      "di,": 4689,
      "did": 4690,
      "died": 4691,
      "dise": 4692,
      "diment": 4693,
      "diction": 4694,
      "dients": 4695,
      "ed.": 4696,
      "edabad": 4697,
      "oram": 4698,
      "orce": 4699,
      "ors.": 4700,
      "ories": 4701,
      "andy": 4702,
      "andardis": 4703,
      "Incre": 4704,
      "asar": 4705,
      "ass.": 4706,
      "asive": 4707,
      "asures": 4708,
      "ises": 4709,
      "isans": 4710,
      "isine": 4711,
      "isdiction": 4712,
      "ities": 4713,
      "itte": 4714,
      "ities.": 4715,
      "itude": 4716,
      "ic.": 4717,
      "icken": 4718,
      "ream": 4719,
      "rece": 4720,
      "reme": 4721,
      "rept": 4722,
      "repe": 4723,
      "reement": 4724,
      "reign": 4725,
      "reasing": 4726,
      "represent": 4727,
      "returned": 4728,
      "refle": 4729,
      "rebellion": 4730,
      "tober": 4731,
      "ential": 4732,
      "entire": 4733,
      "entually": 4734,
      "India:": 4735,
      "oman": 4736,
      "ur,": 4737,
      "urse": 4738,
      "urish": 4739,
      "stri": 4740,
      "stant": 4741,
      "stud": 4742,
      "story": 4743,
      "stiff": 4744,
      "standardis": 4745,
      "lement": 4746,
      "leav": 4747,
      "amed": 4748,
      "amend": 4749,
      "ly.": 4750,
      "lying": 4751,
      "ili": 4752,
      "illi": 4753,
      "ilitated": 4754,
      "Thail": 4755,
      "adem": 4756,
      "adver": 4757,
      "advent": 4758,
      "terra": 4759,
      "ter-ga": 4760,
      "terior": 4761,
      "olution": 4762,
      "ారం": 4763,
      "chi": 4764,
      "chat": 4765,
      "chap": 4766,
      "chose": 4767,
      "cheet": 4768,
      "emer": 4769,
      "emen": 4770,
      "They": 4771,
      "ul,": 4772,
      "ulation": 4773,
      "veral": 4774,
      "lie": 4775,
      "live": 4776,
      "liance": 4777,
      "lived": 4778,
      "ro-": 4779,
      "ceed": 4780,
      "agreement": 4781,
      "forti": 4782,
      "fortable": 4783,
      "प्रकार": 4784,
      "uture": 4785,
      "beach": 4786,
      "beginn": 4787,
      "behind": 4788,
      "ested": 4789,
      "using": 4790,
      "usually": 4791,
      "Indians.": 4792,
      "angra": 4793,
      "se,": 4794,
      "sex": 4795,
      "seals": 4796,
      "seats": 4797,
      "sediment": 4798,
      "consu": 4799,
      "consum": 4800,
      "concept": 4801,
      "contour": 4802,
      "uni": 4803,
      "unres": 4804,
      "united": 4805,
      "unitary": 4806,
      "uncommon": 4807,
      "unities.": 4808,
      "विदेश": 4809,
      "imper": 4810,
      "imple": 4811,
      "de,": 4812,
      "def": 4813,
      "dev": 4814,
      "defe": 4815,
      "deleg": 4816,
      "devast": 4817,
      "irt": 4818,
      "iron": 4819,
      "ghat": 4820,
      "isting": 4821,
      "ists,": 4822,
      "స్,": 4823,
      "cts": 4824,
      "cting": 4825,
      "cture": 4826,
      "what": 4827,
      "suc": 4828,
      "super": 4829,
      "supre": 4830,
      "except": 4831,
      "excav": 4832,
      "exerc": 4833,
      "existing": 4834,
      "abs": 4835,
      "దేశానికి": 4836,
      "open": 4837,
      "sia,": 4838,
      "ాలా": 4839,
      "ాలకు": 4840,
      "నికి": 4841,
      "arts,": 4842,
      "artistic": 4843,
      "artisans": 4844,
      "uments": 4845,
      "derived": 4846,
      "overran": 4847,
      "are:": 4848,
      "area,": 4849,
      "area.": 4850,
      "mental": 4851,
      "mented": 4852,
      "moh": 4853,
      "model": 4854,
      "cost": 4855,
      "ritual": 4856,
      "company": 4857,
      "comfortable": 4858,
      "elag": 4859,
      "shy": 4860,
      "shor": 4861,
      "short": 4862,
      "shaw": 4863,
      "shoul": 4864,
      "spot": 4865,
      "aps": 4866,
      "appoint": 4867,
      "therers,": 4868,
      "sole": 4869,
      "idence": 4870,
      "account": 4871,
      "according": 4872,
      "access": 4873,
      "percentage": 4874,
      "class.": 4875,
      "meet": 4876,
      "mega": 4877,
      "meaning": 4878,
      "ికత": 4879,
      "ికి": 4880,
      "hibian": 4881,
      "ot.": 4882,
      "otech": 4883,
      "worship": 4884,
      "2012": 4885,
      "2018": 4886,
      "2010.": 4887,
      "ants,": 4888,
      "Hindus": 4889,
      "proper": 4890,
      "project": 4891,
      "probably": 4892,
      "ance,": 4893,
      "plant": 4894,
      "planted": 4895,
      "placed": 4896,
      "Chha": 4897,
      "Chess": 4898,
      "Champ": 4899,
      "Chandi": 4900,
      "ends": 4901,
      "ended": 4902,
      "ending": 4903,
      "కుంట": 4904,
      "కుటు": 4905,
      "వి.": 4906,
      "था,": 4907,
      "rupe": 4908,
      "form,": 4909,
      "formation": 4910,
      "forms.": 4911,
      "formally": 4912,
      "formerly": 4913,
      "larger": 4914,
      "affir": 4915,
      "ాయు": 4916,
      "bercul": 4917,
      "languages.": 4918,
      "రాస్య": 4919,
      "ated.": 4920,
      "atedly": 4921,
      "hav": 4922,
      "aj,": 4923,
      "gence": 4924,
      "gender": 4925,
      "iving": 4926,
      "నులు,": 4927,
      "assass": 4928,
      "amework": 4929,
      "mark": 4930,
      "marry": 4931,
      "marshy": 4932,
      "post": 4933,
      "ptember": 4934,
      "CE.": 4935,
      "minor": 4936,
      "partially": 4937,
      "ము.": 4938,
      "ought": 4939,
      "कोलका": 4940,
      "creating": 4941,
      "creativity": 4942,
      "ously": 4943,
      "ective": 4944,
      "2001,": 4945,
      "2008,": 4946,
      "stitutes": 4947,
      "करण": 4948,
      "करना": 4949,
      "avi": 4950,
      "avar": 4951,
      "aved": 4952,
      "जाते": 4953,
      "economies": 4954,
      "economy,": 4955,
      "ogam": 4956,
      "किन्तु": 4957,
      "1.0": 4958,
      "1.3": 4959,
      "26,": 4960,
      "ally.": 4961,
      "subdu": 4962,
      "substant": 4963,
      "ली,": 4964,
      "लीन": 4965,
      "years,": 4966,
      "first-": 4967,
      "Asians": 4968,
      "Asiatic": 4969,
      "वर्षा": 4970,
      "ence.": 4971,
      "peak": 4972,
      "peace": 4973,
      "ressed": 4974,
      "हिन्दूदू": 4975,
      "dhra": 4976,
      "dhot": 4977,
      "decis": 4978,
      "declin": 4979,
      "decidu": 4980,
      "decreasing": 4981,
      "syn": 4982,
      "symbol": 4983,
      "मानव": 4984,
      "ganiz": 4985,
      "extreme": 4986,
      "extends": 4987,
      "pared": 4988,
      "parents": 4989,
      "elect": 4990,
      "Anthem": 4991,
      "Andhra": 4992,
      "viet": 4993,
      "view": 4994,
      "1962": 4995,
      "1967": 4996,
      "long-": 4997,
      "numeral": 4998,
      "సంఘ": 4999,
      "సంప్రదాయ": 5000,
      "systems": 5001,
      "लेट": 5002,
      "monwealth": 5003,
      "serving": 5004,
      "ంటే": 5005,
      "188": 5006,
      "18th": 5007,
      "2021": 5008,
      "2022,": 5009,
      "2023.": 5010,
      "flut": 5011,
      "million-": 5012,
      "niqu": 5013,
      "warri": 5014,
      "1999.": 5015,
      "వాణి": 5016,
      "castes,": 5017,
      "caste,": 5018,
      "notable": 5019,
      "notably": 5020,
      "limited": 5021,
      "music.": 5022,
      "ensity": 5023,
      "ensemble": 5024,
      "output": 5025,
      "Union.": 5026,
      "greenhouse": 5027,
      "mainly": 5028,
      "prin": 5029,
      "that,": 5030,
      "classes": 5031,
      "years;": 5032,
      "population,": 5033,
      "traditions": 5034,
      "traditions.": 5035,
      "numbers,": 5036,
      "athur": 5037,
      "ఉన్నారు.": 5038,
      "Alliance": 5039,
      "pread": 5040,
      "prevent": 5041,
      "టిలో": 5042,
      "largely": 5043,
      "large-sc": 5044,
      "दादरा": 5045,
      "होती": 5046,
      "30th)": 5047,
      "awatt": 5048,
      "పాటు": 5049,
      "exporter": 5050,
      "expanding": 5051,
      "includes": 5052,
      "Buddhism,": 5053,
      "Mah": 5054,
      "Mahat": 5055,
      "Maith": 5056,
      "Movement": 5057,
      "folk": 5058,
      "garden": 5059,
      "legal": 5060,
      "supplanted": 5061,
      "rule,": 5062,
      "election.": 5063,
      "elections.": 5064,
      "British-": 5065,
      "Still": 5066,
      "నేపాల": 5067,
      "ology": 5068,
      "ological": 5069,
      "ologically": 5070,
      "Bengali,": 5071,
      "Ensemble": 5072,
      "Commonwealth": 5073,
      "Tamil,": 5074,
      "milk": 5075,
      "rate,": 5076,
      "south,": 5077,
      "south.": 5078,
      "కోట్ల": 5079,
      "river,": 5080,
      "rivers,": 5081,
      "workforce": 5082,
      "generally,": 5083,
      "north,": 5084,
      "north-": 5085,
      "northwest": 5086,
      "caste-": 5087,
      "Pakistan)": 5088,
      "Pakistan,": 5089,
      "उत्तरा": 5090,
      "-des": 5091,
      "-day": 5092,
      "२०११": 5093,
      "జనవరి": 5094,
      "1977": 5095,
      "1971,": 5096,
      "Indo-Gang": 5097,
      "eventually": 5098,
      "rising": 5099,
      "teach": 5100,
      "దుతున్న": 5101,
      "speci": 5102,
      "species.": 5103,
      "highly": 5104,
      "Chinese": 5105,
      "power.": 5106,
      "Punjabi": 5107,
      "Punjabi,": 5108,
      "ground": 5109,
      "humans": 5110,
      "history,": 5111,
      "historically": 5112,
      "historians": 5113,
      "osis": 5114,
      "osa,": 5115,
      "గువ": 5116,
      "thereafter": 5117,
      "styles,": 5118,
      "ultaneous": 5119,
      "people,": 5120,
      "literat": 5121,
      "literary": 5122,
      "period.": 5123,
      "Europe.": 5124,
      "Himalayas": 5125,
      "Himalayas,": 5126,
      "calend": 5127,
      "rative": 5128,
      "బడ్": 5129,
      "వేల": 5130,
      "produce": 5131,
      "णाचल": 5132,
      "Jainism,": 5133,
      "US$2,": 5134,
      "US$100": 5135,
      "manufact": 5136,
      "presence": 5137,
      "కేవలం": 5138,
      "రైళ్ల": 5139,
      "theast,": 5140,
      "essential": 5141,
      "state,": 5142,
      "leader": 5143,
      "emphas": 5144,
      "medium": 5145,
      "medicin": 5146,
      "medieval": 5147,
      "occas": 5148,
      "occurred": 5149,
      "nationalist": 5150,
      "geograph": 5151,
      "obstru": 5152,
      "ణాసియా": 5153,
      "country,": 5154,
      "हरिया": 5155,
      "Plate.": 5156,
      "English,": 5157,
      "7.5%": 5158,
      "far-": 5159,
      "farmer": 5160,
      "neigh": 5161,
      "non-Congress": 5162,
      "non-violence": 5163,
      "non-co-": 5164,
      "promot": 5165,
      "ronic": 5166,
      "కొన్ని": 5167,
      "మైనది.": 5168,
      "వచ్చిన": 5169,
      "annually": 5170,
      "annual": 5171,
      "archaic": 5172,
      "espite": 5173,
      "forest,": 5174,
      "forests,": 5175,
      "courts,": 5176,
      "courts.": 5177,
      "applied": 5178,
      "playing": 5179,
      "diversity.": 5180,
      "Sikhs,": 5181,
      "Sikhism": 5182,
      "Gandhi,": 5183,
      "श्री": 5184,
      "1%.": 5185,
      "Demograph": 5186,
      "display": 5187,
      "territorial": 5188,
      "territories.": 5189,
      "Gujarati,": 5190,
      "Amrit": 5191,
      "Shastri": 5192,
      "domestic": 5193,
      "founded": 5194,
      "lasted": 5195,
      "ఆర్థ": 5196,
      "కారణంగా": 5197,
      "హిందీ": 5198,
      "lower-body": 5199,
      "भूमिका": 5200,
      "Sea": 5201,
      "Sea.": 5202,
      "Several": 5203,
      "September": 5204,
      "visit": 5205,
      "భారతదేశంలోని": 5206,
      "రాజ్యం": 5207,
      "రాజ్యాలు": 5208,
      "Rajiv": 5209,
      "Rajya": 5210,
      "Rajput": 5211,
      "biodiversity": 5212,
      "biotech": 5213,
      "break": 5214,
      "carved": 5215,
      "cities,": 5216,
      "citiz": 5217,
      "men,": 5218,
      "members": 5219,
      "paintings": 5220,
      "techniqu": 5221,
      "రోడ్": 5222,
      "శాఖ": 5223,
      "సభ్య": 5224,
      "industrial": 5225,
      "arms": 5226,
      "diffused": 5227,
      "changed": 5228,
      "rocky": 5229,
      "dependent": 5230,
      "movement.": 5231,
      "coastal": 5232,
      "coastline": 5233,
      "plains,": 5234,
      "feature": 5235,
      "support.": 5236,
      "transformed": 5237,
      "literacy,": 5238,
      "speaking": 5239,
      "दोनों": 5240,
      "9%.": 5241,
      "border": 5242,
      "borne": 5243,
      "amphibian": 5244,
      "term.": 5245,
      "...": 5246,
      "2026,": 5247,
      "Arab": 5248,
      "Arav": 5249,
      "current": 5250,
      "dense": 5251,
      "draw": 5252,
      "ethnic": 5253,
      "ide,": 5254,
      "knit": 5255,
      "ruled": 5256,
      "ruling": 5257,
      "sitar": 5258,
      "sites": 5259,
      "vene": 5260,
      "వారి": 5261,
      "animals": 5262,
      "involved": 5263,
      "involving": 5264,
      "dishes": 5265,
      "remained": 5266,
      "stead": 5267,
      "steamed": 5268,
      "statu": 5269,
      "settlement": 5270,
      "exports": 5271,
      "exported": 5272,
      "exports.": 5273,
      "residents": 5274,
      "commission": 5275,
      "committe": 5276,
      "communities.": 5277,
      "married": 5278,
      "markets.": 5279,
      "Hindustan": 5280,
      "violent": 5281,
      "Islam": 5282,
      "Islam,": 5283,
      "occupy": 5284,
      "occupation,": 5285,
      "Bharatanat": 5286,
      "नेपाली": 5287,
      "II,": 5288,
      "edicts": 5289,
      "స్థానంలో": 5290,
      "క్రీ.": 5291,
      "अपने": 5292,
      "अपनी": 5293,
      "बड़ी": 5294,
      "बड़े": 5295,
      "intervention": 5296,
      "democratic": 5297,
      "democra": 5298,
      "five-year": 5299,
      "layer": 5300,
      "make": 5301,
      "oor,": 5302,
      "range": 5303,
      "range,": 5304,
      "well-": 5305,
      "ట్లు": 5306,
      "పూర్వ": 5307,
      "బాద్": 5308,
      "ష్ణ": 5309,
      "infect": 5310,
      "divorce": 5311,
      "several": 5312,
      "severely": 5313,
      "commerce": 5314,
      "generated": 5315,
      "service": 5316,
      "సాంప్రదాయ": 5317,
      "headed": 5318,
      "చెందిన": 5319,
      "చెందుతున్న": 5320,
      "agriculture.": 5321,
      "contributes": 5322,
      "contributed": 5323,
      "building": 5324,
      "mathematicians": 5325,
      "industry,": 5326,
      "Manipuri": 5327,
      "विस्तृत": 5328,
      "361": 5329,
      "bride": 5330,
      "organised": 5331,
      "ముఖ్యమైన": 5332,
      "नागाल": 5333,
      "Madhya": 5334,
      "Telang": 5335,
      "average": 5336,
      "cutta,": 5337,
      "close": 5338,
      "civilian": 5339,
      "dominion": 5340,
      "dominance": 5341,
      "everyday": 5342,
      "factor": 5343,
      "multi-": 5344,
      "paye": 5345,
      "temper": 5346,
      "temples": 5347,
      "texts": 5348,
      "voted": 5349,
      "various": 5350,
      "wildlife": 5351,
      "కలిగి": 5352,
      "independent": 5353,
      "alliance": 5354,
      "distinct": 5355,
      "register": 5356,
      "related": 5357,
      "administration": 5358,
      "whereas": 5359,
      "eticide,": 5360,
      "respective": 5361,
      "complex": 5362,
      "spreading": 5363,
      "affect": 5364,
      "affair": 5365,
      "points": 5366,
      "partition.": 5367,
      "subsequently": 5368,
      "policy": 5369,
      "policies": 5370,
      "survives": 5371,
      "schools": 5372,
      "Plateau,": 5373,
      "Assamese,": 5374,
      "coalition,": 5375,
      "Mumbai": 5376,
      "Uttarakh": 5377,
      "चित्र": 5378,
      "अन्तर्": 5379,
      "चेन्न": 5380,
      "पार्टी": 5381,
      "Languages": 5382,
      "ఉంటాయి.": 5383,
      "inequality,": 5384,
      "(2)": 5385,
      "असमिया": 5386,
      "भोजपुरी,": 5387,
      "Desert,": 5388,
      "Ghats,": 5389,
      "Gondwana,": 5390,
      "Non-Alig": 5391,
      "Non-Prol": 5392,
      "Satpura": 5393,
      "Sabha": 5394,
      "Sabha,": 5395,
      "desc": 5396,
      "female": 5397,
      "females": 5398,
      "flood": 5399,
      "flourish": 5400,
      "hymns": 5401,
      "half": 5402,
      "jurisdiction": 5403,
      "pilgri": 5404,
      "తెలుగు": 5405,
      "వందే": 5406,
      "సంగీతం": 5407,
      "ati.": 5408,
      "associate": 5409,
      "associated": 5410,
      "advanced": 5411,
      "companies": 5412,
      "elites": 5413,
      "elites,": 5414,
      "shared": 5415,
      "sports": 5416,
      "meat,": 5417,
      "provided": 5418,
      "weapon": 5419,
      "weapons": 5420,
      "relief,": 5421,
      "reliefs": 5422,
      "bodies": 5423,
      "సంస్కృతి": 5424,
      "సాధించ": 5425,
      "legislature": 5426,
      "renewable": 5427,
      "architecture,": 5428,
      "Kashmiri,": 5429,
      "crust,": 5430,
      "దక్షిణాన": 5431,
      "Marathi,": 5432,
      "Nepali,": 5433,
      "Tibetan": 5434,
      "secular,": 5435,
      "ప్రభుత్వం": 5436,
      "Kathakali": 5437,
      "Urdu.": 5438,
      "Sikkim.": 5439,
      "2010,": 5440,
      "ఆధార": 5441,
      "బ్రిటి": 5442,
      "anagara": 5443,
      "ప్రస్తుతం": 5444,
      "పాకిస్థాన్": 5445,
      "సినిమా": 5446,
      "briefly": 5447,
      "Christianity,": 5448,
      "प्लेट": 5449,
      "गठबंधन": 5450,
      "पहले": 5451,
      "हालाँ": 5452,
      "प्रत्येक": 5453,
      "Ajanta": 5454,
      "Caves": 5455,
      "Front": 5456,
      "Kosi": 5457,
      "Lankan": 5458,
      "Prime": 5459,
      "Santali": 5460,
      "Sindhi": 5461,
      "Treaty,": 5462,
      "Vijay": 5463,
      "Yakshag": 5464,
      "bonds": 5465,
      "bulk": 5466,
      "bronze": 5467,
      "crocodi": 5468,
      "climatic": 5469,
      "drum": 5470,
      "foeticide,": 5471,
      "gods": 5472,
      "goods": 5473,
      "hubs": 5474,
      "iferation": 5475,
      "killed": 5476,
      "males.": 5477,
      "migration": 5478,
      "mammals,": 5479,
      "nerable": 5480,
      "patron": 5481,
      "pastoral": 5482,
      "poverty": 5483,
      "tubercul": 5484,
      "victories": 5485,
      "winds": 5486,
      "welfare": 5487,
      "అభివృద్ధి": 5488,
      "మూడు": 5489,
      "మాత్రం": 5490,
      "రహదారులు,": 5491,
      "శతాబ్దం": 5492,
      "సమాఖ్య": 5493,
      "thorn": 5494,
      "threatened": 5495,
      "income": 5496,
      "isolation": 5497,
      "towns": 5498,
      "rapid": 5499,
      "railways,": 5500,
      "loose-": 5501,
      "separat": 5502,
      "untouchability": 5503,
      "లోక్‌సభ": 5504,
      "స్వామ్య": 5505,
      "example,": 5506,
      "cotta": 5507,
      "accompani": 5508,
      "persist": 5509,
      "claiming": 5510,
      "margins": 5511,
      "particular": 5512,
      "Indonesia.": 5513,
      "blackbuc": 5514,
      "extensively": 5515,
      "pollution": 5516,
      "maintain": 5517,
      "సామ్రా": 5518,
      "Eurasian": 5519,
      "expectancy": 5520,
      "garlic,": 5521,
      "States,": 5522,
      "Islands,": 5523,
      "strongly": 5524,
      "Shankar": 5525,
      "breathing": 5526,
      "Bangalore,": 5527,
      "వారసత్వ": 5528,
      "hereditary": 5529,
      "liberalisation": 5530,
      "Akbar,": 5531,
      "safeguard": 5532,
      "characteristic": 5533,
      "Malayalam,": 5534,
      "Jharkhand": 5535,
      "Konkani": 5536,
      "Kannada,": 5537,
      "Myanmar,": 5538,
      "Olympic": 5539,
      "Zoroastrianism": 5540,
      "cattle.": 5541,
      "churidars.": 5542,
      "జన్మ": 5543,
      "న్యాయ": 5544,
      "మాతరం": 5545,
      "సూచ": 5546,
      "సర్వీ": 5547,
      "न्हें": 5548,
      "भाजपा": 5549,
      "బెంగాలీ": 5550,
      "volcan": 5551,
      "अरुणाचल": 5552,
      "सौहार्": 5553,
      "इस्लाम": 5554,
      "(Ἰνδ": 5555,
      "(Artic": 5556,
      "Ahmedabad": 5557,
      "Achaemen": 5558,
      "Between": 5559,
      "Calcutta,": 5560,
      "Cups,": 5561,
      "Climate": 5562,
      "Dominion": 5563,
      "Eastern": 5564,
      "Emergency,": 5565,
      "Following": 5566,
      "Female": 5567,
      "Golden": 5568,
      "Health": 5569,
      "Himachal": 5570,
      "Kingdom": 5571,
      "Largest": 5572,
      "Lord": 5573,
      "Nataraja": 5574,
      "Nanda": 5575,
      "Number": 5576,
      "October": 5577,
      "Organiz": 5578,
      "Plain": 5579,
      "Recognised": 5580,
      "Soviet": 5581,
      "Serial": 5582,
      "Simultaneous": 5583,
      "Sundarbans": 5584,
      "Vajpaye": 5585,
      "Vedic": 5586,
      "Yarlung": 5587,
      "custom": 5588,
      "cleared": 5589,
      "cereal": 5590,
      "drew": 5591,
      "framework": 5592,
      "flowering": 5593,
      "gonomet": 5594,
      "groom": 5595,
      "gigawatt": 5596,
      "honour": 5597,
      "hunter-ga": 5598,
      "hotspot": 5599,
      "hockey": 5600,
      "jacket": 5601,
      "kurta": 5602,
      "mortality": 5603,
      "mountain": 5604,
      "material": 5605,
      "nonviolent": 5606,
      "narrow": 5607,
      "osphere": 5608,
      "pivotal": 5609,
      "savoury": 5610,
      "telling": 5611,
      "vulnerable": 5612,
      "wood,": 5613,
      "winning": 5614,
      "अहिं": 5615,
      "हवेली": 5616,
      "हथियार": 5617,
      "ఇన్‌ఫ": 5618,
      "కన్నడ": 5619,
      "జంతువు": 5620,
      "డాలర్": 5621,
      "శెలవు": 5622,
      "హిమాలయ": 5623,
      "innov": 5624,
      "instruments": 5625,
      "arisen": 5626,
      "Increasing": 5627,
      "repeatedly": 5628,
      "standardised": 5629,
      "leavened": 5630,
      "amendments": 5631,
      "terracotta": 5632,
      "cheetah": 5633,
      "fortified": 5634,
      "beginnings": 5635,
      "consumpt": 5636,
      "unresolved": 5637,
      "imperial": 5638,
      "defeated.": 5639,
      "delegates": 5640,
      "supercontinent": 5641,
      "supreme": 5642,
      "excavated": 5643,
      "shawl": 5644,
      "shoulder": 5645,
      "megadiverse": 5646,
      "Chhau": 5647,
      "Chandigarh": 5648,
      "కుటుంబ": 5649,
      "affirm": 5650,
      "రాస్యత": 5651,
      "assassinated": 5652,
      "substantially": 5653,
      "deciduous": 5654,
      "extremely": 5655,
      "వాణిజ్య": 5656,
      "large-scale": 5657,
      "Mahatma": 5658,
      "Movement.": 5659,
      "northwest.": 5660,
      "Indo-Gangetic": 5661,
      "neighbo": 5662,
      "Demographics": 5663,
      "Rajputs,": 5664,
      "రోడ్డు": 5665,
      "democracy.": 5666,
      "Uttarakhand": 5667,
      "Non-Aligned": 5668,
      "Non-Proliferation": 5669,
      "pilgrim": 5670,
      "हालाँकि": 5671,
      "Vijayanagara": 5672,
      "tuberculosis": 5673,
      "accompanied": 5674,
      "Ahmedabad,": 5675,
      "Organization": 5676,
      "Simultaneously,": 5677,
      "hunter-gatherers,": 5678,
      "Mon": 5679,
      "अण्ड": 5680,
      "अतः": 5681,
      "अद्या": 5682,
      "आपरा": 5683,
      "इद": 5684,
      "उभ": 5685,
      "एताः": 5686,
      "कः": 5687,
      "जिक": 5688,
      "टना": 5689,
      "तान": 5690,
      "तमा": 5691,
      "तत्र": 5692,
      "तदा": 5693,
      "तदन": 5694,
      "दः": 5695,
      "पय": 5696,
      "फि": 5697,
      "मयू": 5698,
      "र्त": 5699,
      "वृ": 5700,
      "वन्तः": 5701,
      "ा:": 5702,
      "ात्र": 5703,
      "ाश्च": 5704,
      "ीपा": 5705,
      "ोसी": 5706,
      "१७": 5707,
      "्रः": 5708,
      "राणि": 5709,
      "भारती": 5710,
      "भारतगण": 5711,
      "भारतभूमिः": 5712,
      "प्रचल": 5713,
      "काः": 5714,
      "विष": 5715,
      "विंश": 5716,
      "विज्ञान": 5717,
      "देन": 5718,
      "देव": 5719,
      "नागर": 5720,
      "देशे": 5721,
      "देशीय": 5722,
      "माकि": 5723,
      "मालाद्वीप": 5724,
      "ष्प": 5725,
      "क्षर": 5726,
      "क्षी": 5727,
      "्याः": 5728,
      "ङ्क": 5729,
      "तेः": 5730,
      "पुदु": 5731,
      "पुष्प": 5732,
      "मिका": 5733,
      "मिजो": 5734,
      "सिता": 5735,
      "कारिण": 5736,
      "कृष": 5737,
      "कृतः": 5738,
      "कृतिक": 5739,
      "रीत्या": 5740,
      "राष्ट्रगीतम्": 5741,
      "भाषायाः": 5742,
      "भाषाणां": 5743,
      "ङ्गा": 5744,
      "द्वीपा": 5745,
      "ानि,": 5746,
      "संस्कृतेः": 5747,
      "ण्डोने": 5748,
      "होदयः": 5749,
      "क्रम": 5750,
      "शासनार्थ": 5751,
      "विश्वस्य": 5752,
      "क्षेत्रा": 5753,
      "योः": 5754,
      "ब्ध": 5755,
      "संविधानरीत्या": 5756,
      "भागः": 5757,
      "वर्ते": 5758,
      "लोकतन्त्र": 5759,
      "तुर्": 5760,
      "तन्त्र्य": 5761,
      "च्चेरी": 5762,
      "सम्प्रदा": 5763,
      "%e0%a4%be": 5764,
      "दशशत": 5765,
      "वर्षेभ्यः": 5766,
      "मोदी": 5767,
      "काश्मीर": 5768,
      "अगस्त": 5769,
      "तस्याः": 5770,
      "अभि": 5771,
      "उपमहाद्वीप": 5772,
      "तृतीय": 5773,
      "विस्ती": 5774,
      "विस्तार": 5775,
      "खण्डः": 5776,
      "सङ्घ": 5777,
      "प्रथमः": 5778,
      "देशस्य,": 5779,
      "आधिकारिकरूपेण": 5780,
      "कार्यकारिण": 5781,
      "इतिहासः": 5782,
      "तमः)": 5783,
      "टिश": 5784,
      "क्रिस्ता": 5785,
      "ग्रन्": 5786,
      "केन्द्रशासितप्रदेशाः": 5787,
      "कविः": 5788,
      "गङ्गान": 5789,
      "संयोजन": 5790,
      "%e0%a4%b0%": 5791,
      "आङ्ग्ल,": 5792,
      "इत्यादयः": 5793,
      "पुण्य": 5794,
      "निकोबारद्वीप": 5795,
      "भाषा(ः)": 5796,
      "श्याम": 5797,
      "निरपेक्ष": 5798,
      "स्वरू": 5799,
      "क्रीडा": 5800,
      "स्वातन्त्र्य": 5801,
      "वाक्यम्": 5802,
      "ध्येयवाक्यम्": 5803,
      "ब्रिटिश": 5804,
      "ध्वजः": 5805,
      "आन्दोलन": 5806,
      "अण्डमान": 5807,
      "अद्यापि": 5808,
      "मयूरः": 5809,
      "माकिम्": 5810,
      "मालाद्वीपः": 5811,
      "पुदुच्चेरी": 5812,
      "द्वीपाः": 5813,
      "क्रिस्ताब्": 5814,
      "$2,": 5815,
      "(2011": 5816,
      "(12": 5817,
      "(संस्कृत": 5818,
      "+9": 5819,
      "-m": 5820,
      "-yy": 5821,
      "11.": 5822,
      "76.": 5823,
      "977": 5824,
      ":30": 5825,
      "DI": 5826,
      "HDI": 5827,
      "ht": 5828,
      "m-yy": 5829,
      "ँच": 5830,
      "अथ": 5831,
      "आं": 5832,
      "उस": 5833,
      "उद्योग": 5834,
      "कह": 5835,
      "घा": 5836,
      "जू": 5837,
      "जवा": 5838,
      "डी": 5839,
      "धन": 5840,
      "पड़": 5841,
      "फे": 5842,
      "बने": 5843,
      "भे": 5844,
      "म्य": 5845,
      "मार्": 5846,
      "रं": 5847,
      "रम": 5848,
      "रहे": 5849,
      "लर": 5850,
      "वंश": 5851,
      "षित": 5852,
      "सल": 5853,
      "ैली": 5854,
      "ौर": 5855,
      "२२": 5856,
      "′50": 5857,
      "′30": 5858,
      "″E": 5859,
      "″N": 5860,
      "20,": 5861,
      "भारत-": 5862,
      "भारतवर्ष": 5863,
      "मेघ": 5864,
      "प्रमाण": 5865,
      "स्स": 5866,
      "मेंे": 5867,
      "विवाद": 5868,
      "तिरु": 5869,
      "ता।": 5870,
      "सेवा": 5871,
      "की।": 5872,
      "1,4": 5873,
      "परी": 5874,
      "त्म": 5875,
      "वायु": 5876,
      "लावा": 5877,
      "जनता": 5878,
      "दिव": 5879,
      "0.23%": 5880,
      "1998": 5881,
      "१९७": 5882,
      "१९८": 5883,
      "3.9": 5884,
      "मी2": 5885,
      "1974": 5886,
      "रेजि": 5887,
      "9.6": 5888,
      "12′30": 5889,
      "कुछ": 5890,
      "national-": 5891,
      "बहुमत": 5892,
      "4,977": 5893,
      "हिमाचल": 5894,
      "जिसके": 5895,
      "मैथि": 5896,
      "प्रतिशत": 5897,
      "बोध": 5898,
      "854,977": 5899,
      "36′50": 5900,
      "लगभग": 5901,
      "2019.": 5902,
      "पर्वतश्रेण": 5903,
      "कर्ज": 5904,
      "भरत": 5905,
      "मणिपुरी": 5906,
      "0.65%": 5907,
      "द्योगिक": 5908,
      "ओडिया": 5909,
      "बंगाल": 5910,
      "05:30": 5911,
      "dd-m": 5912,
      "1,210,854,977": 5913,
      "gov.in/": 5914,
      "UTC+05:30": 5915,
      "अशोक": 5916,
      "मुम्बई": 5917,
      "28°36′50": 5918,
      "77°12′30": 5919,
      "कन्नड": 5920,
      "कश्मीर": 5921,
      "गांधी": 5922,
      "जन्म": 5923,
      "डॉलर": 5924,
      "विदेशी": 5925,
      "(2011)": 5926,
      "+91": 5927,
      "htm": 5928,
      "m-yyyy": 5929,
      "अथवा": 5930,
      "जवाहरलाल": 5931,
      "dd-mm-yyyy": 5932,
      "28°36′50″N": 5933,
      "77°12′30″E": 5934,
      "Mach": 5935,
      "hack": 5936,
      "खंड": 5937,
      "चाल": 5938,
      "णाली": 5939,
      "थे": 5940,
      "नरे": 5941,
      "पोर्": 5942,
      "मण्ड": 5943,
      "र-": 5944,
      "ल,": 5945,
      "शेष": 5946,
      "समान": 5947,
      "२५": 5948,
      "प्रणाली": 5949,
      "स्कृतिक": 5950,
      "हैदरा": 5951,
      "राजा": 5952,
      "माध्य": 5953,
      "दिर": 5954,
      "निम्": 5955,
      "स्थानीय": 5956,
      "क्रय": 5957,
      "ईसाई": 5958,
      "सभ्यता": 5959,
      "सांस्कृतिक": 5960,
      "केरल": 5961,
      "geohack": 5962,
      "नागरिक": 5963,
      "कृषि": 5964,
      "पोर्ट": 5965,
      "मण्डल": 5966,
      "geohack.": 5967,
      "\"T": 5968,
      "\"Th": 5969,
      "%E0%B": 5970,
      "'जन": 5971,
      "(6": 5972,
      "(others": 5973,
      "(nominal": 5974,
      "(వె": 5975,
      "(IS": 5976,
      "-n": 5977,
      "-in": 5978,
      ".६": 5979,
      "24.": 5980,
      "25.": 5981,
      "27.": 5982,
      "36%": 5983,
      "517": 5984,
      "68": 5985,
      "7000": 5986,
      "82": 5987,
      "90": 5988,
      "97": 5989,
      "900": 5990,
      "B.": 5991,
      "C.": 5992,
      "Calling": 5993,
      "D.": 5994,
      "Ga": 5995,
      "H.": 5996,
      "High": 5997,
      "Khan,": 5998,
      "Li": 5999,
      "Lo": 6000,
      "May": 6001,
      "Mot": 6002,
      "Mana": 6003,
      "Nations": 6004,
      "Of": 6005,
      "Rā": 6006,
      "Rul": 6007,
      "T)": 6008,
      "Ty": 6009,
      "Time": 6010,
      "Up": 6011,
      "Water": 6012,
      "bate": 6013,
      "g/": 6014,
      "lists": 6015,
      "mana-": 6016,
      "nam": 6017,
      "s\"": 6018,
      "song": 6019,
      "ue,": 6020,
      "ं।": 6021,
      "अब": 6022,
      "अन्ति": 6023,
      "अभी": 6024,
      "अधिकार": 6025,
      "आई": 6026,
      "आया": 6027,
      "आदि": 6028,
      "इं": 6029,
      "ऋतु": 6030,
      "एस": 6031,
      "कल": 6032,
      "गए": 6033,
      "चन": 6034,
      "चक्र": 6035,
      "जु": 6036,
      "जे": 6037,
      "जलो": 6038,
      "जाना": 6039,
      "डोग": 6040,
      "तन": 6041,
      "तो": 6042,
      "तान्त": 6043,
      "नो": 6044,
      "पीय": 6045,
      "म,": 6046,
      "यि": 6047,
      "लदा": 6048,
      "शक": 6049,
      "शन": 6050,
      "शक्त": 6051,
      "सित": 6052,
      "ा,": 6053,
      "ीका": 6054,
      "२१": 6055,
      "५००": 6056,
      "ంక": 6057,
      "ంద": 6058,
      "ంకా": 6059,
      "ందు": 6060,
      "అవ": 6061,
      "అస్": 6062,
      "అవి": 6063,
      "అరు": 6064,
      "ఆఫ": 6065,
      "ఆక్రమ": 6066,
      "ఆహార": 6067,
      "ఇవి": 6068,
      "ఇక్క": 6069,
      "ఉండ": 6070,
      "ఎన్ని": 6071,
      "ఒకే": 6072,
      "ఒడి": 6073,
      "కథ": 6074,
      "కర": 6075,
      "కూ": 6076,
      "కిం": 6077,
      "కత్వ": 6078,
      "కింద": 6079,
      "కీర్ణ": 6080,
      "గె": 6081,
      "గర్": 6082,
      "గతి": 6083,
      "గీతం": 6084,
      "చు": 6085,
      "చార": 6086,
      "చల్": 6087,
      "చిన": 6088,
      "చూడ": 6089,
      "చాలా": 6090,
      "జల": 6091,
      "జాలు": 6092,
      "జరు": 6093,
      "జంబ": 6094,
      "జమ్": 6095,
      "టం": 6096,
      "టక": 6097,
      "టై": 6098,
      "ట్ర": 6099,
      "టర్": 6100,
      "డిన": 6101,
      "తీ": 6102,
      "తము": 6103,
      "తంలో": 6104,
      "తులు": 6105,
      "దరణ": 6106,
      "నృ": 6107,
      "నె": 6108,
      "నాల": 6109,
      "పీ": 6110,
      "పక్ష": 6111,
      "పచ్చ": 6112,
      "పర్వ": 6113,
      "పర్య": 6114,
      "బంగ్ల": 6115,
      "భర": 6116,
      "భౌ": 6117,
      "మర": 6118,
      "మో": 6119,
      "మౌ": 6120,
      "మార": 6121,
      "మతి": 6122,
      "మారు": 6123,
      "మణి": 6124,
      "మంది": 6125,
      "యాలు": 6126,
      "రిక": 6127,
      "లె": 6128,
      "లిం": 6129,
      "లమె": 6130,
      "ళ్": 6131,
      "ళిక": 6132,
      "వల్ల": 6133,
      "శీ": 6134,
      "శో": 6135,
      "సన": 6136,
      "సర": 6137,
      "సహ": 6138,
      "సై": 6139,
      "సులు": 6140,
      "హై": 6141,
      "ాదేశ": 6142,
      "ాంగ": 6143,
      "ీలు": 6144,
      "ీలో": 6145,
      "ీషు": 6146,
      "ుకొ": 6147,
      "ూరు": 6148,
      "ే,": 6149,
      "ోత్స": 6150,
      "anthem": 6151,
      "dial": 6152,
      "org/": 6153,
      "Intern": 6154,
      "्रीका": 6155,
      "19.": 6156,
      "190": 6157,
      "vers": 6158,
      "20.": 6159,
      "లుగా": 6160,
      "see": 6161,
      "स्लि": 6162,
      "debate": 6163,
      "లోయ": 6164,
      "न्ना": 6165,
      "देखा": 6166,
      "స్టా": 6167,
      "while": 6168,
      "ప్రారం": 6169,
      "ింది": 6170,
      "దేశపు": 6171,
      "देशिक": 6172,
      "ర్త": 6173,
      "ర్ష": 6174,
      "ర్పు": 6175,
      "ర్మే": 6176,
      "ాలనే": 6177,
      "ాలెండ": 6178,
      "umph": 6179,
      "मातर": 6180,
      "नेमा": 6181,
      "क्षण": 6182,
      "ాతం": 6183,
      "ాతో": 6184,
      "2017": 6185,
      "2014.": 6186,
      "2013.": 6187,
      "2017.": 6188,
      "న్నారు.": 6189,
      "ance/": 6190,
      "క్తి": 6191,
      "క్టో": 6192,
      "క్నాల": 6193,
      "కులు": 6194,
      "విశ": 6195,
      "విధ్య": 6196,
      "విభిన్న": 6197,
      "విద్య": 6198,
      "ruth": 6199,
      "format": 6200,
      "దేశంగా": 6201,
      "నుంచి": 6202,
      "ండ్": 6203,
      "త్తా": 6204,
      "ములో": 6205,
      "शां": 6206,
      "वाँ": 6207,
      "लाख": 6208,
      "कोरिया": 6209,
      "ద్వార": 6210,
      "2007": 6211,
      "मुस्लि": 6212,
      "करता": 6213,
      "सिनेमा": 6214,
      "भारतीय-": 6215,
      "जनपद": 6216,
      "ించే": 6217,
      "ించి,": 6218,
      "4%,": 6219,
      "worldwide": 6220,
      "subject": 6221,
      "స్థాయి": 6222,
      "ंग्ला": 6223,
      "भाषाएँ": 6224,
      "पास": 6225,
      "పురు": 6226,
      "समीप": 6227,
      "समर्थ": 6228,
      "संस्था": 6229,
      "7,3": 6230,
      "7,517": 6231,
      "ficial": 6232,
      "భాగ": 6233,
      "సంస్థ": 6234,
      "సంబంధ": 6235,
      "సంకీర్ణ": 6236,
      "बांग्ला": 6237,
      "2024": 6238,
      "2024.": 6239,
      "वरि": 6240,
      "प्राथम": 6241,
      "१९६": 6242,
      "వాహ": 6243,
      "गरीय": 6244,
      "prof": 6245,
      "भूटान": 6246,
      "Alone": 6247,
      "రాజధ": 6248,
      "3,42": 6249,
      "होते": 6250,
      "పాక్": 6251,
      "పాదన": 6252,
      "28.": 6253,
      "ద్రా": 6254,
      "పంజాబ": 6255,
      "ష్టు": 6256,
      "विधानसभा": 6257,
      "Bengali": 6258,
      "కోల్": 6259,
      "చ్చే": 6260,
      "पूर्वी": 6261,
      "జనగణ": 6262,
      "మొట్ట": 6263,
      "1975,": 6264,
      "ople\"": 6265,
      "1010": 6266,
      "పాలి": 6267,
      "పాలించ": 6268,
      "మాబాద్": 6269,
      "ద్ధం": 6270,
      "इसकी": 6271,
      "కూడుకు": 6272,
      "గుర్త": 6273,
      "చేసింది.": 6274,
      "తరాలు": 6275,
      "బడత": 6276,
      "యాళ": 6277,
      "observed": 6278,
      "मन'": 6279,
      "వచ్చు.": 6280,
      "ियों": 6281,
      "वर्तमान": 6282,
      "लोकतान्त": 6283,
      "Demony": 6284,
      "1300": 6285,
      "पश्चिमी": 6286,
      "దినాలు": 6287,
      "దినోత్స": 6288,
      "ప్రాంతం": 6289,
      "తుంది.": 6290,
      "పెనీ": 6291,
      "రాజ్యాంగ": 6292,
      "వ్యవస్థలో": 6293,
      "Art": 6294,
      "9,000": 6295,
      "దాపు": 6296,
      "దాదాపు": 6297,
      "మేన": 6298,
      "శాసన": 6299,
      "सूचना": 6300,
      "త్రి": 6301,
      "పరిపాలన": 6302,
      "अनुमान": 6303,
      "Minds": 6304,
      "నాడు": 6305,
      "నాగర": 6306,
      "వర్గ": 6307,
      "వర్ణ": 6308,
      "प्रतिष्ठ": 6309,
      "बोडो": 6310,
      "ప్రజల": 6311,
      "ప్రజలు": 6312,
      "డ్డ": 6313,
      "దక్షిణాసియా": 6314,
      "మహా": 6315,
      "మహాత్": 6316,
      "లేని": 6317,
      "లేదా": 6318,
      "సాంస్కృ": 6319,
      "హిందూదేశం": 6320,
      "8576.": 6321,
      "्मीरी": 6322,
      "a-mana-": 6323,
      "दिया।": 6324,
      "వీటిలో": 6325,
      "శ్రీ": 6326,
      "విస్తీర్ణ": 6327,
      "विद्यमान": 6328,
      "यूरो": 6329,
      "అతిపెద్ద": 6330,
      "కలిసి": 6331,
      "క్కన": 6332,
      "व्यापार": 6333,
      "ఉపఖండ": 6334,
      "ఉంటుంది.": 6335,
      "నాలుగు": 6336,
      "ుకుంట": 6337,
      "క్రీడలు": 6338,
      "తరువాతి": 6339,
      "बनाने": 6340,
      "संघीय": 6341,
      "టెక్నాల": 6342,
      "నగరం": 6343,
      "సంగీ": 6344,
      "विविधता": 6345,
      "స్వాతంత్ర్యం": 6346,
      "447": 6347,
      "498576.": 6348,
      "People\"": 6349,
      "Triumph": 6350,
      "glance/": 6351,
      "जलवायु": 6352,
      "బ్రిటీ": 6353,
      "లతో,": 6354,
      "ుకోవడ": 6355,
      "anagari": 6356,
      "ప్రతిపాదన": 6357,
      "2004).": 6358,
      "పాకిస్తాన్": 6359,
      "సినిమ": 6360,
      "శాస్త్రీయ": 6361,
      "శాస్త్రం,": 6362,
      "సింధు": 6363,
      "ओडि": 6364,
      "चरण": 6365,
      "राजनीतिक": 6366,
      "स्थापना": 6367,
      "अफ्रीका": 6368,
      "కంపెనీ": 6369,
      "క్యాలెండ": 6370,
      "తలసరి": 6371,
      "తూర్పు": 6372,
      "వైవిధ్య": 6373,
      "పేర్లు": 6374,
      "పేర్కొ": 6375,
      "మొదలైన": 6376,
      "ప్రజాస్వామ్య": 6377,
      "ప్రజాదరణ": 6378,
      "ఏర్పడ్డ": 6379,
      "బహుళ": 6380,
      "ప్పటికీ,": 6381,
      "नेहरु": 6382,
      "उल्लेख": 6383,
      "जबकि": 6384,
      "ड्ड": 6385,
      "सहयोग": 6386,
      "Devanagari": 6387,
      "Flag": 6388,
      "పతకాలు": 6389,
      "పొందిన": 6390,
      "పద్ధతి": 6391,
      "మలయాళ": 6392,
      "sources": 6393,
      "0%A4%": 6394,
      "నుకటి": 6395,
      "త్వాన్ని": 6396,
      "extinct.": 6397,
      "కోర్ట": 6398,
      "వ్యాపార": 6399,
      "కార్యక్రమ": 6400,
      "india-glance/": 6401,
      "figures,": 6402,
      "ఉత్తరాన": 6403,
      "నిర్వహణ": 6404,
      "పరిశ్రమలు": 6405,
      "इंडिया": 6406,
      "वन्दे": 6407,
      "प्रधानमन्त्री": 6408,
      "अमरी": 6409,
      "शीर्ष": 6410,
      "ఆగష్టు": 6411,
      "ఇంగ్లీషు": 6412,
      "ఇస్లామాబాద్": 6413,
      "పార్లమె": 6414,
      "సంప్రదాయాలు": 6415,
      "బడ్డ": 6416,
      "రైళ్లను": 6417,
      "ఆర్థిక": 6418,
      "క్రీ.పూ.": 6419,
      "సాంప్రదాయిక": 6420,
      "సామ్రాజ్య": 6421,
      "సర్వీసులు": 6422,
      "ఇన్‌ఫర్మే": 6423,
      "जून": 6424,
      "म्यान्": 6425,
      "मुम्बई,": 6426,
      "html": 6427,
      "\"Truth": 6428,
      "\"Thou": 6429,
      "(others)": 6430,
      "(nominal)": 6431,
      "(వెనుకటి": 6432,
      "(IST)": 6433,
      "Gaṇ": 6434,
      "Lower": 6435,
      "Motto:": 6436,
      "Official": 6437,
      "Ruler": 6438,
      "Type": 6439,
      "Upper": 6440,
      "जलोढ़": 6441,
      "डोगरी": 6442,
      "लदाख": 6443,
      "ఆఫ్": 6444,
      "చూడండి": 6445,
      "జరుపు": 6446,
      "జంబూ": 6447,
      "జమ్మూ": 6448,
      "ట్రో": 6449,
      "బంగ్లాదేశ": 6450,
      "ళ్ళ": 6451,
      "Internet": 6452,
      "ప్రారంభ": 6453,
      "मातरम्": 6454,
      "ద్వారా": 6455,
      "समर्थन": 6456,
      "మొట్టమొదటి": 6457,
      "लोकतान्त्रि": 6458,
      "నాగరికత": 6459,
      "మహాత్మా": 6460,
      "సాంస్కృతిక": 6461,
      "a-mana-498576.": 6462,
      "यूरोपीय": 6463,
      "Triumphs\"": 6464,
      "క్యాలెండర్": 6465,
      "పార్లమెంట": 6466,
      "ఇన్‌ఫర్మేషన్": 6467,
      "a-mana-498576.html": 6468,
      "N_": 6469,
      "_E": 6470,
      "_N_": 6471,
      "p?": 6472,
      "गार": 6473,
      "जान": 6474,
      "दिक": 6475,
      "मिक": 6476,
      "मले": 6477,
      "रान": 6478,
      "वृद्ध": 6479,
      "सरे": 6480,
      "ाम": 6481,
      "२९": 6482,
      "क्षि": 6483,
      "त्री": 6484,
      "वाम": 6485,
      "2005.": 6486,
      "स्थल": 6487,
      "params": 6488,
      "िका,": 6489,
      "php?": 6490,
      "28_": 6491,
      "लुरु": 6492,
      "77_": 6493,
      "धिराज्य": 6494,
      "वैदिक": 6495,
      "प्रभु": 6496,
      "धार्मिक": 6497,
      "हरियाणा": 6498,
      "नागालै": 6499,
      "geohack.php?": 6500,
      "_N_77_": 6501,
      "वृद्धि": 6502,
      "params=": 6503,
      "'ना": 6504,
      "'जय": 6505,
      "'रवीन्द्र": 6506,
      "'तत्त्व": 6507,
      "([": 6508,
      "(२०": 6509,
      "(13": 6510,
      "(2022": 6511,
      "(म्यान्": 6512,
      ",५": 6513,
      ",62": 6514,
      ".मी2": 6515,
      "//": 6516,
      "04%": 6517,
      "13,": 6518,
      "126.": 6519,
      "29": 6520,
      "29,": 6521,
      "31": 6522,
      "32": 6523,
      "316": 6524,
      "46": 6525,
      "47": 6526,
      "64": 6527,
      "65": 6528,
      "600": 6529,
      "663": 6530,
      "72.": 6531,
      "74.": 6532,
      "731": 6533,
      "8f": 6534,
      "9/": 6535,
      "://": 6536,
      "Port": 6537,
      "Post": 6538,
      "SI": 6539,
      "Sum": 6540,
      "[१": 6541,
      "[३": 6542,
      "a4/": 6543,
      "bf": 6544,
      "s://": 6545,
      "y)": 6546,
      "अकरो": 6547,
      "अलावा": 6548,
      "आप": 6549,
      "आय": 6550,
      "आंग": 6551,
      "आयः": 6552,
      "आचार": 6553,
      "आचरण": 6554,
      "इण्डोने": 6555,
      "उषित": 6556,
      "एन": 6557,
      "एतत्": 6558,
      "एच्": 6559,
      "ऐक": 6560,
      "ऐद": 6561,
      "ऐर्श": 6562,
      "कति": 6563,
      "कण्": 6564,
      "कानि": 6565,
      "कत्व": 6566,
      "ख्रि": 6567,
      "गई": 6568,
      "गे": 6569,
      "गीय": 6570,
      "गान्": 6571,
      "गई।": 6572,
      "घ्रः": 6573,
      "ङग": 6574,
      "च।": 6575,
      "चंड": 6576,
      "छात्र": 6577,
      "जट": 6578,
      "जर्": 6579,
      "जार्": 6580,
      "जितः": 6581,
      "जगति": 6582,
      "जहाँ": 6583,
      "ञ्": 6584,
      "ट,": 6585,
      "टन": 6586,
      "ठये": 6587,
      "डाल": 6588,
      "ण,": 6589,
      "णाराज्यम्": 6590,
      "तट": 6591,
      "तन्": 6592,
      "तमी": 6593,
      "तच्च": 6594,
      "थय": 6595,
      "थे।": 6596,
      "दधिक": 6597,
      "नई": 6598,
      "नत": 6599,
      "नदिया": 6600,
      "नृत्य": 6601,
      "पः": 6602,
      "पहु": 6603,
      "पसागर": 6604,
      "पथमे": 6605,
      "फिक": 6606,
      "बर्": 6607,
      "बङ्ग": 6608,
      "बद्ध": 6609,
      "बजट": 6610,
      "मस्": 6611,
      "मपङ्": 6612,
      "महोदयः": 6613,
      "यक": 6614,
      "यत": 6615,
      "यम्": 6616,
      "यन्": 6617,
      "यः,": 6618,
      "यवन": 6619,
      "रह": 6620,
      "रक्त": 6621,
      "रही": 6622,
      "रवरी": 6623,
      "लयः": 6624,
      "लमहा": 6625,
      "लयाः": 6626,
      "लड़ा": 6627,
      "ळि": 6628,
      "वः": 6629,
      "वल": 6630,
      "वङ्ग": 6631,
      "शदधिक": 6632,
      "शयम्": 6633,
      "सः": 6634,
      "सत": 6635,
      "स॰": 6636,
      "समु": 6637,
      "समुद्र": 6638,
      "सान्त": 6639,
      "सफल": 6640,
      "सफिक": 6641,
      "हरा": 6642,
      "ऽपि": 6643,
      "ाविंश": 6644,
      "ात्म": 6645,
      "िट,": 6646,
      "ीगढ़": 6647,
      "ूरु": 6648,
      "ेत": 6649,
      "ैः": 6650,
      "ोत": 6651,
      "ौ,": 6652,
      "ौद्योगिक": 6653,
      "४.": 6654,
      "५०००": 6655,
      "re-": 6656,
      "्यस्य": 6657,
      "्यते": 6658,
      "्येन": 6659,
      "्यकम्": 6660,
      "ारि": 6661,
      "्तनत": 6662,
      "ानः": 6663,
      "ानेन": 6664,
      "ad%e0%a4%be": 6665,
      "राम": 6666,
      "र्गे": 6667,
      "केचन": 6668,
      "केवल": 6669,
      "म्स": 6670,
      "म्स्य": 6671,
      "म्प्राथम": 6672,
      "1900": 6673,
      "203": 6674,
      "भारतदेशस्य": 6675,
      "मेः": 6676,
      "मेण्ट": 6677,
      "प्रया": 6678,
      "प्रजा": 6679,
      "प्रशासन": 6680,
      "प्रथमे": 6681,
      "प्रौद्योगिक": 6682,
      "काले": 6683,
      "कालीन": 6684,
      "विः": 6685,
      "विहि": 6686,
      "विमान": 6687,
      "वियत": 6688,
      "याम्": 6689,
      "यायां": 6690,
      "न्‍": 6691,
      "नामा": 6692,
      "नादेशः": 6693,
      "नाधिकार": 6694,
      "नाटक": 6695,
      "देशो": 6696,
      "देशश्च": 6697,
      "देशाः": 6698,
      "देशानां": 6699,
      "देशयोः": 6700,
      "िकविः": 6701,
      "राजनै": 6702,
      "राजानः": 6703,
      "संस": 6704,
      "संहि": 6705,
      "संगीत": 6706,
      "संशो": 6707,
      "माल": 6708,
      "मासे": 6709,
      "मागर": 6710,
      "माकं": 6711,
      "माञ्च": 6712,
      "माजिक": 6713,
      "तिथि": 6714,
      "से,": 6715,
      "सेषु": 6716,
      "सेण्ट": 6717,
      "नेषु": 6718,
      "्वानेन": 6719,
      "न्ते।": 6720,
      "न्तरं": 6721,
      "स्तके": 6722,
      "स्तपूर्व": 6723,
      "स्तरे": 6724,
      "सायं": 6725,
      "सामाजिक": 6726,
      "2016": 6727,
      "राज्यस्य": 6728,
      "राज्यानां": 6729,
      "ालयः": 6730,
      "्यादा": 6731,
      "af/%e0%a4%": 6732,
      "1,7": 6733,
      "1,9": 6734,
      "तेषा": 6735,
      "परितः": 6736,
      "web": 6737,
      "पुस्तके": 6738,
      "र्वन्ति": 6739,
      "मिति": 6740,
      "मिनि": 6741,
      "मिलि": 6742,
      "शासिता": 6743,
      "लाई": 6744,
      "कोई": 6745,
      "कोङ्क": 6746,
      "2003": 6747,
      "मुन": 6748,
      "करते": 6749,
      "कर्तु": 6750,
      "स्थितः": 6751,
      "किः": 6752,
      "किये": 6753,
      "कि.मी2": 6754,
      "भारतीये": 6755,
      "भारतीयानि": 6756,
      "भारतीयरूप": 6757,
      "भारतीयार्थ": 6758,
      "कृतवान्": 6759,
      "जननी": 6760,
      "राष्ट्रस्य": 6761,
      "राष्ट्रध्व": 6762,
      "दिनेषु": 6763,
      "50,": 6764,
      "भाषाएं": 6765,
      "ड़िया": 6766,
      "मानु": 6767,
      "मानसू": 6768,
      "प्रदेशे": 6769,
      "प्रदेशस्य": 6770,
      "प्रदेशान्,": 6771,
      "प्रदेशा:": 6772,
      "द्वे": 6773,
      "गीता": 6774,
      "0.7": 6775,
      "7,8": 6776,
      "7,663": 6777,
      "तीन": 6778,
      "लेन": 6779,
      "स्थानं": 6780,
      "स्थानमस्ति": 6781,
      "18,": 6782,
      "1990": 6783,
      "प्रादेशिक": 6784,
      "ल्2": 6785,
      "१९१९": 6786,
      "१९११": 6787,
      "नीलम्": 6788,
      "चीनादेशः": 6789,
      "4.9/": 6790,
      "धर्मः": 6791,
      "ध्यक्षः": 6792,
      "द्रष्ट": 6793,
      "भूतान": 6794,
      "भूमेः": 6795,
      "गीतवान्": 6796,
      "दाः": 6797,
      "2,0": 6798,
      "जिदः": 6799,
      "भील": 6800,
      "30,000": 6801,
      "28,62": 6802,
      "क्तं": 6803,
      "क्तयः": 6804,
      "विधानानि": 6805,
      "रुजनपद": 6806,
      "5,42": 6807,
      "6%e0%a4%": 6808,
      "शासनं": 6809,
      "पूर्वं": 6810,
      "पूर्वदिशि": 6811,
      "सर्वसमा": 6812,
      "युतः": 6813,
      "२०१४": 6814,
      "२०२४": 6815,
      "1971": 6816,
      "महाशयम्": 6817,
      "Indo-Austral": 6818,
      "जीत": 6819,
      "जीयायां": 6820,
      "गणतन्त्र": 6821,
      "e0%a4%af/%e0%a4%": 6822,
      "गुप्त": 6823,
      "महता": 6824,
      "योसफिक": 6825,
      "सदनम्": 6826,
      "अस्ति।": 6827,
      "अस्ति’": 6828,
      "ंत्रिक": 6829,
      "कुर": 6830,
      "कुर्वन्ति": 6831,
      "येषु": 6832,
      "जोड्ड": 6833,
      "मध्यम": 6834,
      "संविधानं": 6835,
      "संविधाने": 6836,
      "वेश": 6837,
      "संस्कृतं": 6838,
      "संस्कृतम्,": 6839,
      "उत्तरदिशि": 6840,
      "स्वपुस्तके": 6841,
      "वर्तन्ते": 6842,
      "सरकारें": 6843,
      "बेसेण्ट": 6844,
      "पश्चिमे": 6845,
      "ब्रवरी": 6846,
      "सम्पाद": 6847,
      "%e0%a4%af": 6848,
      "समाप्त": 6849,
      "समाजीयायां": 6850,
      "ायनम्": 6851,
      "तमेन": 6852,
      "तरह": 6853,
      "मतानि": 6854,
      "जिसका": 6855,
      "हे’": 6856,
      "राष्ट्रपत": 6857,
      "राष्ट्रपक्षी": 6858,
      "महाराज्यम्": 6859,
      "मैल्2": 6860,
      "1951": 6861,
      "आसीत्-": 6862,
      "नेपाल-": 6863,
      "काश्मीरी": 6864,
      "अगस्ट": 6865,
      "राष्ट्रीयः": 6866,
      "दुर्गे": 6867,
      "नगरहवेली": 6868,
      "ल्लीम्": 6869,
      "पश्चिमदिशि": 6870,
      "ानाम": 6871,
      "ानाम्": 6872,
      "कासिन्सवर्येण": 6873,
      "कासिन्सनामा": 6874,
      "नवदिल्ली": 6875,
      "नवदेहली": 6876,
      "नवदशशत": 6877,
      "ष्ठसदनम्": 6878,
      "(1,126.": 6879,
      "ठाकुर": 6880,
      "रागः": 6881,
      "रागसंयोजन": 6882,
      "खण्डस्य": 6883,
      "खण्डराज्यम्": 6884,
      "चित्तु": 6885,
      "सङ्के": 6886,
      "बाङ्गला,": 6887,
      "बाङ्ग्ला": 6888,
      "लगा": 6889,
      "ह्नम्": 6890,
      "पर्वतान्,": 6891,
      "कर्णा": 6892,
      "कर्नाटक": 6893,
      "विद्यते": 6894,
      "विद्यालय": 6895,
      "प्रथमवार": 6896,
      "परिपाल": 6897,
      "भागे,": 6898,
      "रवीन्द्रनाथ": 6899,
      "आगतम्": 6900,
      "आगतवान्": 6901,
      "थियोसफिक": 6902,
      "भरतेन": 6903,
      "शताधिका": 6904,
      "मूल्य": 6905,
      "मूलतः": 6906,
      "पार्ट": 6907,
      "पार्थय": 6908,
      "व्याघ्रः": 6909,
      "रोमाञ्च": 6910,
      "्लानु": 6911,
      "सर्वकारः": 6912,
      "सर्वकारः,": 6913,
      "फ़रवरी": 6914,
      "शुः": 6915,
      "शुरू": 6916,
      "संसदः": 6917,
      "ब्रह्मा": 6918,
      "बौद्धधर्मः,": 6919,
      "सैनिक": 6920,
      "विविधाः": 6921,
      "१९४८": 6922,
      "लिखितम्": 6923,
      "431": 6924,
      "434.9/": 6925,
      "अस्‍": 6926,
      "अस्मि": 6927,
      "अस्माकं": 6928,
      "सिखरेजि": 6929,
      "पञ्जाबी": 6930,
      "पञ्जाबी,": 6931,
      "नाथठागोरमहोदयः": 6932,
      "डा.": 6933,
      "उर्दू,": 6934,
      "सभानाम": 6935,
      "हिन्दुधर्मः,": 6936,
      "हिन्दुमहासागर": 6937,
      "२,८": 6938,
      "विभिन्ना": 6939,
      "परंपरा": 6940,
      "सदनं": 6941,
      "ज्ञानं": 6942,
      "गानं": 6943,
      "१,०": 6944,
      "वादः": 6945,
      "कविमहाशयम्": 6946,
      "नाम्ना": 6947,
      "संयोजितः": 6948,
      "%e0%a4%b6%e0%a4%": 6949,
      "पाकिस्थानम्": 6950,
      "80%e0%a4%af/%e0%a4%": 6951,
      "श्वेत": 6952,
      "प्रकाशिका": 6953,
      "प्रकाशितम्": 6954,
      "स्वतन्त्रः": 6955,
      "विकसित": 6956,
      "अनेकानि": 6957,
      "जम्मूकाश्मीर": 6958,
      "16.6%": 6959,
      "ISO": 6960,
      "उल्लिखित": 6961,
      "्यन्ते।": 6962,
      "तीसरी": 6963,
      "समूहः": 6964,
      "प्रभावः": 6965,
      "घोषणा": 6966,
      "विशालाः": 6967,
      "/%e0%a4%ad%e0%a4%be": 6968,
      "आहत्य": 6969,
      "आह्वानेन": 6970,
      "एतद्": 6971,
      "छोड़": 6972,
      "छोटे": 6973,
      "दमण": 6974,
      "दारी": 6975,
      "पङ्क्तयः": 6976,
      "रचितं": 6977,
      "प्राचार्यः": 6978,
      "प्राचार्यस्य": 6979,
      "e0%a5%8": 6980,
      "e0%a5%80%e0%a4%af/%e0%a4%": 6981,
      "लोगों": 6982,
      "महाराज्यत्व": 6983,
      "अगायत": 6984,
      "अगायन्": 6985,
      "बृहत्तमं": 6986,
      "बेङ्गलीगीतस्य": 6987,
      "पत्रिकायाः": 6988,
      "पत्रिकायां": 6989,
      "आन्ध्रप्रदेशस्य": 6990,
      "मदनपल्ल": 6991,
      "मदनपल्लीम्": 6992,
      "आर्यसमाजीयायां": 6993,
      "नदीः": 6994,
      "लक्षद्वीपाः": 6995,
      "पुत्रेण": 6996,
      "प्रारम्भ": 6997,
      "तेलङ्गा": 6998,
      "निभाई": 6999,
      "उद्ग": 7000,
      "ऋषयः": 7001,
      "जगतः": 7002,
      "पत्नी": 7003,
      "स्‍य": 7004,
      "अवधौ,": 7005,
      "दृष्टि": 7006,
      "द्वितीये": 7007,
      "अमेर": 7008,
      "आरब्ध": 7009,
      "आसन्": 7010,
      "सिक्किम": 7011,
      "वर्षाणि": 7012,
      "चेन्नै": 7013,
      "प्रत्येकस्य": 7014,
      "सौहार्देन": 7015,
      "Monsoon": 7016,
      "आपराधिक": 7017,
      "इदं": 7018,
      "तदनु": 7019,
      "पयानि": 7020,
      "वृक्षः": 7021,
      "भारतगणराज्यम्": 7022,
      "विषयाः": 7023,
      "पुष्पम्": 7024,
      "मिकायाम्": 7025,
      "क्षेत्राणि": 7026,
      "विस्तीर्णम्": 7027,
      "सङ्घीय": 7028,
      "कार्यकारिणी,": 7029,
      "निकोबारद्वीपसमूहः": 7030,
      "स्वरूप": 7031,
      "अण्डमाननिकोबारद्वीपसमूहः": 7032,
      "क्रिस्ताब्दे": 7033,
      "(संस्कृतम्)": 7034,
      "उसके": 7035,
      "कहते": 7036,
      "पड़ोसी": 7037,
      "फेब्रवरी": 7038,
      "सल्तनत": 7039,
      "प्रमाणेन": 7040,
      "स्सन्तः": 7041,
      "1,428,62": 7042,
      "दिवसेषु": 7043,
      "बोधप्रकाशिका": 7044,
      "अन्तिमपङ्": 7045,
      "जेम्स": 7046,
      "शांति": 7047,
      "अनुमानम्स्य": 7048,
      "प्रतिष्ठे": 7049,
      "'नामिकायाम्": 7050,
      "'रवीन्द्रनाथठागोरमहोदयः": 7051,
      "'तत्त्वबोधप्रकाशिका": 7052,
      "(2022)": 7053,
      "(म्यान्मार्": 7054,
      "3166": 7055,
      "74.04%": 7056,
      "8f%e0%a4%b6%e0%a4%": 7057,
      "Portal": 7058,
      "Post-": 7059,
      "Summer": 7060,
      "[१]": 7061,
      "[३]": 7062,
      "a4/)": 7063,
      "bf%e0%a4%af": 7064,
      "अकरोत्": 7065,
      "आंग्लानु": 7066,
      "आचरणानि,": 7067,
      "इण्डोनेशिया": 7068,
      "उषितं,": 7069,
      "एच्.": 7070,
      "ऐककण्": 7071,
      "ऐदम्प्राथम": 7072,
      "ऐर्शिकविः": 7073,
      "कतिपयानि": 7074,
      "कत्वं": 7075,
      "ख्रिस्तपूर्व": 7076,
      "गीयते": 7077,
      "गान्धी": 7078,
      "चंडीगढ़": 7079,
      "छात्राः": 7080,
      "ठयेन": 7081,
      "डालर": 7082,
      "तमी)": 7083,
      "नदियाँ": 7084,
      "बर्मा": 7085,
      "मस्जिदः": 7086,
      "रक्तदुर्गे": 7087,
      "लमहाविद्यालय": 7088,
      "शदधिकनवदशशत": 7089,
      "ाविंशतिः": 7090,
      "५०००वर्षेभ्यः": 7091,
      "मेण्ट्": 7092,
      "प्रयास": 7093,
      "विहितं": 7094,
      "राजनैतिक": 7095,
      "संशोध": 7096,
      "मागरिट,": 7097,
      "तेषां": 7098,
      "मिलियन": 7099,
      "कर्तुं": 7100,
      "भारतीयरूप्यकम्": 7101,
      "भारतीयार्थव्यवस्था": 7102,
      "राष्ट्रध्वजोड्ड": 7103,
      "मानसून": 7104,
      "१९१९तमे": 7105,
      "१९११तमे": 7106,
      "रुजनपदस्य": 7107,
      "सर्वसमायः": 7108,
      "Indo-Australian": 7109,
      "बेसेण्टथियोसफिक": 7110,
      "सम्पादकत्वं": 7111,
      "अगस्टमासस्य": 7112,
      "(1,126.4/": 7113,
      "रागसंयोजनं": 7114,
      "चित्तुरुजनपदस्य": 7115,
      "प्रथमवारं": 7116,
      "शताधिकाः": 7117,
      "पार्थयन्त": 7118,
      "रोमाञ्चि": 7119,
      "सिखरेजिमेण्ट्": 7120,
      "विभिन्नाः": 7121,
      "उल्लिखितवान्": 7122,
      "/%e0%a4%ad%e0%a4%be%e0%a4%b0%": 7123,
      "e0%a5%80%e0%a4%af/%e0%a4%8f%e0%a4%b6%e0%a4%": 7124,
      "मदनपल्लयां": 7125,
      "फेब्रवरीमासस्य": 7126,
      "1,428,627,663": 7127,
      "अन्तिमपङ्किः": 7128,
      "आंग्लानुवादः": 7129,
      "ऐककण्ठयेन": 7130,
      "ऐदम्प्राथम्येन": 7131,
      "लमहाविद्यालयस्य": 7132,
      "राष्ट्रध्वजोड्डायनम्": 7133,
      "बेसेण्टथियोसफिकलमहाविद्यालयस्य": 7134,
      "e0%a5%80%e0%a4%af/%e0%a4%8f%e0%a4%b6%e0%a4%bf%e0%a4%af": 7135,
      ",६": 7136,
      "ँची": 7137,
      "अत्य": 7138,
      "अधिका": 7139,
      "आम": 7140,
      "आक्रम": 7141,
      "उद": 7142,
      "गध": 7143,
      "ग़": 7144,
      "च,": 7145,
      "चो": 7146,
      "जना": 7147,
      "नर्म": 7148,
      "पनी": 7149,
      "पटना": 7150,
      "मगध": 7151,
      "रचना": 7152,
      "लख": 7153,
      "सरी": 7154,
      "ाधिक": 7155,
      "ुव": 7156,
      "१२": 7157,
      "३८": 7158,
      "७९.": 7159,
      "Inform": 7160,
      "काव्य": 7161,
      "नास्ति": 7162,
      "संसार": 7163,
      "तिब्": 7164,
      "स्तु": 7165,
      "साद": 7166,
      "हित": 7167,
      "थाई": 7168,
      "त्मा": 7169,
      "सी,": 7170,
      "महात्मा": 7171,
      "जीव": 7172,
      "महान": 7173,
      "ब्द": 7174,
      "Centre": 7175,
      "दूर": 7176,
      "धीश": 7177,
      "सम्पूर्ण": 7178,
      "विधि": 7179,
      "केन्द्रीय": 7180,
      "....": 7181,
      "न्यू": 7182,
      "न्यायाधीश": 7183,
      "परिष": 7184,
      "त्रिपुरा": 7185,
      "भोपाल": 7186,
      "सिन्धु-": 7187,
      "मणिपुर": 7188,
      "मराठी,": 7189,
      "प्रत्यक्ष": 7190,
      "स्वतन्त्रता": 7191,
      "ब्रह्मपुत्र": 7192,
      "दर्शन": 7193,
      "कोलकाता": 7194,
      "असमिया,": 7195,
      "अहिंसा": 7196,
      "मेघालय": 7197,
      "तिरुवन": 7198,
      "मैथिली": 7199,
      "नरेन्द्र": 7200,
      "निम्न": 7201,
      "गारो": 7202,
      "_N_77_12": 7203,
      "आक्रमण": 7204,
      "उदय": 7205,
      "नर्मदा": 7206,
      "Informatics": 7207,
      "तिब्ब": 7208,
      "\"A": 7209,
      "\"G": 7210,
      "\"I": 7211,
      "\"S": 7212,
      "\"p": 7213,
      "\"the": 7214,
      "\"The": 7215,
      "\"pro": 7216,
      "\"),": 7217,
      "\"out": 7218,
      "\"National": 7219,
      "\"no": 7220,
      "\"national": 7221,
      "\"official": 7222,
      "\"Min": 7223,
      "\"bro": 7224,
      "\"down": 7225,
      "\"scheduled": 7226,
      "\"untouch": 7227,
      "\"India\"": 7228,
      "\"river,": 7229,
      "\"వందే": 7230,
      "\"associate": 7231,
      "\"భర": 7232,
      "$4.": 7233,
      "$18.": 7234,
      "$12,": 7235,
      "%,": 7236,
      "')": 7237,
      "'.": 7238,
      "'í": 7239,
      "'the": 7240,
      "'Eight": 7241,
      "(1": 7242,
      "(a": 7243,
      "(c": 7244,
      "(ఆ": 7245,
      "(an": 7246,
      "(the": 7247,
      "(al": 7248,
      "(or": 7249,
      "(st": 7250,
      "(Indian": 7251,
      "(after": 7252,
      "(0.": 7253,
      "(also": 7254,
      "(199": 7255,
      "(3,": 7256,
      "(lit": 7257,
      "(Hindi": 7258,
      "(US$": 7259,
      "(GDP": 7260,
      "(left": 7261,
      "(4,": 7262,
      "(14": 7263,
      "(400": 7264,
      "(now": 7265,
      "(BJP": 7266,
      "(Par": 7267,
      "(present": 7268,
      "(WHO": 7269,
      "(1991": 7270,
      "(2023": 7271,
      "(NDA": 7272,
      "(UPA": 7273,
      "(Bhārat": 7274,
      "(1st)": 7275,
      "(sine,": 7276,
      "(1.3": 7277,
      "(1967": 7278,
      "(30th)": 7279,
      "(generally,": 7280,
      "(2004).": 7281,
      "('Eight": 7282,
      ",1": 7283,
      "-3": 7284,
      "-B": 7285,
      "-T": 7286,
      "-e": 7287,
      "-r": 7288,
      "-w": 7289,
      "-di": 7290,
      "-of": 7291,
      "-se": 7292,
      "-si": 7293,
      "-sh": 7294,
      "-pro": 7295,
      "-on-": 7296,
      "-own": 7297,
      "-century": 7298,
      "-origin": 7299,
      "-Himalay": 7300,
      "-Dem": 7301,
      "-market": 7302,
      "-లా": 7303,
      "-fast": 7304,
      "-five": 7305,
      "-i-": 7306,
      "-ti": 7307,
      "-div": 7308,
      "-growing": 7309,
      "-influenced": 7310,
      "-cut": 7311,
      "-get": 7312,
      "-rich": 7313,
      "-round": 7314,
      "-produc": 7315,
      "-tre": 7316,
      "-force": 7317,
      "-ఢిల్లీ": 7318,
      "-president,": 7319,
      "-india-": 7320,
      "-Court": 7321,
      "-hor": 7322,
      "-lived": 7323,
      "-existing": 7324,
      "-derived": 7325,
      "-million-": 7326,
      "-castes,": 7327,
      "-rule,": 7328,
      "-speci": 7329,
      "-speaking": 7330,
      "-borne": 7331,
      "-income": 7332,
      "-Yarlung": 7333,
      "-telling": 7334,
      "-High": 7335,
      ".:": 7336,
      ".\")": 7337,
      ".gov.in/": 7338,
      "/5": 7339,
      "/constitutional": 7340,
      "/artic": 7341,
      "/ritual": 7342,
      "/india-glance/": 7343,
      "0–": 7344,
      "05%": 7345,
      "02%": 7346,
      "120": 7347,
      "1199": 7348,
      "15,": 7349,
      "11%": 7350,
      "113": 7351,
      "2),": 7352,
      "27%": 7353,
      "25%": 7354,
      "21st": 7355,
      "29%.": 7356,
      "24%,": 7357,
      "31,": 7358,
      "31.": 7359,
      "380": 7360,
      "343": 7361,
      "31.1": 7362,
      "4th": 7363,
      "45.": 7364,
      "49.": 7365,
      "41%": 7366,
      "41.1": 7367,
      "42%.": 7368,
      "4–201": 7369,
      "53": 7370,
      "59": 7371,
      "5;": 7372,
      "5–": 7373,
      "54%": 7374,
      "55%": 7375,
      "53%": 7376,
      "54,": 7377,
      "580": 7378,
      "522": 7379,
      "66": 7380,
      "6°": 7381,
      "6–": 7382,
      "60%": 7383,
      "65.": 7384,
      "63.": 7385,
      "677": 7386,
      "623": 7387,
      "7/": 7388,
      "7′": 7389,
      "74%": 7390,
      "78.": 7391,
      "75–": 7392,
      "800": 7393,
      "87,": 7394,
      "82.": 7395,
      "81%": 7396,
      "813": 7397,
      "8th)": 7398,
      "82%.": 7399,
      "86–": 7400,
      "9th": 7401,
      "91,": 7402,
      "940": 7403,
      "93.9": 7404,
      "Ad": 7405,
      "Ap": 7406,
      "At": 7407,
      "Az": 7408,
      "Aṣ": 7409,
      "Are": 7410,
      "Aver": 7411,
      "Agen": 7412,
      "Amar": 7413,
      "Att": 7414,
      "Atal": 7415,
      "Adiv": 7416,
      "Atom": 7417,
      "Be": 7418,
      "Br": 7419,
      "Ban": 7420,
      "Bed": 7421,
      "Bor": 7422,
      "Bas": 7423,
      "Bol": 7424,
      "Bri": 7425,
      "Bro": 7426,
      "But": 7427,
      "Bhas": 7428,
      "Bel": 7429,
      "Bod": 7430,
      "Bow": 7431,
      "Bound": 7432,
      "Based": 7433,
      "Bah": 7434,
      "Boro": 7435,
      "Bakh": 7436,
      "Both": 7437,
      "C,": 7438,
      "CN": 7439,
      "Ca": 7440,
      "Co": 7441,
      "Cu": 7442,
      "Cor": 7443,
      "Cre": 7444,
      "Cur": 7445,
      "Cam": 7446,
      "Col": 7447,
      "Clo": 7448,
      "Crit": 7449,
      "Chi": 7450,
      "Coun": 7451,
      "Crow": 7452,
      "Count": 7453,
      "Culture": 7454,
      "Cold": 7455,
      "Census": 7456,
      "Cinn": 7457,
      "Calli": 7458,
      "Crest": 7459,
      "DN": 7460,
      "Dh": 7461,
      "Di": 7462,
      "Dand": 7463,
      "Dad": 7464,
      "Dav": 7465,
      "Daman": 7466,
      "Dances": 7467,
      "Dict": 7468,
      "Dhol": 7469,
      "Dony": 7470,
      "Droup": 7471,
      "Density": 7472,
      "Despite": 7473,
      "Eg": 7474,
      "Ep": 7475,
      "Ev": 7476,
      "Edu": 7477,
      "Each": 7478,
      "Esch": 7479,
      "Ety": 7480,
      "Ell": 7481,
      "E0%A4%": 7482,
      "F)": 7483,
      "Fr": 7484,
      "Fic": 7485,
      "Ful": 7486,
      "Fish": 7487,
      "Fall": 7488,
      "Fore": 7489,
      "Four": 7490,
      "Fai": 7491,
      "Further": 7492,
      "Go": 7493,
      "Gan": 7494,
      "Ger": 7495,
      "Gen": 7496,
      "Gam": 7497,
      "God": 7498,
      "Govern": 7499,
      "Gow": 7500,
      "Grad": 7501,
      "Geograph": 7502,
      "Group": 7503,
      "Hy": 7504,
      "Har": 7505,
      "Hor": 7506,
      "Hom": 7507,
      "Ham": 7508,
      "Hot": 7509,
      "Hary": 7510,
      "Hass": 7511,
      "Histor": 7512,
      "Hell": 7513,
      "I,": 7514,
      "I.": 7515,
      "IT": 7516,
      "IU": 7517,
      "Iy": 7518,
      "Ire": 7519,
      "Ident": 7520,
      "Jo": 7521,
      "Jim": 7522,
      "Jay": 7523,
      "Jap": 7524,
      "Just": 7525,
      "Jai": 7526,
      "Jail": 7527,
      "K.": 7528,
      "Kes": 7529,
      "Kut": 7530,
      "Kum": 7531,
      "Kill": 7532,
      "Khas": 7533,
      "Ksh": 7534,
      "Kok": 7535,
      "Kuch": 7536,
      "Kali": 7537,
      "Kail": 7538,
      "Karl": 7539,
      "Kangra": 7540,
      "Kot.": 7541,
      "La": 7542,
      "Lal": 7543,
      "Lat": 7544,
      "Lad": 7545,
      "Lim": 7546,
      "Long": 7547,
      "Lak": 7548,
      "Lep": 7549,
      "Lati": 7550,
      "Local": 7551,
      "M.": 7552,
      "Me": 7553,
      "Mat": 7554,
      "Mor": 7555,
      "Mas": 7556,
      "Mit": 7557,
      "Mur": 7558,
      "Mil": 7559,
      "Mang": 7560,
      "Mong": 7561,
      "Mel": 7562,
      "Mult": 7563,
      "Mig": 7564,
      "Mall": 7565,
      "Mount": 7566,
      "Mother": 7567,
      "Meas": 7568,
      "March": 7569,
      "Meh": 7570,
      "Mathur": 7571,
      "Na": 7572,
      "No": 7573,
      "Nil": 7574,
      "Nain": 7575,
      "Not": 7576,
      "Nass": 7577,
      "Nav": 7578,
      "Narm": 7579,
      "Native": 7580,
      "Natak": 7581,
      "O,": 7582,
      "Ox": 7583,
      "Odi": 7584,
      "Over": 7585,
      "Odis": 7586,
      "Ph": 7587,
      "Py": 7588,
      "Pā": 7589,
      "Pan": 7590,
      "Pen": 7591,
      "Pop": 7592,
      "Pres": 7593,
      "Pach": 7594,
      "Parch": 7595,
      "Paint": 7596,
      "Pali": 7597,
      "Pash": 7598,
      "Pandy": 7599,
      "Pream": 7600,
      "Qut": 7601,
      "R.": 7602,
      "Ra": 7603,
      "Ru": 7604,
      "Res": 7605,
      "Ras": 7606,
      "Rad": 7607,
      "Rus": 7608,
      "Rak": 7609,
      "Ray": 7610,
      "Rid": 7611,
      "Rig": 7612,
      "Rev": 7613,
      "Rann": 7614,
      "Raman": 7615,
      "Rice": 7616,
      "Roor": 7617,
      "Roman": 7618,
      "Ravi": 7619,
      "S.": 7620,
      "Sr": 7621,
      "Su": 7622,
      "Sū": 7623,
      "Son": 7624,
      "Sent": 7625,
      "Sam": 7626,
      "Sec": 7627,
      "Sch": 7628,
      "Sem": 7629,
      "Sun": 7630,
      "Sop": 7631,
      "Sig": 7632,
      "Sha": 7633,
      "Sport": 7634,
      "Sup": 7635,
      "Sher": 7636,
      "Sach": 7637,
      "Since": 7638,
      "Sultan": 7639,
      "Syn": 7640,
      "Sett": 7641,
      "Sindh": 7642,
      "Tr": 7643,
      "Ts": 7644,
      "Tit": 7645,
      "Tur": 7646,
      "T20": 7647,
      "Tro": 7648,
      "Tap": 7649,
      "Tig": 7650,
      "Tend": 7651,
      "Tod": 7652,
      "Taj": 7653,
      "Tow": 7654,
      "Trad": 7655,
      "Tai": 7656,
      "Tris": 7657,
      "Tech": 7658,
      "Tip": 7659,
      "Teth": 7660,
      "Tash": 7661,
      "Tung": 7662,
      "Uday": 7663,
      "Ved": 7664,
      "Vand": 7665,
      "Vice": 7666,
      "Vindh": 7667,
      "Virt": 7668,
      "V-Dem": 7669,
      "Wid": 7670,
      "Whe": 7671,
      "Wood": 7672,
      "Wild": 7673,
      "War,": 7674,
      "When": 7675,
      "With": 7676,
      "War.": 7677,
      "Willi": 7678,
      "Yam": 7679,
      "Yug": 7680,
      "[[": 7681,
      "[ˈ": 7682,
      "]]": 7683,
      "az": 7684,
      "aṅ": 7685,
      "aon": 7686,
      "aut": 7687,
      "abe": 7688,
      "ahead": 7689,
      "aute": 7690,
      "bh": 7691,
      "bʱ": 7692,
      "bin": 7693,
      "bit": 7694,
      "best": 7695,
      "bak": 7696,
      "bhas": 7697,
      "big": 7698,
      "bust": 7699,
      "bade": 7700,
      "blowing": 7701,
      "bility": 7702,
      "best-": 7703,
      "bitions": 7704,
      "bally.": 7705,
      "cas": 7706,
      "cle": 7707,
      "cli": 7708,
      "cra": 7709,
      "cab": 7710,
      "cies": 7711,
      "cres": 7712,
      "cum": 7713,
      "care": 7714,
      "ca,": 7715,
      "cig": 7716,
      "call": 7717,
      "cence": 7718,
      "core": 7719,
      "ces.": 7720,
      "crow": 7721,
      "cited": 7722,
      "curt": 7723,
      "cold": 7724,
      "cations": 7725,
      "camp": 7726,
      "cinn": 7727,
      "cise": 7728,
      "cms": 7729,
      "case": 7730,
      "d)": 7731,
      "da": 7732,
      "dat": 7733,
      "dur": 7734,
      "dou": 7735,
      "dam": 7736,
      "dol": 7737,
      "dro": 7738,
      "ds,": 7739,
      "dang": 7740,
      "date": 7741,
      "drom": 7742,
      "dated": 7743,
      "doc": 7744,
      "dress": 7745,
      "dome": 7746,
      "done": 7747,
      "daw": 7748,
      "dai": 7749,
      "dden": 7750,
      "dasi": 7751,
      "drought": 7752,
      "density": 7753,
      "dosa,": 7754,
      "despite": 7755,
      "ek": 7756,
      "ey": 7757,
      "e—": 7758,
      "ean": 7759,
      "een": 7760,
      "ees": 7761,
      "eing": 7762,
      "eap": 7763,
      "eper": 7764,
      "fas": 7765,
      "fre": 7766,
      "fra": 7767,
      "fun": 7768,
      "fill": 7769,
      "fel": 7770,
      "foun": 7771,
      "fend": 7772,
      "fru": 7773,
      "flat": 7774,
      "foc": 7775,
      "fine": 7776,
      "fire": 7777,
      "flowing": 7778,
      "fai": 7779,
      "fically": 7780,
      "fell": 7781,
      "fables,": 7782,
      "future": 7783,
      "fought": 7784,
      "ger": 7785,
      "gal": 7786,
      "ging": 7787,
      "gent": 7788,
      "gation": 7789,
      "gain": 7790,
      "gres": 7791,
      "gment": 7792,
      "gap": 7793,
      "gid": 7794,
      "gative": 7795,
      "gic,": 7796,
      "gives": 7797,
      "gislat": 7798,
      "gross": 7799,
      "gilli": 7800,
      "hl": 7801,
      "hâ": 7802,
      "hand": 7803,
      "hic": 7804,
      "hom": 7805,
      "hak": 7806,
      "hmin": 7807,
      "home": 7808,
      "hour": 7809,
      "hatt": 7810,
      "hund": 7811,
      "hini": 7812,
      "hary,": 7813,
      "hwal": 7814,
      "haps": 7815,
      "hgal": 7816,
      "io": 7817,
      "idi": 7818,
      "ied": 7819,
      "iand": 7820,
      "iec": 7821,
      "iation": 7822,
      "ium": 7823,
      "ider": 7824,
      "ihi": 7825,
      "iant": 7826,
      "iple": 7827,
      "io-": 7828,
      "iens": 7829,
      "iev": 7830,
      "ios": 7831,
      "iya": 7832,
      "iers": 7833,
      "ible": 7834,
      "iative": 7835,
      "iders": 7836,
      "iety": 7837,
      "iary,": 7838,
      "ii)": 7839,
      "iwal": 7840,
      "ji": 7841,
      "jat": 7842,
      "jam": 7843,
      "jid": 7844,
      "jav": 7845,
      "jour": 7846,
      "jya": 7847,
      "jhol": 7848,
      "jana-": 7849,
      "judi": 7850,
      "jaz": 7851,
      "jbhas": 7852,
      "jean": 7853,
      "k;": 7854,
      "kent": 7855,
      "kir": 7856,
      "kies": 7857,
      "ksh": 7858,
      "kmin": 7859,
      "khar": 7860,
      "kma": 7861,
      "kesh": 7862,
      "kable": 7863,
      "kman": 7864,
      "kne": 7865,
      "kank": 7866,
      "kers,": 7867,
      "kar,": 7868,
      "kara": 7869,
      "kar.": 7870,
      "kata": 7871,
      "kabad": 7872,
      "k-e": 7873,
      "l,": 7874,
      "lu": 7875,
      "ler": 7876,
      "lon": 7877,
      "len": 7878,
      "lis": 7879,
      "lent": 7880,
      "lil": 7881,
      "lun": 7882,
      "lak": 7883,
      "les.": 7884,
      "lesh": 7885,
      "lack": 7886,
      "lation,": 7887,
      "laced": 7888,
      "laps": 7889,
      "labe": 7890,
      "mu": 7891,
      "mā": 7892,
      "med": 7893,
      "mis": 7894,
      "mic": 7895,
      "ming": 7896,
      "mri": 7897,
      "mang": 7898,
      "mun": 7899,
      "mist": 7900,
      "mart": 7901,
      "map": 7902,
      "mant": 7903,
      "mud": 7904,
      "mi,": 7905,
      "mass": 7906,
      "must": 7907,
      "mission": 7908,
      "morally": 7909,
      "mology": 7910,
      "n,": 7911,
      "n]": 7912,
      "nas": 7913,
      "nom": 7914,
      "nut": 7915,
      "net": 7916,
      "na,": 7917,
      "noun": 7918,
      "nav": 7919,
      "napp": 7920,
      "nam,": 7921,
      "nings": 7922,
      "native": 7923,
      "nathur": 7924,
      "ov": 7925,
      "ox": 7926,
      "oat": 7927,
      "oic": 7928,
      "oce": 7929,
      "os,": 7930,
      "oist": 7931,
      "os.": 7932,
      "oi,": 7933,
      "oog": 7934,
      "ook": 7935,
      "oven": 7936,
      "py": 7937,
      "por": 7938,
      "pli": 7939,
      "pir": 7940,
      "pak": 7941,
      "pill": 7942,
      "pac": 7943,
      "pect": 7944,
      "ping,": 7945,
      "pically": 7946,
      "pants": 7947,
      "ppay": 7948,
      "porter": 7949,
      "panding": 7950,
      "pines,": 7951,
      "poul": 7952,
      "pants,": 7953,
      "paved": 7954,
      "p-si": 7955,
      "piec": 7956,
      "ras": 7957,
      "rion": 7958,
      "ril": 7959,
      "rare": 7960,
      "rine": 7961,
      "rence": 7962,
      "ring,": 7963,
      "rank": 7964,
      "rhy": 7965,
      "rgarh": 7966,
      "rine,": 7967,
      "rush": 7968,
      "r.:": 7969,
      "rd)": 7970,
      "s)": 7971,
      "s—": 7972,
      "san": 7973,
      "sof": 7974,
      "sis": 7975,
      "sent": 7976,
      "sem": 7977,
      "sus": 7978,
      "sun": 7979,
      "swi": 7980,
      "sap": 7981,
      "ses,": 7982,
      "same": 7983,
      "squ": 7984,
      "slowing": 7985,
      "sions": 7986,
      "smen": 7987,
      "sar,": 7988,
      "snow": 7989,
      "sung": 7990,
      "swa": 7991,
      "stop": 7992,
      "sandy": 7993,
      "suture": 7994,
      "sought": 7995,
      "saved": 7996,
      "skilled": 7997,
      "s')": 7998,
      "saute": 7999,
      "skir": 8000,
      "t]": 8001,
      "tan": 8002,
      "tat": 8003,
      "ting": 8004,
      "tle": 8005,
      "tch": 8006,
      "tro": 8007,
      "tag": 8008,
      "tang": 8009,
      "tab": 8010,
      "ties": 8011,
      "tap": 8012,
      "ture": 8013,
      "tive": 8014,
      "try": 8015,
      "tuc": 8016,
      "tele": 8017,
      "trough": 8018,
      "ties.": 8019,
      "tions": 8020,
      "tau": 8021,
      "tight": 8022,
      "tances": 8023,
      "tently": 8024,
      "tained": 8025,
      "tons": 8026,
      "tally.": 8027,
      "ue": 8028,
      "uv": 8029,
      "upt": 8030,
      "uous": 8031,
      "uates": 8032,
      "uwar": 8033,
      "ubi": 8034,
      "uistic": 8035,
      "ukk": 8036,
      "uaries": 8037,
      "van": 8038,
      "val": 8039,
      "vate": 8040,
      "vac": 8041,
      "ves,": 8042,
      "vulture": 8043,
      "vals": 8044,
      "vice": 8045,
      "vail": 8046,
      "ves;": 8047,
      "vasive": 8048,
      "vested": 8049,
      "viron": 8050,
      "vati.": 8051,
      "wes": 8052,
      "wat": 8053,
      "wed": 8054,
      "wil": 8055,
      "will": 8056,
      "wage": 8057,
      "wani": 8058,
      "wai": 8059,
      "wool": 8060,
      "winter": 8061,
      "walled": 8062,
      "wrap": 8063,
      "woman": 8064,
      "wati.": 8065,
      "wk-e": 8066,
      "xal": 8067,
      "xic": 8068,
      "xur": 8069,
      "xture": 8070,
      "yā": 8071,
      "yī": 8072,
      "yal": 8073,
      "yed": 8074,
      "youn": 8075,
      "yame": 8076,
      "ypt": 8077,
      "yog": 8078,
      "yam,": 8079,
      "yond": 8080,
      "yards": 8081,
      "y-n": 8082,
      "ypically": 8083,
      "zer": 8084,
      "zon": 8085,
      "zard": 8086,
      "zones": 8087,
      "zoog": 8088,
      "|arch": 8089,
      "°C": 8090,
      "°F)": 8091,
      "Ön": 8092,
      "á'í": 8093,
      "ādh": 8094,
      "āham": 8095,
      "ābh": 8096,
      "ājya": 8097,
      "Śul": 8098,
      "ət]": 8099,
      "ɦɪ": 8100,
      "ɾət]": 8101,
      "ʊˈ": 8102,
      "ία": 8103,
      "ς),": 8104,
      "ός),": 8105,
      "ंक": 8106,
      "ंबे": 8107,
      "ंबई": 8108,
      "अर्": 8109,
      "अति": 8110,
      "अल्": 8111,
      "आज": 8112,
      "आव": 8113,
      "ई,": 8114,
      "उसे": 8115,
      "उष्ण": 8116,
      "उन्हें": 8117,
      "कप": 8118,
      "कटि": 8119,
      "खर": 8120,
      "गमन": 8121,
      "जमा": 8122,
      "जों": 8123,
      "टा": 8124,
      "टू": 8125,
      "डिया": 8126,
      "दर्": 8127,
      "दमन": 8128,
      "नम": 8129,
      "पान": 8130,
      "पत्त": 8131,
      "पनि": 8132,
      "पराग": 8133,
      "फ्र": 8134,
      "फैली": 8135,
      "बद": 8136,
      "बन्ध": 8137,
      "बदल": 8138,
      "बडी": 8139,
      "मना": 8140,
      "यर": 8141,
      "यहाँ": 8142,
      "रख": 8143,
      "ल)": 8144,
      "लौ": 8145,
      "लना": 8146,
      "लंबे": 8147,
      "शिय": 8148,
      "शिक्": 8149,
      "शाली": 8150,
      "शहरी": 8151,
      "सो": 8152,
      "सहा": 8153,
      "हॉ": 8154,
      "हों": 8155,
      "िलों": 8156,
      "िमण्डल": 8157,
      "ेक्षा": 8158,
      "४०": 8159,
      "ం;": 8160,
      "ంజ": 8161,
      "ంచిన": 8162,
      "అణ": 8163,
      "అహ": 8164,
      "అంత": 8165,
      "అంట": 8166,
      "అన్ని": 8167,
      "అప్": 8168,
      "అమె": 8169,
      "అశో": 8170,
      "ఆల": 8171,
      "ఆకు": 8172,
      "ఆదాయ": 8173,
      "ఆసియా": 8174,
      "ఇదే": 8175,
      "ఇండ": 8176,
      "ఇతరు": 8177,
      "ఇటీ": 8178,
      "ఇంకా": 8179,
      "ఈశ": 8180,
      "ఈస్": 8181,
      "ఉర్": 8182,
      "ఎడ": 8183,
      "ఎల": 8184,
      "ఎక్": 8185,
      "ఏప్ర": 8186,
      "ఐరో": 8187,
      "ఒలం": 8188,
      "క,": 8189,
      "కాత": 8190,
      "కను": 8191,
      "కనుక": 8192,
      "కంటే": 8193,
      "కబడ్డ": 8194,
      "ఖో": 8195,
      "ఖని": 8196,
      "గత": 8197,
      "గంగ": 8198,
      "గ్రా": 8199,
      "చద": 8200,
      "చన": 8201,
      "చయ": 8202,
      "చవి": 8203,
      "చింది.": 8204,
      "చుకోవడ": 8205,
      "జయ": 8206,
      "జర": 8207,
      "జు": 8208,
      "జె": 8209,
      "జై": 8210,
      "జ్": 8211,
      "జ్‌": 8212,
      "జిక,": 8213,
      "టే": 8214,
      "టలు": 8215,
      "టన్": 8216,
      "టిక": 8217,
      "టి.": 8218,
      "ట్‌": 8219,
      "టాన్": 8220,
      "ఠభూ": 8221,
      "డో": 8222,
      "డ్య": 8223,
      "డైన": 8224,
      "డమ్": 8225,
      "ఢా": 8226,
      "ణులు": 8227,
      "తర్": 8228,
      "తను": 8229,
      "తంగా": 8230,
      "తక్కువ": 8231,
      "థి": 8232,
      "థ్యం": 8233,
      "దూ": 8234,
      "దర్": 8235,
      "దగా": 8236,
      "దరా": 8237,
      "దండ": 8238,
      "దాయి.": 8239,
      "నం": 8240,
      "నూ": 8241,
      "నై": 8242,
      "నెల": 8243,
      "పలు": 8244,
      "పది": 8245,
      "పిక": 8246,
      "పవి": 8247,
      "పి.": 8248,
      "పబడ": 8249,
      "పల్ల": 8250,
      "పడు": 8251,
      "పక్షి": 8252,
      "పతా": 8253,
      "పడిన": 8254,
      "పక్కన": 8255,
      "ఫల": 8256,
      "బో": 8257,
      "బ్": 8258,
      "బంగ": 8259,
      "భవ": 8260,
      "భాతో": 8261,
      "భక్తి": 8262,
      "మద": 8263,
      "మన్": 8264,
      "మరా": 8265,
      "మిత": 8266,
      "మరో": 8267,
      "యం": 8268,
      "యింది.": 8269,
      "యాత్ర": 8270,
      "యమించ": 8271,
      "ర,": 8272,
      "రకు": 8273,
      "రల్": 8274,
      "రకాలు": 8275,
      "రచయ": 8276,
      "లభ": 8277,
      "లౌక": 8278,
      "ళా": 8279,
      "ళి,": 8280,
      "విం": 8281,
      "వంత": 8282,
      "వరు": 8283,
      "వులు": 8284,
      "వైన": 8285,
      "వార్": 8286,
      "వత్ర": 8287,
      "వులు,": 8288,
      "వనాలు": 8289,
      "వాయు": 8290,
      "శక": 8291,
      "శై": 8292,
      "శకు": 8293,
      "శాతం": 8294,
      "షయాలు": 8295,
      "సీ": 8296,
      "సె": 8297,
      "సాల": 8298,
      "స్రా": 8299,
      "సత్య": 8300,
      "హో": 8301,
      "ాక": 8302,
      "ాను": 8303,
      "ాన్ని": 8304,
      "ాడే": 8305,
      "ిగా": 8306,
      "ిస్త": 8307,
      "ీక్ష": 8308,
      "ీకరణ": 8309,
      "ుల్": 8310,
      "ుత్": 8311,
      "ుపూర్వ": 8312,
      "ూనది": 8313,
      "ే.": 8314,
      "ేష": 8315,
      "ైస్త": 8316,
      "ోత్": 8317,
      "ోంది.": 8318,
      "ౌర": 8319,
      "్వ": 8320,
      "ṇa,": 8321,
      "ṇini": 8322,
      "ṭādh": 8323,
      "‌కాత": 8324,
      "–Pakistan": 8325,
      "–400": 8326,
      "–35": 8327,
      "–2001": 8328,
      "–Kad": 8329,
      "–Arab": 8330,
      "–2010,": 8331,
      "–29,": 8332,
      "–1900": 8333,
      "–60%": 8334,
      "—to": 8335,
      "—which": 8336,
      "—were": 8337,
      "—such": 8338,
      "—among": 8339,
      "—cooked": 8340,
      "—passing": 8341,
      "—because": 8342,
      "—cover": 8343,
      "—dates": 8344,
      "—lie": 8345,
      "—notably": 8346,
      "—lower-body": 8347,
      "₹20": 8348,
      "₹23": 8349,
      "ⓘ)": 8350,
      "ⓘ),": 8351,
      "thin": 8352,
      "thal": 8353,
      "thing": 8354,
      "thag": 8355,
      "thus": 8356,
      "ths.": 8357,
      "thous": 8358,
      "thmet": 8359,
      "thicken": 8360,
      "thology": 8361,
      "thmic": 8362,
      "an.": 8363,
      "an;": 8364,
      "anar": 8365,
      "anic": 8366,
      "ans,": 8367,
      "anim": 8368,
      "ani,": 8369,
      "ana.": 8370,
      "anistan": 8371,
      "anism,": 8372,
      "anking": 8373,
      "ances,": 8374,
      "anasi": 8375,
      "anek": 8376,
      "anjav": 8377,
      "inst": 8378,
      "inet": 8379,
      "inel": 8380,
      "iniv": 8381,
      "inational": 8382,
      "inction": 8383,
      "incial": 8384,
      "inade": 8385,
      "inations": 8386,
      "insur": 8387,
      "interm": 8388,
      "indefin": 8389,
      "inscript": 8390,
      "internal": 8391,
      "inctions": 8392,
      "inaries": 8393,
      "invention": 8394,
      "inists,": 8395,
      "information": 8396,
      "instead": 8397,
      "in-produc": 8398,
      "inkers,": 8399,
      "er.": 8400,
      "eri": 8401,
      "eras": 8402,
      "er's": 8403,
      "ers.": 8404,
      "era,": 8405,
      "erous": 8406,
      "erations": 8407,
      "eria": 8408,
      "erwan": 8409,
      "erves;": 8410,
      "onoun": 8411,
      "onisation": 8412,
      "onists": 8413,
      "onomy": 8414,
      "onward": 8415,
      "ontally.": 8416,
      "al,": 8417,
      "al.": 8418,
      "alo": 8419,
      "aland": 8420,
      "alid": 8421,
      "altern": 8422,
      "alry": 8423,
      "allow": 8424,
      "almon": 8425,
      "alised": 8426,
      "alism,": 8427,
      "allowing": 8428,
      "alge": 8429,
      "alty": 8430,
      "alms": 8431,
      "arc": 8432,
      "ars": 8433,
      "aran": 8434,
      "aren": 8435,
      "aram": 8436,
      "arri": 8437,
      "arra": 8438,
      "ars,": 8439,
      "arial": 8440,
      "arose": 8441,
      "arrang": 8442,
      "arett": 8443,
      "arcation": 8444,
      "arji": 8445,
      "arājya": 8446,
      "enes": 8447,
      "ening": 8448,
      "enli": 8449,
      "ende": 8450,
      "ens.": 8451,
      "enment": 8452,
      "encom": 8453,
      "enac": 8454,
      "endit": 8455,
      "ency": 8456,
      "enistic": 8457,
      "encro": 8458,
      "enth-largest": 8459,
      "ening.": 8460,
      "en/constitutional": 8461,
      "ences.": 8462,
      "environ": 8463,
      "es\"": 8464,
      "esans": 8465,
      "espread": 8466,
      "escence": 8467,
      "atter": 8468,
      "atol": 8469,
      "atop": 8470,
      "atures": 8471,
      "atite": 8472,
      "atives": 8473,
      "atory": 8474,
      "atriya,": 8475,
      "atna,": 8476,
      "atypically": 8477,
      "dic": 8478,
      "dient": 8479,
      "dicl": 8480,
      "dible": 8481,
      "diers,": 8482,
      "divisions": 8483,
      "diox": 8484,
      "edom": 8485,
      "edary": 8486,
      "or,": 8487,
      "oration": 8488,
      "order": 8489,
      "orary": 8490,
      "orism": 8491,
      "ora.": 8492,
      "oration,": 8493,
      "ords": 8494,
      "orders": 8495,
      "oramic": 8496,
      "orship": 8497,
      "ordin": 8498,
      "orbed": 8499,
      "orities": 8500,
      "anded": 8501,
      "anda,": 8502,
      "andmas": 8503,
      "Indust": 8504,
      "Independ": 8505,
      "Interior": 8506,
      "Instead": 8507,
      "as:": 8508,
      "asa": 8509,
      "ason": 8510,
      "asim": 8511,
      "asthan": 8512,
      "ase.": 8513,
      "asants": 8514,
      "asis.": 8515,
      "asured": 8516,
      "aspect": 8517,
      "aswati.": 8518,
      "offer": 8519,
      "ofenac": 8520,
      "is)": 8521,
      "isi": 8522,
      "issu": 8523,
      "isak": 8524,
      "island": 8525,
      "isgarh": 8526,
      "isines,": 8527,
      "islation,": 8528,
      "ioned": 8529,
      "ionist": 8530,
      "ions.": 8531,
      "ionals,": 8532,
      "ionary,": 8533,
      "Indigenous": 8534,
      "it.": 8535,
      "itan": 8536,
      "itic": 8537,
      "itol": 8538,
      "its,": 8539,
      "itud": 8540,
      "itous": 8541,
      "ito-": 8542,
      "itics": 8543,
      "itants": 8544,
      "itself": 8545,
      "itage.": 8546,
      "itime": 8547,
      "ittently": 8548,
      "ics,": 8549,
      "icated": 8550,
      "icide": 8551,
      "iconic": 8552,
      "ickable": 8553,
      "reen": 8554,
      "rever": 8555,
      "reve": 8556,
      "repr": 8557,
      "regar": 8558,
      "repres": 8559,
      "refin": 8560,
      "recording": 8561,
      "recomm": 8562,
      "reject": 8563,
      "rehab": 8564,
      "remit": 8565,
      "repul": 8566,
      "return": 8567,
      "retreat": 8568,
      "redients": 8569,
      "replaced": 8570,
      "reorganised": 8571,
      "retch": 8572,
      "realms": 8573,
      "inga,": 8574,
      "ingual": 8575,
      "ingested": 8576,
      "ingredients": 8577,
      "too": 8578,
      "toad": 8579,
      "tomo": 8580,
      "towar": 8581,
      "to-B": 8582,
      "toler": 8583,
      "ent)": 8584,
      "ented": 8585,
      "ents.": 8586,
      "entral": 8587,
      "entren": 8588,
      "entered": 8589,
      "entments": 8590,
      "entrepr": 8591,
      "India;": 8592,
      "India–Pakistan": 8593,
      "om,": 8594,
      "omic": 8595,
      "omically": 8596,
      "omerations": 8597,
      "omason": 8598,
      "urch": 8599,
      "urs,": 8600,
      "urial": 8601,
      "urally": 8602,
      "urman": 8603,
      "uru,": 8604,
      "urgence": 8605,
      "uraṅ": 8606,
      "st.": 8607,
      "ster": 8608,
      "stra": 8609,
      "stro": 8610,
      "stres": 8611,
      "start": 8612,
      "still": 8613,
      "stup": 8614,
      "stage": 8615,
      "stone": 8616,
      "stable": 8617,
      "strate": 8618,
      "stamp": 8619,
      "stained": 8620,
      "stands": 8621,
      "staː": 8622,
      "stream": 8623,
      "stressed": 8624,
      "stics,": 8625,
      "stretch": 8626,
      "leaf": 8627,
      "lective": 8628,
      "ley)": 8629,
      "lexic": 8630,
      "ous,": 8631,
      "ouse,": 8632,
      "ams,": 8633,
      "amma": 8634,
      "amble": 8635,
      "amah": 8636,
      "amtre": 8637,
      "amples": 8638,
      "amon,": 8639,
      "ambitions": 8640,
      "ameri": 8641,
      "ly-": 8642,
      "lywood,": 8643,
      "ecked": 8644,
      "ecologically": 8645,
      "ils": 8646,
      "iles": 8647,
      "ils,": 8648,
      "iles,": 8649,
      "ili,": 8650,
      "ilip": 8651,
      "illegal": 8652,
      "ilingual": 8653,
      "్రప్రదేశ్": 8654,
      "Thous": 8655,
      "Through": 8656,
      "Three": 8657,
      "Thanjav": 8658,
      "Thomason": 8659,
      "ada": 8660,
      "adult": 8661,
      "adru": 8662,
      "administer": 8663,
      "ada.": 8664,
      "adjo": 8665,
      "adasis.": 8666,
      "ter.": 8667,
      "tery": 8668,
      "tered": 8669,
      "terly": 8670,
      "ters.": 8671,
      "termin": 8672,
      "terti": 8673,
      "terculture.": 8674,
      "terrence": 8675,
      "ters')": 8676,
      "ola": 8677,
      "olish": 8678,
      "oli,": 8679,
      "olith": 8680,
      "olonisation": 8681,
      "olars,": 8682,
      "olitan": 8683,
      "ri;": 8684,
      "ried": 8685,
      "ries.": 8686,
      "rific": 8687,
      "riage": 8688,
      "riff": 8689,
      "ribes": 8690,
      "rigation,": 8691,
      "rigid": 8692,
      "ారి": 8693,
      "chem": 8694,
      "chay": 8695,
      "chall": 8696,
      "chi,": 8697,
      "chef": 8698,
      "chess": 8699,
      "chasing": 8700,
      "chta": 8701,
      "champ": 8702,
      "chicken": 8703,
      "charts,": 8704,
      "chronic": 8705,
      "cheap": 8706,
      "choic": 8707,
      "checked": 8708,
      "choli,": 8709,
      "em,": 8710,
      "ems": 8711,
      "ema,": 8712,
      "emits": 8713,
      "embl": 8714,
      "emiss": 8715,
      "embodi": 8716,
      "emission": 8717,
      "ation.": 8718,
      "ations.": 8719,
      "Thee,": 8720,
      "1928": 8721,
      "1936": 8722,
      "1935": 8723,
      "1911": 8724,
      "1921,": 8725,
      "1920,": 8726,
      "193,42": 8727,
      "ula": 8728,
      "ulated": 8729,
      "ulating": 8730,
      "ulaic": 8731,
      "ulgation": 8732,
      "ulkar,": 8733,
      "verbal": 8734,
      "li,": 8735,
      "lide": 8736,
      "liqu": 8737,
      "lihood": 8738,
      "lizard": 8739,
      "lian;": 8740,
      "lier.": 8741,
      "20%": 8742,
      "20s.": 8743,
      "2020.": 8744,
      "లుచుకోవడ": 8745,
      "raw": 8746,
      "raid": 8747,
      "raised": 8748,
      "raga": 8749,
      "radish": 8750,
      "rainf": 8751,
      "raising": 8752,
      "ravene": 8753,
      "raiders": 8754,
      "rajbhas": 8755,
      "raksh": 8756,
      "ravan": 8757,
      "raits,": 8758,
      "rachta": 8759,
      "rove": 8760,
      "roban": 8761,
      "ropolit": 8762,
      "roportion": 8763,
      "roti,": 8764,
      "root.": 8765,
      "roider": 8766,
      "royal": 8767,
      "rochem": 8768,
      "cealed": 8769,
      "aging": 8770,
      "agle": 8771,
      "age,": 8772,
      "agog": 8773,
      "ages.": 8774,
      "agement": 8775,
      "aggl": 8776,
      "aged.": 8777,
      "agro-": 8778,
      "agiary,": 8779,
      "agupt": 8780,
      "ford": 8781,
      "foray": 8782,
      "fore,": 8783,
      "forces": 8784,
      "forced": 8785,
      "forbade": 8786,
      "प्रिय": 8787,
      "प्रसार": 8788,
      "प्रदान": 8789,
      "utan": 8790,
      "uting": 8791,
      "utation": 8792,
      "uttu": 8793,
      "beyond": 8794,
      "bears": 8795,
      "beto-B": 8796,
      "veli": 8797,
      "veill": 8798,
      "vehic": 8799,
      "est,": 8800,
      "ests,": 8801,
      "estment": 8802,
      "uses": 8803,
      "usive": 8804,
      "usher": 8805,
      "usage": 8806,
      "usively": 8807,
      "bylon": 8808,
      "Indian,": 8809,
      "Indian-own": 8810,
      "loor": 8811,
      "losing": 8812,
      "locations": 8813,
      "lop-si": 8814,
      "lodic": 8815,
      "lost.": 8816,
      "angpo": 8817,
      "angra,": 8818,
      "seen": 8819,
      "sely": 8820,
      "seaf": 8821,
      "segre": 8822,
      "seas,": 8823,
      "seven": 8824,
      "seals,": 8825,
      "sewhere": 8826,
      "seams": 8827,
      "sealed": 8828,
      "seal,": 8829,
      "conqu": 8830,
      "condition": 8831,
      "consequ": 8832,
      "conserv": 8833,
      "constru": 8834,
      "conspic": 8835,
      "conifer": 8836,
      "constitutes": 8837,
      "concealed": 8838,
      "una": 8839,
      "units": 8840,
      "unpre": 8841,
      "uneas": 8842,
      "unlin": 8843,
      "unaff": 8844,
      "unconstitutional": 8845,
      "unrest": 8846,
      "univer": 8847,
      "unachal": 8848,
      "undisputed": 8849,
      "unwanted": 8850,
      "unleavened": 8851,
      "unanim": 8852,
      "विरो": 8853,
      "ims": 8854,
      "iment": 8855,
      "imum": 8856,
      "ime,": 8857,
      "immen": 8858,
      "imitated": 8859,
      "image.": 8860,
      "importer": 8861,
      "deal": 8862,
      "deity": 8863,
      "deep": 8864,
      "death": 8865,
      "depos": 8866,
      "deforest": 8867,
      "deta": 8868,
      "defeat": 8869,
      "determin": 8870,
      "deems": 8871,
      "wides": 8872,
      "ate.": 8873,
      "లో,": 8874,
      "లోను": 8875,
      "లోమీ": 8876,
      "్యా": 8877,
      "ired": 8878,
      "irreg": 8879,
      "irrigation,": 8880,
      "ghanistan": 8881,
      "gharial": 8882,
      "astal": 8883,
      "asties,": 8884,
      "astring": 8885,
      "ist,": 8886,
      "istical": 8887,
      "istance": 8888,
      "isti,": 8889,
      "istics": 8890,
      "istic,": 8891,
      "istently": 8892,
      "స్.": 8893,
      "స్వీ": 8894,
      "స్కరణ": 8895,
      "స్లిం": 8896,
      "ct,": 8897,
      "ctivity": 8898,
      "ctrine": 8899,
      "ctuaries": 8900,
      "white": 8901,
      "whims": 8902,
      "sue": 8903,
      "sukh": 8904,
      "superi": 8905,
      "sustained": 8906,
      "s.)": 8907,
      "00–1900": 8908,
      "exe": 8909,
      "excl": 8910,
      "experi": 8911,
      "excur": 8912,
      "exterior": 8913,
      "exceed": 8914,
      "exogam": 8915,
      "abatic": 8916,
      "abhad": 8917,
      "abhat": 8918,
      "abjur": 8919,
      "absol": 8920,
      "abolish": 8921,
      "దిగువ": 8922,
      "romos": 8923,
      "dual": 8924,
      "ప్రాయ": 8925,
      "ప్రసి": 8926,
      "ప్రత్య": 8927,
      "ప్రయో": 8928,
      "దేశీ": 8929,
      "దేశాలు": 8930,
      "opy": 8931,
      "oples,": 8932,
      "opolitan": 8933,
      "sie": 8934,
      "sip": 8935,
      "sible": 8936,
      "sizes": 8937,
      "etak": 8938,
      "etry": 8939,
      "etnam,": 8940,
      "ర్,": 8941,
      "ర్తి": 8942,
      "ర్జాతీయ": 8943,
      "ర్చు": 8944,
      "ర్థ్యం": 8945,
      "res,": 8946,
      "ress,": 8947,
      "resour": 8948,
      "resolution": 8949,
      "resentments": 8950,
      "resurgence": 8951,
      "resistance": 8952,
      "aks": 8953,
      "akti": 8954,
      "akening": 8955,
      "నిపు": 8956,
      "నిడి": 8957,
      "నియమించ": 8958,
      "art.": 8959,
      "arts": 8960,
      "arts.": 8961,
      "artists": 8962,
      "artists,": 8963,
      "राजवंश": 8964,
      "ument": 8965,
      "umped": 8966,
      "umpet": 8967,
      "aya": 8968,
      "ayana,": 8969,
      "संग": 8970,
      "dering": 8971,
      "der's": 8972,
      "ders.": 8973,
      "derately": 8974,
      "derives": 8975,
      "derabad": 8976,
      "derecog": 8977,
      "deriving": 8978,
      "माता": 8979,
      "weriwal": 8980,
      "over,": 8981,
      "overall": 8982,
      "overlaps": 8983,
      "are,": 8984,
      "arel": 8985,
      "areas,": 8986,
      "భారతం,": 8987,
      "illust": 8988,
      "ments,": 8989,
      "mentioned": 8990,
      "ialist": 8991,
      "moth": 8992,
      "moved": 8993,
      "moving": 8994,
      "mobility": 8995,
      "modated": 8996,
      "mosqu": 8997,
      "coher": 8998,
      "cosm": 8999,
      "cooperation": 9000,
      "cosine": 9001,
      "cosine,": 9002,
      "coins.": 9003,
      "course": 9004,
      "rite": 9005,
      "rition,": 9006,
      "भागी": 9007,
      "compl": 9008,
      "compared": 9009,
      "combin": 9010,
      "eld": 9011,
      "ellate": 9012,
      "elite": 9013,
      "elsewhere": 9014,
      "elders.": 9015,
      "shear": 9016,
      "sha,": 9017,
      "shali": 9018,
      "sheet": 9019,
      "shorter": 9020,
      "shirt": 9021,
      "shook": 9022,
      "shrine,": 9023,
      "sherwan": 9024,
      "earth.": 9025,
      "spend": 9026,
      "spok": 9027,
      "split": 9028,
      "spite": 9029,
      "spons": 9030,
      "spring,": 9031,
      "spired": 9032,
      "which,": 9033,
      "aped": 9034,
      "apatna,": 9035,
      "ष्क": 9036,
      "ాలు:": 9037,
      "sojour": 9038,
      "centres": 9039,
      "cent-sh": 9040,
      "id,": 9041,
      "ids,": 9042,
      "idyan": 9043,
      "idency": 9044,
      "idli,": 9045,
      "acus": 9046,
      "acity": 9047,
      "aces,": 9048,
      "acy.": 9049,
      "accompan": 9050,
      "acute": 9051,
      "aciers": 9052,
      "perform": 9053,
      "perman": 9054,
      "perched": 9055,
      "percept": 9056,
      "perhaps": 9057,
      "pervasive": 9058,
      "peratures": 9059,
      "clans,": 9060,
      "clickable": 9061,
      "meal": 9062,
      "medit": 9063,
      "measures": 9064,
      "measured": 9065,
      "meter.": 9066,
      "melodic": 9067,
      "content": 9068,
      "context": 9069,
      "contemp": 9070,
      "contrast": 9071,
      "contravene": 9072,
      "higar": 9073,
      "ota": 9074,
      "क्षित": 9075,
      "ాతి": 9076,
      "साहि": 9077,
      "గాన్ని": 9078,
      "2011.": 9079,
      "2017,": 9080,
      "2018.": 9081,
      "2018,": 9082,
      "larless": 9083,
      "laration.": 9084,
      "antly": 9085,
      "anta,": 9086,
      "antra,": 9087,
      "anti-": 9088,
      "anticide": 9089,
      "antaged.": 9090,
      "న్నీ": 9091,
      "న్నై": 9092,
      "న్నది.": 9093,
      "igai": 9094,
      "ure\"": 9095,
      "ure-": 9096,
      "provi": 9097,
      "proces": 9098,
      "propos": 9099,
      "provis": 9100,
      "proportion": 9101,
      "proclaiming": 9102,
      "protag": 9103,
      "ishya,": 9104,
      "ishvara": 9105,
      "pled": 9106,
      "plus": 9107,
      "plural": 9108,
      "plann": 9109,
      "plants": 9110,
      "platter": 9111,
      "places,": 9112,
      "udal": 9113,
      "udra,": 9114,
      "Child": 9115,
      "Chaud": 9116,
      "Chenn": 9117,
      "Chronic": 9118,
      "Chhatt": 9119,
      "Cheras": 9120,
      "Charan": 9121,
      "Chords": 9122,
      "Church": 9123,
      "Chisti,": 9124,
      "Chromos": 9125,
      "Chota": 9126,
      "క్‌": 9127,
      "endogam": 9128,
      "end—passing": 9129,
      "కుడి": 9130,
      "విభ": 9131,
      "విలు": 9132,
      "విశ్": 9133,
      "విమాన": 9134,
      "విషయాలు": 9135,
      "విదేశీ": 9136,
      "rupt": 9137,
      "ruction": 9138,
      "ructure": 9139,
      "form.": 9140,
      "forms,": 9141,
      "formulaic": 9142,
      "ans-Himalay": 9143,
      "af.": 9144,
      "ాయాలు": 9145,
      "1,0": 9146,
      "1,380": 9147,
      "beration": 9148,
      "weight": 9149,
      "weakening": 9150,
      "havi": 9151,
      "hadis": 9152,
      "ha.gov.in/": 9153,
      "hawk-e": 9154,
      "aju,": 9155,
      "geny,": 9156,
      "genders": 9157,
      "genetic": 9158,
      "gencies": 9159,
      "genous,": 9160,
      "genres,": 9161,
      "దేశం.": 9162,
      "ives,": 9163,
      "ivite": 9164,
      "all.": 9165,
      "allis.": 9166,
      "alluv": 9167,
      "asslands": 9168,
      "marma": 9169,
      "marble": 9170,
      "marital": 9171,
      "marinade": 9172,
      "maritime": 9173,
      "maraju,": 9174,
      "pool": 9175,
      "poss": 9176,
      "poetry": 9177,
      "CE)": 9178,
      "CEE": 9179,
      "CE),": 9180,
      "CE).": 9181,
      "miniat": 9182,
      "minster": 9183,
      "parties": 9184,
      "parties.": 9185,
      "partner": 9186,
      "port.": 9187,
      "ports,": 9188,
      "portant": 9189,
      "portfol": 9190,
      "portraits,": 9191,
      "ల్లు": 9192,
      "ల్లో": 9193,
      "ినీ": 9194,
      "low.": 9195,
      "low;": 9196,
      "lows.": 9197,
      "low-income": 9198,
      "lowest,": 9199,
      "త్త": 9200,
      "ము,": 9201,
      "ముద్ర": 9202,
      "ముడి": 9203,
      "ముస్లిం": 9204,
      "त्न": 9205,
      "ational,": 9206,
      "मिला": 9207,
      "वास": 9208,
      "वास्त": 9209,
      "create": 9210,
      "cretic": 9211,
      "ousers,": 9212,
      "2008": 9213,
      "2001.": 9214,
      "2007,": 9215,
      "2009.": 9216,
      "2006.": 9217,
      "2006,": 9218,
      "2008–": 9219,
      "stitched": 9220,
      "मुंबई": 9221,
      "రిస్త": 9222,
      "करती": 9223,
      "aveng": 9224,
      "avily": 9225,
      "avati,": 9226,
      "avoor,": 9227,
      "avor,": 9228,
      "erally,": 9229,
      "economically": 9230,
      "सिंध": 9231,
      "norm": 9232,
      "northeast,": 9233,
      "ction.": 9234,
      "Hindu,": 9235,
      "Hindu-majority": 9236,
      "Hindu–Arab": 9237,
      "किए": 9238,
      "किसी": 9239,
      "fires,": 9240,
      "ow/5": 9241,
      "1.4": 9242,
      "1.5": 9243,
      "1.6%": 9244,
      "1.24": 9245,
      "1.48": 9246,
      "1.cms": 9247,
      "Indos": 9248,
      "Indoi,": 9249,
      "264": 9250,
      "26న": 9251,
      "268–": 9252,
      "lating": 9253,
      "latitude": 9254,
      "latitud": 9255,
      "ించి": 9256,
      "world,": 9257,
      "दिरा": 9258,
      "50,000": 9259,
      "50–60%": 9260,
      "region,": 9261,
      "regionally": 9262,
      "region-speci": 9263,
      "butaries": 9264,
      "subdue": 9265,
      "subtropical": 9266,
      "subcaste,": 9267,
      "sub-castes,": 9268,
      "subordin": 9269,
      "लीवि": 9270,
      "upon": 9271,
      "upsur": 9272,
      "upati": 9273,
      "year,": 9274,
      "year-round": 9275,
      "తి,": 9276,
      "తిరు": 9277,
      "స్తా": 9278,
      "స్తులు": 9279,
      "ates.": 9280,
      "quate": 9281,
      "quite": 9282,
      "quely": 9283,
      "quarter": 9284,
      "quitous": 9285,
      "quadru": 9286,
      "స్థి": 9287,
      "స్థూ": 9288,
      "స్థాని": 9289,
      "స్థావ": 9290,
      "हैं:": 9291,
      "ineal": 9292,
      "atic,": 9293,
      "land.": 9294,
      "landed": 9295,
      "landown": 9296,
      "landmas": 9297,
      "landmark": 9298,
      "ానీ": 9299,
      "ాన్య": 9300,
      "ence,": 9301,
      "peep": 9302,
      "pehl": 9303,
      "peasants": 9304,
      "peoples,": 9305,
      "government;": 9306,
      "government's": 9307,
      "pride,": 9308,
      "private": 9309,
      "priorities": 9310,
      "priests,": 9311,
      "dhanar": 9312,
      "dhamma": 9313,
      "decimal": 9314,
      "decline": 9315,
      "decenn": 9316,
      "decoration,": 9317,
      "decentral": 9318,
      "decolonisation": 9319,
      "few": 9320,
      "feudal": 9321,
      "harsh": 9322,
      "harmon": 9323,
      "harash": 9324,
      "harvested": 9325,
      "inclusive": 9326,
      "relied": 9327,
      "India.gov.in": 9328,
      "after;": 9329,
      "afterward": 9330,
      "bled": 9331,
      "blurred": 9332,
      "blouse,": 9333,
      "पाया": 9334,
      "पांड": 9335,
      "पाँच": 9336,
      "పురి": 9337,
      "పుకో": 9338,
      "పుష్": 9339,
      "పుతూ": 9340,
      "enges": 9341,
      "South,": 9342,
      "Southwest": 9343,
      "board": 9344,
      "ciary": 9345,
      "ciously": 9346,
      "plex": 9347,
      "pleated": 9348,
      "pleasures": 9349,
      "ricity": 9350,
      "rict,": 9351,
      "rice;": 9352,
      "rictions": 9353,
      "orean": 9354,
      "माना": 9355,
      "मान्यता": 9356,
      "प्रदेशों": 9357,
      "gana-mana-498576.html": 9358,
      "them,": 9359,
      "thematics": 9360,
      "extens": 9361,
      "extinction": 9362,
      "parity": 9363,
      "paralle": 9364,
      "parks": 9365,
      "elements": 9366,
      "train": 9367,
      "training": 9368,
      "ghtenment": 9369,
      "భారతదేశం,": 9370,
      "భారతదేశం.": 9371,
      "largest,": 9372,
      "largest.": 9373,
      "ewing": 9374,
      "ంలో,": 9375,
      "समझ": 9376,
      "Any": 9377,
      "Anand": 9378,
      "herd": 9379,
      "herbal": 9380,
      "herds": 9381,
      "here.": 9382,
      "heritage.": 9383,
      "had,": 9384,
      "hadur": 9385,
      "vious": 9386,
      "vide,": 9387,
      "vidual": 9388,
      "derness": 9389,
      "eping": 9390,
      "1961.": 9391,
      "1967,": 9392,
      "1962.": 9393,
      "1962,": 9394,
      "1964,": 9395,
      "1966,": 9396,
      "1964–201": 9397,
      "0.02%": 9398,
      "meric,": 9399,
      "dance,": 9400,
      "dance.": 9401,
      "fic—because": 9402,
      "long.": 9403,
      "longest-": 9404,
      "longitude": 9405,
      "numerous": 9406,
      "polling": 9407,
      "polio,": 9408,
      "polio-": 9409,
      "tware": 9410,
      "twater": 9411,
      "twice": 9412,
      "భావిస్త": 9413,
      "భాగం": 9414,
      "భాగాన్ని": 9415,
      "సంస్కరణ": 9416,
      "age;": 9417,
      "ageable": 9418,
      "bett": 9419,
      "system's": 9420,
      "systematic,": 9421,
      "बाहरी": 9422,
      "cordial": 9423,
      "coriand": 9424,
      "corpor": 9425,
      "mons": 9426,
      "monary": 9427,
      "monkey": 9428,
      "money": 9429,
      "montan": 9430,
      "months.": 9431,
      "scuring": 9432,
      "scene": 9433,
      "scenes": 9434,
      "series": 9435,
      "series.": 9436,
      "ంటి": 9437,
      "ంటు": 9438,
      "జాతి": 9439,
      "జాతులు,": 9440,
      "1848": 9441,
      "1847": 9442,
      "18%,": 9443,
      "1891,": 9444,
      "1820s.": 9445,
      "2021,": 9446,
      "2022.": 9447,
      "2023,": 9448,
      "2024,": 9449,
      "flaw": 9450,
      "flank": 9451,
      "flung": 9452,
      "flanking": 9453,
      "musical": 9454,
      "moreover,": 9455,
      "nized": 9456,
      "war,": 9457,
      "war.": 9458,
      "wars": 9459,
      "wars.": 9460,
      "warmer": 9461,
      "1994": 9462,
      "1991.": 9463,
      "1995.": 9464,
      "1998.": 9465,
      "1996,": 9466,
      "minister;": 9467,
      "ians.)": 9468,
      "o-economic": 9469,
      "पूरा": 9470,
      "achment": 9471,
      "achiev": 9472,
      "Congress,": 9473,
      "వాటి": 9474,
      "వాదం": 9475,
      "ssils": 9476,
      "2.5": 9477,
      "2.9%": 9478,
      "ण्डि": 9479,
      "17)": 9480,
      "170": 9481,
      "172": 9482,
      "1785": 9483,
      "1765": 9484,
      "1775–": 9485,
      "1786–": 9486,
      "banned": 9487,
      "castes\"": 9488,
      "notes,": 9489,
      "ంగా,": 9490,
      "increase": 9491,
      "incremental": 9492,
      "limits": 9493,
      "limit.": 9494,
      "musics": 9495,
      "musicians": 9496,
      "cedented": 9497,
      "others,": 9498,
      "others.": 9499,
      "enslav": 9500,
      "ensembl": 9501,
      "outside": 9502,
      "outcrop": 9503,
      "outpost": 9504,
      "Congress's": 9505,
      "Congress\")": 9506,
      "ांां": 9507,
      "BCE)": 9508,
      "BCE;": 9509,
      "BCE),": 9510,
      "Under": 9511,
      "Until": 9512,
      "Untouch": 9513,
      "ffed": 9514,
      "ffs;": 9515,
      "ffalo": 9516,
      "grown": 9517,
      "growing,": 9518,
      "kho": 9519,
      "khol": 9520,
      "kho,": 9521,
      "khameri": 9522,
      "mainland": 9523,
      "mainstream": 9524,
      "prince": 9525,
      "prana": 9526,
      "prise": 9527,
      "pronoun": 9528,
      "సాహ": 9529,
      "సామా": 9530,
      "సామీ": 9531,
      "aniam,": 9532,
      "learned": 9533,
      "ార్థ": 9534,
      "1946": 9535,
      "1949": 9536,
      "1949.": 9537,
      "1947.": 9538,
      "modern,": 9539,
      "modern-day": 9540,
      "classes.": 9541,
      "క్షరాస్యత": 9542,
      "population.": 9543,
      "tradition.": 9544,
      "traditions,": 9545,
      "number,": 9546,
      "two,": 9547,
      "Convent": 9548,
      "Conserv": 9549,
      "Concurrent": 9550,
      "4.4": 9551,
      "athan": 9552,
      "athan,": 9553,
      "ితే,": 9554,
      "द्रो": 9555,
      "1950s": 9556,
      "5.24": 9557,
      "Afghanistan": 9558,
      "Ala": 9559,
      "Almost": 9560,
      "Embra": 9561,
      "Empir": 9562,
      "Eurasi": 9563,
      "kriti,": 9564,
      "prefer": 9565,
      "prehen": 9566,
      "preexisting": 9567,
      "prepared": 9568,
      "pre-existing": 9569,
      "precise": 9570,
      "prevail": 9571,
      "preyed": 9572,
      "preamble": 9573,
      "previous": 9574,
      "one's": 9575,
      "ition,": 9576,
      "రాజు": 9577,
      "phies.": 9578,
      "phin.": 9579,
      "phanta": 9580,
      "phanek": 9581,
      "phorism": 9582,
      "3,000": 9583,
      "3,264": 9584,
      "3,170": 9585,
      "2,55": 9586,
      "Gukesh": 9587,
      "होना": 9588,
      "isation,": 9589,
      "जिन्हें": 9590,
      "विशेष": 9591,
      "308": 9592,
      "30′": 9593,
      "away": 9594,
      "roughly": 9595,
      "పావ": 9596,
      "పాంత": 9597,
      "పాండి": 9598,
      "పాడు": 9599,
      "thought,": 9600,
      "urban;": 9601,
      "under,": 9602,
      "underwent": 9603,
      "underground": 9604,
      "under-five": 9605,
      "underskir": 9606,
      "istan,": 9607,
      "expendit": 9608,
      "expanded": 9609,
      "languages:": 9610,
      "languages\".": 9611,
      "included": 9612,
      "included.": 9613,
      "Sanskrit.": 9614,
      "283": 9615,
      "counted": 9616,
      "countries": 9617,
      "countries.": 9618,
      "కిలోమీ": 9619,
      "omination": 9620,
      "रूस": 9621,
      "fts": 9622,
      "fted": 9623,
      "ft-hor": 9624,
      "Mahal": 9625,
      "Maoist": 9626,
      "Mahavi": 9627,
      "Maharash": 9628,
      "Mathematics": 9629,
      "Most": 9630,
      "Mohini": 9631,
      "Moderately": 9632,
      "causing": 9633,
      "causes": 9634,
      "folk,": 9635,
      "garments": 9636,
      "little": 9637,
      "ద్రవ్య": 9638,
      "పం.": 9639,
      "lege": 9640,
      "legislation,": 9641,
      "legacy.": 9642,
      "ement;": 9643,
      "began,": 9644,
      "began.": 9645,
      "economic,": 9646,
      "economics.": 9647,
      "elections,": 9648,
      "continental": 9649,
      "Empire,": 9650,
      "Empire);": 9651,
      "British,": 9652,
      "3.94": 9653,
      "dings": 9654,
      "tras": 9655,
      "trumpet": 9656,
      "trousers,": 9657,
      "కాహార": 9658,
      "కా-ఢిల్లీ": 9659,
      "కాపాడు": 9660,
      "తం,": 9661,
      "నేరే": 9662,
      "ari;": 9663,
      "arippay": 9664,
      "arithmet": 9665,
      "ologic": 9666,
      "Bengal,": 9667,
      "Bengal.": 9668,
      "Bengal;": 9669,
      "Bengaluru,": 9670,
      "5,05": 9671,
      "Energy": 9672,
      "lately": 9673,
      "6%,": 9674,
      "6%E0%B": 9675,
      "Complex": 9676,
      "Comprehen": 9677,
      "Delta": 9678,
      "Pung": 9679,
      "Tamil.": 9680,
      "balance": 9681,
      "balanced": 9682,
      "heart": 9683,
      "health": 9684,
      "heavily": 9685,
      "milking": 9686,
      "milk,": 9687,
      "militants": 9688,
      "southwest,": 9689,
      "southwes": 9690,
      "anadi,": 9691,
      "ised,": 9692,
      "adequate": 9693,
[...]
